/**
  ******************************************************************************
  * @file    network_data_params.c
  * @author  AST Embedded Analytics Research Platform
  * @date    2026-05-19T17:44:29-0500
  * @brief   AI Tool Automatic Code Generator for Embedded NN computing
  ******************************************************************************
  * Copyright (c) 2026 STMicroelectronics.
  * All rights reserved.
  *
  * This software is licensed under terms that can be found in the LICENSE file
  * in the root directory of this software component.
  * If no LICENSE file comes with this software, it is provided AS-IS.
  ******************************************************************************
  */

#include "network_data_params.h"


/**  Activations Section  ****************************************************/
ai_handle g_network_activations_table[1 + 2] = {
  AI_HANDLE_PTR(AI_MAGIC_MARKER),
  AI_HANDLE_PTR(NULL),
  AI_HANDLE_PTR(AI_MAGIC_MARKER),
};




/**  Weights Section  ********************************************************/
AI_ALIGNED(32)
const ai_u64 s_network_weights_array_u64[58947] = {
  0xbc3806363d0b83c9U, 0x3e8872693e3750a5U, 0x3df8e65bbed8a23aU, 0xbda159283e3803caU,
  0xbef41addbe499d16U, 0x3efabbd33ecd7771U, 0xbe00219bbed68d8cU, 0xbe43f82dbeb758c7U,
  0xbe8eea69bef1e5a1U, 0x3ebd877abdb6e99dU, 0x3cb501a83eabdaa5U, 0xbd0d77ebbe36ea9aU,
  0x3eddc6fa3f0e9a19U, 0xbe8658753f056e14U, 0xbef6455cbe2e5e3eU, 0xbe1c7e4c3de65008U,
  0xbeb55c783f088aaeU, 0x3ee2ed91be88b2eaU, 0x3efa33173e9156e2U, 0xbf04efa4bea39014U,
  0xbeca76093e0cd45cU, 0xbe4f0effbdac2613U, 0xbe9845e13ed6f6f7U, 0x3eb302ddbe87cd66U,
  0x3e98455b3eb2dee1U, 0xbda16e65bf073338U, 0xbe4e664bbcf4849aU, 0xbeda915e3f167265U,
  0x3d08d2ffbebb6b6aU, 0x3f0816593ea40cf4U, 0xbe8da9e3bd723a15U, 0xbe56b9f2beba88bfU,
  0xbc092df7bd455598U, 0xbde55f62be48f185U, 0xbdfdfa153edbb4a5U, 0xbe67c8063ed8ce51U,
  0x3bbf7157bea55a5eU, 0x3f14115a3e6b2300U, 0xbe0765093d131277U, 0xbe41f1963e01575eU,
  0xbe8dd8da3e89acccU, 0xbe976376bea41e92U, 0xbe6fd06e3ed78ecaU, 0xbad75d29bec65a99U,
  0x3ed82aa43d900e3dU, 0x3e6ed8c9bd67849aU, 0x3ea15c68be97767cU, 0xbd3505dc3dfcb234U,
  0x3e29e0dabdac5ac9U, 0xbe01d966bdd8ba0dU, 0xbe6b98d6bebbba9eU, 0x3f0f42b53bcc3863U,
  0x3e09a788bd85f3ebU, 0xbd3541803d2af129U, 0xbe7a70c2be5506fbU, 0xbdc4283a3d9d635fU,
  0xbdf746c93e46080cU, 0x3ed352f7be5e1e9aU, 0x3ee29664bd7f7eefU, 0xbe928885bf187e94U,
  0x3df1c36a3e94d6c9U, 0xbde657083ea6c004U, 0x3c8e3c55bec1a08cU, 0xbeec7f873e9deaa2U,
  0x3de522823d876b70U, 0x3e45c4e23ddc11b5U, 0xbd1c6301bef8fddaU, 0x3c8bc7bdbe520674U,
  0x3c87571fbe418295U, 0xbdbd2c073e736162U, 0x3dc9401bbd4473f2U, 0xbeec2c973e1ad730U,
  0x3d25d3cf3e9f2135U, 0x3eda18abbe62d919U, 0xbc8205cabd46ec56U, 0xbee408ffbecda756U,
  0x3e062c5abde8722bU, 0x3ec79b363ee9ea33U, 0x3e34bcc2be40840eU, 0xbe5c1be1bf17340fU,
  0x3e54c4d8bdf9c519U, 0xbeaa85f6bebf892eU, 0xbe9013edbf37428eU, 0x3e58b6b3bf0a31bfU,
  0xbe0a66c6be3069b7U, 0x3e1c00e6bdc3c8f2U, 0xbed61ce9bebec207U, 0xbf3e6f12be72fae8U,
  0x3bca5836bdd9e337U, 0xbea1486a3df3bcbcU, 0xbdea118ab88c659cU, 0x3d3fc599beca0d56U,
  0xbe85e6ac3d060fd4U, 0xbe848be7bea22679U, 0x3d205e7fbecbfd42U, 0xbf39e7b63cc00a83U,
  0x3ed0d88dbf3544b1U, 0x3edd15b93efa9a7dU, 0x3f0525c0bebc6eb7U, 0xbf0a048cbd8a7195U,
  0xbecc40a33ec41e07U, 0x3d60d25b3f17457eU, 0x3bc31fe23eca4448U, 0x3ec78a953e92d729U,
  0x3cea35bfbe235b38U, 0xbe0b21f1bf26c1f8U, 0x3ec6a8e23eb24a56U, 0x3e53a9eebf0acceeU,
  0x3bd78c41bec60901U, 0x3e8a43223eb5d746U, 0xbf4c787fbd369135U, 0x3e45cb983f1d66c6U,
  0x3e8ef336bf57ddd0U, 0x3eaa77793d161516U, 0x3d0c5b7abe52138eU, 0xbf66d6e3bdd77b58U,
  0xbde8b9603e9c53a9U, 0x3e8005aa3f1afd13U, 0x3c68f87c3e17fe6dU, 0xc001272b3e78fe10U,
  0x3e12a1573d8222a7U, 0xbe94866ebef2f3caU, 0x3e0816983eb2d0c5U, 0xbe06f1b3bf2e5c29U,
  0x3e6cedafbf145d65U, 0x3b17d7ae3e341163U, 0xbeb26de23e2941a3U, 0xbe68963b3f2d6df2U,
  0x3e7138dbbd8637fbU, 0x3e0770a1bf97e0e5U, 0xbf823f223c93b8d1U, 0xbef98253be82f15aU,
  0x3de91192be096393U, 0x3ea845c13f057fa3U, 0xbce072c1bdc6b54aU, 0xbf39ac4fbe407807U,
  0x3e87bae13db023a5U, 0x3cb993bfbda47e42U, 0xbd96203a3e8d9249U, 0xbebed875beae6b88U,
  0xbcc93e93be9406a9U, 0x3c03f260bdac6181U, 0xbdf208d43d185ebeU, 0xbfa469953ed2f699U,
  0x3dfe27e93e2c51b7U, 0xbd4d94aabeb8562aU, 0x3e34c0073e367a95U, 0x3db3cf2ebe504d84U,
  0x3e2bcee5be8406cbU, 0x3dec68da3daca52cU, 0xbd872994be2857ffU, 0xbecaf093be9ba5a9U,
  0x3e367aa2bdc98586U, 0x3e80c144bca24361U, 0xbea71451bd9a43acU, 0xbcbd1ede3cc592ebU,
  0xbdfa2d003df589e4U, 0xbba59954be712e0dU, 0x3da2adaa3d487c88U, 0xbf407f463da02c68U,
  0x3d02f4fa3e0826d8U, 0xbe8a52913eaf62eeU, 0x3f0de19b3e9749beU, 0x3de725cdbe32db33U,
  0x3d3d18c6bf00820bU, 0x3e1d0246bea2dbb3U, 0xbd6427a4bee0a697U, 0x3d7aeb06be6a1bd9U,
  0x3e3968f6be07d274U, 0x3e54f2053dcdc78dU, 0xbec16981bd626abaU, 0xbd25cba93e1675d3U,
  0xbda55deabd3df691U, 0xbdf91bddbeabb74fU, 0xbc3cb5ccbc23f159U, 0x3e5e47d43cbe2b97U,
  0xbde6593fbd847199U, 0x3e0271ef3d209f98U, 0x3d3b65c83d59d2ddU, 0xbdde118c3e547232U,
  0x3d4c06d93e5077e1U, 0xbe672cbc3d958abaU, 0x3da40f293dc1619dU, 0x3e5e47dcbd21ef1aU,
  0xbd9749c8be17a282U, 0xbdea264fbcf97a27U, 0x3d5f24f1bcb0c8bcU, 0xbd85a2ab3e01d045U,
  0xbe3970ce3cc50e97U, 0xb8f4b2583d7a4ebfU, 0xbd79292b3d8101a8U, 0xbdd33a753dc1f844U,
  0xbe488159bdab2176U, 0x3e00795dbc258a89U, 0x3e135a59be0a4474U, 0xbd2ed02e3e034f0bU,
  0xbea117d13d6ffdbfU, 0xbe2aecd93e8379e9U, 0x3d0db2033d2182d3U, 0x3dac0f2bbe341354U,
  0xbdc1994bbe1b9884U, 0xbe520f4abdf14189U, 0x3b5533df3caae103U, 0xbe4ad4143d8d2999U,
  0xbe3299f33e1430d0U, 0xbdf62527be00eb70U, 0xbe4bccb9be874ed1U, 0x3c539c9e3e2f50fbU,
  0xbe47a6cbbe77bf2bU, 0x3c850452bd2c866dU, 0x3d211cbfbe654ce1U, 0xbe4d4c703e153673U,
  0xbec3b1a8bd899163U, 0xbe3b7c23bd757cd8U, 0x3bf26ba0bda5b945U, 0x3ca37960be141e58U,
  0xbeb68f50bdf21613U, 0xbe273de7be957210U, 0xbe990128be50eeb0U, 0xbe6172dbbc8ab0e7U,
  0xbe219481bd85f277U, 0xbe1bb2dbbeae16ecU, 0xbeb9d2e0be5ad5c0U, 0x3dd69873be0c3ad6U,
  0xbe30cebebe6bae75U, 0xbe36b8e6bd0bf7cdU, 0x3c0ef13dbeafd3c7U, 0xbe60f83bbdf204faU,
  0xbe164908bea7d1a8U, 0xbe262d4ebb887e46U, 0x3dff9d4abe9842f3U, 0xbea4f31bbe8bab27U,
  0xbddb540c3dd03c14U, 0xbe8ab676be73e9ecU, 0xbe85c48dbe7e1419U, 0xbe99be6bbdce6e8dU,
  0xbd70cb88bdf577cbU, 0xbe826837bea7f1a3U, 0xbec3b57abe3009f7U, 0x3c8b3d24bdf41c66U,
  0xbe9c70fcbec9d89aU, 0xbec2322ebea2740eU, 0xbf179f95bdd522daU, 0xbe7271f2be4587aeU,
  0xbd8175a6be83210cU, 0xbda26ff3bdf5aac4U, 0xbd06673bbedc04c0U, 0xbf4b7c0abe615ad7U,
  0xbe1402103e1c8303U, 0xbe4fde73bdd5181aU, 0xbed84c0ebe4a4d8fU, 0xbe2e4a67bd8b7c9aU,
  0x3db5a8fdbf0e32f9U, 0xbe90afa3bef6a618U, 0xbe60c2c23cef500fU, 0xbe4b27cebdbe09e0U,
  0xbdc145133e29b9a4U, 0x3ed779723ec45bc6U, 0x3ecce60f3ddf6374U, 0x3e2869ecbe459ec3U,
  0x3dcd47863e884ac1U, 0x3d03a8bcbdd55733U, 0xbe867eb13f11a261U, 0x3f0603953e7dbabcU,
  0x3dd064823d975452U, 0x3e40b7aa3dc98620U, 0x3f06bae53d16f9fdU, 0x3e7b16983e210795U,
  0xbdd881153e96059eU, 0x3e62b3eb3ef37611U, 0x3e16bad6bcc8d7c7U, 0x3e9a5232bda2dafbU,
  0xbebe127cbdaf2e73U, 0x3f0d87353e73af25U, 0x3e5f28fdbdedb79bU, 0x3e07c939bebee953U,
  0x3c82a3053ec2825fU, 0xbce7ce913d8e2dedU, 0xbecfb1b33eed05feU, 0xbe12880e3e94ad39U,
  0x3d23053f3c998c6eU, 0xbdcd131abcb03679U, 0x3ea240463dcce0ecU, 0x3e0ac6e1be37aea2U,
  0xbd45a90f3e01101cU, 0x3e0c0e683dfd3b92U, 0xbd8b3137be75e06dU, 0xbe8cf9573d066b11U,
  0xbf59f183bd9d4a2aU, 0x3ec7ca67bef30be2U, 0xbf05581abe82db5dU, 0x3d585222beb00727U,
  0x3e5efd843edb7792U, 0x3e6a0a9e3e87c719U, 0x3db74fe93e04dcceU, 0xbf00cfd1be8e493fU,
  0x3e6febc13ea3838dU, 0xbe468a7d3dff57daU, 0xbeb55f253eb75f24U, 0xbed8e9e3bdcd1cf0U,
  0x3dac32ae3cac13e6U, 0x3d532d20bf1db311U, 0x3da6460cbe095a08U, 0xbf541ad63e01ebafU,
  0xbf75dca1bcdf8153U, 0xbeaf3b0dbf637fbaU, 0xbf19f200bdb874bbU, 0x3ce04f4cbd9a67d7U,
  0x3df81091be8b9cf3U, 0x3da218113c881493U, 0x3c2b61aebf004540U, 0xbf0443f0bf3ef864U,
  0x3e27b7fbbe93dcddU, 0xbe25697d3e0677e2U, 0xbf4fec263e0d2049U, 0xbf0fcc753a047ec1U,
  0xbe0697223d7f0c4eU, 0x3bfe3f0abf773f39U, 0x3e12aa323d327d40U, 0xbf31dc86bdb883abU,
  0xbf62013c3e0392d6U, 0xbf8c5f4bbd82d5efU, 0x3dd0b03ebea6b977U, 0x3e1dfa7e3f202fa1U,
  0x3e2b4010bfd24783U, 0xbbc2c33dbf0448efU, 0x3edb3745bf70efe5U, 0xbeeaf9d9be55c02eU,
  0x3cf96e64bf051649U, 0x3da989633dad8894U, 0xbf00f1d33d8ab896U, 0x3eb221d73d74adfdU,
  0xbc07e9403dd75ca5U, 0x3e339309bf5155eeU, 0x3cd634313eaea345U, 0x3eaeb23abefc423dU,
  0xbed6f32b3dea31f8U, 0xbeae04f3bd0e02d6U, 0xbd204f713e5abfc3U, 0x3e47bc24bd44e81dU,
  0x3d71c1f2be996948U, 0xbebca3d2be1d0cb0U, 0x3bd0c8cdbe20382dU, 0x3e5241d3be19c289U,
  0xbe176b60bd364aa4U, 0x3cc2bc503dce5b1cU, 0xbe1cf61cbed960b9U, 0xbde47d1b3dd2b1e8U,
  0x3e8cbd353e1c9d10U, 0x3d9b1b2c3e1243c7U, 0x3e1e163dbce5516bU, 0x3e50282fbeab226eU,
  0xbe98b1cf3df6265eU, 0x3e27f1253d6e3201U, 0x3d5492413d13c42cU, 0x3dbc49c9bd94f3a1U,
  0xbd860a21bc5d7c3fU, 0xbec877583ec6f499U, 0xbde6a684be27138dU, 0x3dfb2643be00fd4eU,
  0x3ebc4d73380cbfc2U, 0xbddd45f63c4fd9eaU, 0xbeb572853e990db3U, 0x3d29d1153e0fa56eU,
  0x3d58ac843c8b6b7bU, 0x3e00674ebe22383dU, 0x3d8d4de33caad6d8U, 0xb8af743c3ece2ec7U,
  0xbd6e26af3d880c95U, 0xbe5361433d8e6688U, 0x3dcb69e7be08b159U, 0x3dae46793db5b81eU,
  0xbe6e63f73cfcdf78U, 0xbf0641be3ebc0ae4U, 0xbeb5447fbe812c78U, 0x3c0e29eabd645a3fU,
  0x3dfba2fcbec2c5f7U, 0xbe18a8e7bcf93bbaU, 0xbc899f053d53faeeU, 0x3d0c6b4abe3a23f9U,
  0x3daff1963d5046e1U, 0x3d8dbf4a3d684840U, 0xbdc4eab6be63d08dU, 0x3cb019ff3ed3e043U,
  0xbcd8b346bd4e27ebU, 0xbd49cf273e823752U, 0x3e21fa06be75dcbdU, 0xbd8198e6bd058c30U,
  0xbf5d1e47bd4db882U, 0xbeb5f9cdbed20f46U, 0x3e849e1c3dac68a3U, 0xbd3df9c1bddd1eb6U,
  0xbf290ccbbeb76dd3U, 0xbdabf18fbe7aa8f5U, 0x3d5094b9bd36325eU, 0x3dee0a2dbcbf46a1U,
  0xbd61bb60be0ea377U, 0x3e30611e3e13fa42U, 0xbe28870a3e424ec6U, 0x3dd819febe9bdb25U,
  0x3e0eb46cbe24c953U, 0x3dd4ef603e02dd4bU, 0x3d8ecd50be7e82dcU, 0xbe2b5b1fbe2479f8U,
  0xbf783adabd5ee9b7U, 0xbeb1ce21be1cc7f1U, 0x3e3572263d49c455U, 0x3dec2518bdf22b2cU,
  0xbf278279be127a67U, 0xbe0ca2a2bee101f5U, 0x3dc02e3fbeceddc7U, 0x3e0148e4be40a071U,
  0x3da62dd7bea10154U, 0x3ef51b7d3de1bf11U, 0xbecc0f413d29b39aU, 0x3e5e9117be5f2258U,
  0xbf2b4ec6bda331fbU, 0xbf1575aebbe2f1afU, 0x3d5d1f32be315732U, 0xbebaec3fbd030dd9U,
  0x3d7af3eebed08bf5U, 0xbd96fe4abe917219U, 0xbdd47d4ebf119156U, 0xbf44884ebed77b37U,
  0x3df4cd8dbe6c6bbbU, 0xbea76eccbe095763U, 0xbe8800d0be5dc54eU, 0xbe0b0596bd2f5b6aU,
  0xbe9b972abe678181U, 0xbf195a16bd0f371bU, 0xbe674177bdbd1a76U, 0xbe1f0f1fbee64387U,
  0xbea5a9d8bd7afcadU, 0xbece3bb43d28e688U, 0x3e2661c33b809b9bU, 0xbe52e8c7bee50d7eU,
  0x3e5e0c0fbf109c02U, 0xbe21fb12bef2a81aU, 0xbdfb3908be15f128U, 0xbf0a6abdbe8253b0U,
  0x3e274a98be3d0eb5U, 0xbe5594313c1fb8aeU, 0xbe6610853c2b7c88U, 0x3d8e5ddebe284149U,
  0xbe5daab6be1cb3a5U, 0xbea34440be0a0b2bU, 0xbde926cb3db98c40U, 0xbee7b0c7bf107201U,
  0x3e8fc792bd5fa9d3U, 0xbe3ade223f09ae56U, 0x3ed237053e679cddU, 0x3e04dc90bec5a814U,
  0x3e229ab3be4714daU, 0xbe485e89bec17f75U, 0xbeeda995bd817a3aU, 0xbe43fd0f3e978428U,
  0xbd6874af3e28c6f4U, 0xbd1e5de13b98383bU, 0x3d8a07dfbe31835cU, 0x3f0b7171be396e68U,
  0x3ce95495bca02d15U, 0x3e043e323d09eafaU, 0xbbfa5e903d516310U, 0xbdcc2c08bf368f29U,
  0x3ea5a15cbd9ac311U, 0xbd35743d3ecc2513U, 0x3e7e6e7e3eddfc2bU, 0xbd8d566d3cc8944bU,
  0x3e7a7faa3cee5af6U, 0xbe103cfa3cf23e06U, 0xbe7ad1473e200799U, 0x3deaae5a3e236b3dU,
  0xbd3a627e3e48e572U, 0xbe20f3e5bda41e43U, 0x3ec765d4be2ff66dU, 0x3eacec29be155004U,
  0x3de7fc91be43bca6U, 0x3e16a0403ecfc40aU, 0xbd8968d03eedeff3U, 0x3dec3e04bd34906dU,
  0x3ea9a994bdcd55ceU, 0x3ec2ea73be230ad8U, 0xbec07e333f0a44f3U, 0xbde502b5bca954b5U,
  0x3ebe26a03ef5e11cU, 0x3df6c4513ee6f65cU, 0xbe2376463ecb9283U, 0x3e5642aa3e494360U,
  0x3e23e4ce3e790137U, 0xbe22b6993d27b8f5U, 0x3ea340073e95f68cU, 0xbd31e0043ce60a5bU,
  0x3d8544afbe40c83bU, 0x3dcb39c23e6b5121U, 0x3da5f3e13eedac55U, 0x3d52e5503f05afe8U,
  0x3d314fb8bd5e05d1U, 0xbd2f8b84bd8dd694U, 0xbd9207e2bd4a7f6eU, 0xbc3d7ba6bd04c602U,
  0xbb50152cbd86e3efU, 0xbd838aac3bcd7d79U, 0xbd578c493d596c6aU, 0x3d198d43bd2d6ea5U,
  0xbc2124c2bd36fbffU, 0xbd65bb193d0e7a51U, 0x3ce83584bcf7163cU, 0x3cce6a9abdbe0966U,
  0xbdaa823ebcecaff8U, 0xbd8c9315bd9b107cU, 0xbdba695e3cc9a576U, 0xbd434355bd820d23U,
  0xbd96d7cc3cc4d201U, 0xbaf3eb4bbd3a4254U, 0x3d14acfb3d2a6d57U, 0xbcb0c4f6bd938b2aU,
  0xbd9a1fb5bd837cd9U, 0xbdabcd89bca25a90U, 0xbd6e57663d9fa1f5U, 0xbd47b6cdbd8595b1U,
  0xbd0d07e2bd2b416fU, 0xbd6099dfbcac1098U, 0x3cab6d48bd2f2602U, 0x3d37377e3c3b1124U,
  0xbd68e320bdc5b53eU, 0x3d93e659bc615f00U, 0xbd6771aa3d28da18U, 0xbca7e74ebd5510acU,
  0x3d9f3c35bb19ca48U, 0x3d106e113bb958ecU, 0xbd0933cc3cbc2591U, 0xbd673753bb8ea070U,
  0xbda2559b3ca720c8U, 0xbdc384f0bd2970ddU, 0xbd85c71b3ca03d20U, 0xbd2b9f62bda0603cU,
  0x3b9491f0bb92eb80U, 0xbd6f7fcb3ca63672U, 0xbb81bdb0bd810d84U, 0xbd3b9731bc93663dU,
  0xbc8d1937bdd2945cU, 0x3d95020f3ca72a98U, 0xbd8cc8a8bd74bd4cU, 0x3cf12e553d4479a4U,
  0xbd578572bda7ed40U, 0xbda0a7343cb2087eU, 0x3cf347f1bddd2aebU, 0x3c2c59c8bc9c6c3cU,
  0xbda833633d929041U, 0xbd6387cebca618f5U, 0xbdac5bf6bc97438eU, 0xbda13eab3bd86960U,
  0xbc2a322fbd9ecf47U, 0xbdc6ec0dbdde8542U, 0x3bac76c0bb080900U, 0xbd2b8684bd3d0b42U,
  0xbddad4d93d09655cU, 0xbd25d2a7bd924db2U, 0x3c9211da3b8704cfU, 0xbd41455fbcbaeaa8U,
  0xbd267c733cde2718U, 0xbd226e5cbd515ca1U, 0xbd97c08c3c2208ebU, 0x3ce06bd43d11d937U,
  0xbb93ed643c13bda8U, 0xbd95bea0bcb1ab10U, 0xbd0e937b3ce8d4a4U, 0xbc616f5dbd07905eU,
  0x3d44edb03d8b1d9cU, 0xbd32e57ebd4240c9U, 0xbcac7d5c3b1b45a0U, 0x3bde7c7e3cca3bb2U,
  0xbd6590acbc7dafa9U, 0x3d7ac1f23c5682ceU, 0x3ccbc1fabd274463U, 0xbd2e4efc3c0f0ce0U,
  0xbde7ee03bdb1ec39U, 0xbeda497abf045776U, 0xbee8cbf43e5fe982U, 0x3d9761f1be22ef6fU,
  0xbde2e797bf055319U, 0xbeefb806bf454aacU, 0xbd35062abecb04caU, 0xbe935964be55f03dU,
  0xbeee556a3e02e2caU, 0xbc3db71cbeda8244U, 0xbdab668abec08e56U, 0xbd09dd743e2d8c9bU,
  0x3dfdabaebe4a5333U, 0xbe3ee18abebb3621U, 0xbee719ec3dcbe810U, 0xbe8f4d21bf066744U,
  0x3d38ee24be8f5041U, 0xbebbef06bf208082U, 0xbef023e8beaf8606U, 0xbe0ea10fbded43b6U,
  0xbe84ed62bea2d300U, 0xbf1a0151bfaf44cbU, 0xbe92b46abd795bf0U, 0xbe581b7bbe841d31U,
  0xbf2c4edabe1167f5U, 0xbe4e4209bf40c6bbU, 0x3c2568e1bec25241U, 0x3ca5efda3e1706c3U,
  0xbcaceb4bbe74d1dfU, 0xbd5786cabe7510fdU, 0xbf20282dbe2f7d40U, 0xbf1a392bbeba2a2dU,
  0x3e0d89e8bec3d7acU, 0xbea1c536bef48ee8U, 0xbedb0fa4bfa62302U, 0xbccf78e8beac861dU,
  0xbf1d272cbdb79cd7U, 0xbef343ebbecc1200U, 0x3d95ebf1bc0cbc20U, 0xbe3c3a93bd01c18dU,
  0xbebbd8bcbc368b72U, 0xbe91b07ebf481d9aU, 0xbd16848cbe6fa1b5U, 0x3defb25d3e43a47bU,
  0x3c466ae9bd9a4876U, 0x3db7ea6bbe81f415U, 0xbf62a7f2bda54732U, 0xbf06f97cbe21d712U,
  0x3e691724bcd7dbb5U, 0xbde8ae5dbe15a5b6U, 0xbe2306fabecea5ddU, 0xbe70ff3abdf225e4U,
  0xbdb8487b3e2d2497U, 0xbe3022633e256c01U, 0x3cfeabf3bcb7ef36U, 0xbee77fd53ce47e2cU,
  0x3e03e0393dc1ac7aU, 0xbe3aacf7bf20f87dU, 0x3d87303a3d8e2e51U, 0xbcdbd2e93edda787U,
  0x3da59eb43e462a50U, 0xbd40c305be180c21U, 0xbf49ce3a3e967271U, 0xbe6ecc293dae7270U,
  0x3e2788613e6f3b94U, 0xbca922e83e8f95d5U, 0x3ed8373e3d9f2bbaU, 0xbeef2f27bca1943eU,
  0x3e4fe0dd3e873106U, 0x3e58e3623eba00b7U, 0xbec40a2e3cacb554U, 0x3c5ae4c2ba8fc126U,
  0x3e96782e3e592ca5U, 0x3d39cf06be17177aU, 0x3d02d7943de6f718U, 0xbdf10e5e3f0f08d2U,
  0x3d0ec54dbb4f0121U, 0xbe22ba373c4a3871U, 0xbe3c044cbecd63afU, 0x3ee6edd63e541557U,
  0x3e1276e2bf00ef52U, 0xbe522aebbf2c49cfU, 0xbf68b58bbe141c8bU, 0xbe4953023bb0f3ddU,
  0xbe5959bf388a3946U, 0xbe68d08cbe5ffb08U, 0x3e527dd9bdde58a9U, 0xbf22e0debd28855cU,
  0xbed1ac92bec94159U, 0x3d5314cbbf8e22abU, 0x3e073905be936f9dU, 0x3d9be0b5be4d0fe0U,
  0xbd831d14bf9248a7U, 0xbcbd3567be1c36adU, 0xbf9c82623daed118U, 0xbf2458a5be1bce72U,
  0x3dc72290beb9eb29U, 0xbe432119be6ab81dU, 0xbe7de4f5bece4bc1U, 0xbe6a005fbe242a51U,
  0xbe24dee5bbe2558aU, 0xbde00cebbe449e8cU, 0x3dacc493bd73ee08U, 0xbf2810ee3e896a99U,
  0xbe8dba5e3c96f499U, 0x3db6f1c4bf9168afU, 0x3e27f975be7cc58dU, 0xbca0b6afbda286ebU,
  0x3e41dd86bfa83eb5U, 0xbd89a82ebdf927e7U, 0xbf9dba293e1e5baeU, 0xbf8788553dacc704U,
  0x3e3351e13ccf0b5eU, 0xbe1b4d35bf4991ddU, 0xbf481ce33ab0e8ddU, 0xbe299674bd5655b1U,
  0xbf01a2fabde70c5aU, 0x3d198debbddf7123U, 0x3b2d26a4bd11fb07U, 0xbe0fd6fcbe0317ddU,
  0xbe009d12bdcd881fU, 0x3e6372ebbee4f41dU, 0xbd789d61bcadb122U, 0xbdb3a44f3e3e1cc8U,
  0xbd3997103ddeb9f4U, 0xbe0fbf01be4c13f5U, 0xbeb745203e200355U, 0xbf36bb503dc96fe5U,
  0x3d496e473deb729fU, 0xbdaa56263c75013bU, 0xbe76d703bf57b995U, 0xbe1d352cbe18af21U,
  0xbe6a88633d75c990U, 0x3d0e9d47bdbc5b1fU, 0x3cc008d1bd0f9129U, 0xbf0c07553d1bb4d2U,
  0xbc0887c63e21dc23U, 0x3d666ce0be213d83U, 0xbd9ea2e1bd0a2e0dU, 0xbd94a46ebe67d40bU,
  0x3da60ff43e341a92U, 0xbb633560bdbea554U, 0xbdf6e1aa3d349c7dU, 0xbed925243d491e5cU,
  0x3ce12e05bc93342eU, 0xbd10ac44bee69c04U, 0xbf401ddabebeca9bU, 0xbd148381bd931120U,
  0xbdd587aa3e06e98fU, 0x3e3bf7ec3e588d23U, 0xbe370b0ebe0a4c47U, 0xbf1509fe3daee039U,
  0x3deabdc23e0c49b0U, 0x3cdcadafbb842e35U, 0xbde1e2543d007b3dU, 0xbdb52a8abdb25665U,
  0x3e09b882be4b8a0eU, 0xbcc4b3e1bdfae328U, 0x3d99afafbe13976fU, 0xbf24723a3e21f8a7U,
  0xbdd60ae13dc27969U, 0xbf03749a3e9d2969U, 0x3eb62dea3e34c31aU, 0x3d3158263e2ab61bU,
  0x3dbeb78ebf4b015dU, 0xbdf4445cbe7d2ecfU, 0xbdd8f9fbbf99e5f4U, 0x3d8f1aaebe01062bU,
  0xbda979d6bc2121e3U, 0x3e0f9fb53cc2077aU, 0xbed0fcabbe80007cU, 0x3e879f92bc202761U,
  0x3e08ca3d3d96e07fU, 0xbe396d48bdf0b4c0U, 0x3d89c9d03dc0e6ccU, 0x3f107ef9beb0111cU,
  0xbad790e5bb405e63U, 0xbf2b67f83db8a51dU, 0x3dcbf04c3d604c8fU, 0x3d8fe20d3da56999U,
  0x3d7941a8be2a7036U, 0xbc6acff1be99d86cU, 0xbe021908be4bdfe2U, 0x3d2765293e0ba0e5U,
  0x3e6836383ea1ad5aU, 0x3d96a2833d997c85U, 0xbd7f031a3e3f845bU, 0x3d9bb911bde7fd89U,
  0x3e6289823d89a31eU, 0xbe09a9ce3e8773e1U, 0x3c98a0783e154e45U, 0x3e91b735bd646c7bU,
  0x3d4af724bd25de22U, 0x3d847f65be28e767U, 0x3caf1da0bcd86292U, 0x3e1de9fd3e88a67aU,
  0x3e1d8ae6be363efdU, 0xbe8e3f2ebe2e824eU, 0xbd851d293b939dd3U, 0x3db8b366bdd8d57bU,
  0xbd2a7b98be5ef93bU, 0x3d270b7d3d8db8afU, 0xbe69fcca3ee962b1U, 0x3c7279d2bcd02271U,
  0x3ecbc0fd3dde99a5U, 0x3d88233bbd52c5ecU, 0xbd3795393e0fba0bU, 0xbdb12c2c3e27dbbcU,
  0x3cba7218bdd20b86U, 0x3dd564863dfb3c35U, 0x3e9b5c55be0528caU, 0x3d610e59bd83b4abU,
  0xbee981efbdc16feeU, 0xbf7d178dbe95649fU, 0xbd9a39cdbd242f4fU, 0x3e90d745bde853a8U,
  0xbf583b28be20591cU, 0xbcbf54a9be638bc0U, 0xbe09e8e7bed3e364U, 0x3e99c0eebd2266cbU,
  0xbc085cb03d568478U, 0x3df4dfacbd081efeU, 0xbd5070bcbe283c99U, 0x3dfe7327bd97d7e7U,
  0x3e6e5a42be2ac3c8U, 0xbe0659643e705aedU, 0x3ea1ee27beaaae52U, 0x3d7676553ce1ce5aU,
  0xbf578edebd5f5068U, 0xbef5e34a3d0db32eU, 0xbe6f036fbdaedd57U, 0x3ed2f648bd654e2cU,
  0xbf411c92beab4a13U, 0xbd9675dabf11d9beU, 0x3de06677be7bb8cbU, 0x3e81c317be8a954cU,
  0xbc8a55c9bdd14e9cU, 0x3e81b8ff3d737aaeU, 0xbec1622dbee3cb0dU, 0x3e7c47a13d861badU,
  0x3e6e7c21beb2e56fU, 0x3e86590fbe9d2dcbU, 0xbef53ee1bfcba87eU, 0xbe9af353be67a3c7U,
  0xbf53a6ee3e719c01U, 0x3f1c62eb3f21d36dU, 0xbe9549c63d654ae4U, 0xbe9d7380be036150U,
  0x3ec2d30fbe7838c1U, 0xbee2e22fbe0ddc9cU, 0x3d583bee3f2d7e5dU, 0xbeb45f75bf554b76U,
  0xbeb257a8bf46cf51U, 0x3dcd5dc13d77c903U, 0xbea35200beaf8819U, 0xbf1306743f3ccd00U,
  0x3e0d45cbbe81bef2U, 0xbdc7522abf07ac89U, 0xbf035921bf2ab308U, 0x3a4919663dbd3d64U,
  0xbeec1603bbafa61dU, 0x3ed21b133de28e34U, 0xbe2aa495bcaed82aU, 0xbd128d56bda4bb7fU,
  0x3d8ffcfbbe77a19fU, 0xbe3f219d3c2711dcU, 0x3c72d9113e73b785U, 0xbe00a92fbf2512b2U,
  0xbe973c55bee9c8a4U, 0xbd9a461cbe07a31bU, 0xbe20b3dbbe9a2febU, 0xbf24fbe03e8550f4U,
  0x3d134c50bd920a01U, 0xbe38cc27be9330a7U, 0xbec671dfbecff369U, 0xbcf7d5ca3e760f61U,
  0xbe8a185ebe328ee3U, 0x3e69c27cbd8f55acU, 0x3e9b1b9abe3b2acbU, 0xbf1139b93c721701U,
  0x3d7dbc24bdadc117U, 0xbdbbbcdb3c3b0cc7U, 0xbe311e673cdb90c8U, 0xbe5023fdbdb9d4d2U,
  0xbdc81e4fbe124504U, 0x3b13d3f5be9bc1caU, 0xbb07d2013e246540U, 0xbdf6f97fbcc5ea16U,
  0xbe7ffa9fbe53f7f7U, 0xbe581a4a3ce0ecbfU, 0x3e4281e6beea4d3aU, 0x3c9113cebe9a818eU,
  0xbe1983e9bdaff2acU, 0x3e8d8ff33d2e4e8cU, 0x3d513482bf0fea11U, 0xbf0fc4733cbddcd6U,
  0x3debd3973e19937fU, 0xbe6414cf3d7ec6d5U, 0xbf2c02bf3c34cda7U, 0xbee3c470becc2599U,
  0xbccfb4dcbe116c0cU, 0x3cf79383bf6c8175U, 0x3d4c0f74bd90e51fU, 0xbebc2cf63db452c1U,
  0xbedc2f413ca1c84cU, 0xbf0e9a4c3ea775a3U, 0x3eb3542abe434610U, 0xbb975e1abeba0ca4U,
  0x3ca2823bbe5a9461U, 0x3eae0f37bdc0706fU, 0x3e123a79bf75564bU, 0xbecdce8ebe9ef0d3U,
  0x3e2e910b3e53c088U, 0xbe8eec4f3e89c9dcU, 0xbf4da866bc74a24cU, 0xbeea7118bd2a4fa1U,
  0x3d5af13bbd28ad49U, 0xbdf97dedbf54440fU, 0x3e5a721b3d7c2c36U, 0x3ed02ebabd07d4fcU,
  0x3e8393b9bd9e1087U, 0xbeb3140abe3eaa76U, 0xbe078624bf2867c1U, 0x3e355e56be698191U,
  0x3edde48abea77ca0U, 0x3cd6caeabe303be5U, 0xbcf8c43abe6337e9U, 0xbf9fff1fbc5ab13fU,
  0xbf089f9cbf801829U, 0x3e52a076becccf77U, 0xbdca391dbd773f6bU, 0x3e7191b7bd95e545U,
  0x3d03a7fabe717cb5U, 0x3db8b262bee08784U, 0xbeaf526dbdf0c1c9U, 0xbf4258b5be13dcc2U,
  0x3e8d8187be86c36bU, 0xbebd0d5fbf510dffU, 0xbf44198f3d5165d1U, 0x3c1924a0bd421abaU,
  0xbfa7d3a6be9830acU, 0xbc67acbcbea258edU, 0xbd9a4719bdfd0f91U, 0xbde5ff50be51c102U,
  0xbee404cebec927d6U, 0x3e235169bef6cf73U, 0xbda62fe9be89e27bU, 0x3e81c209bf09481aU,
  0xbe5a248dbf9840e4U, 0x3d61bf97bebc69f7U, 0xbee18feebbeba664U, 0xbd1125a3be7341bcU,
  0x3e90ca06be89a0a6U, 0xbebb409fbfe2142eU, 0xbfe781fe3d9037baU, 0xbc95accabdea2d77U,
  0xbedf10cabe19ed3aU, 0x3cb51444be1bf43dU, 0x3cb72814bc9b5fa9U, 0xbd7f52323dca9406U,
  0xbe243af6bbc3d2adU, 0x3d9ca1fdbed3103fU, 0x3d590308bda0cdd8U, 0x3e844307beaeccbaU,
  0xbe8e6c17bf8a8148U, 0x3dca61eabe5ca8e0U, 0xbec9f6ffbd4458c5U, 0xbfa14d62bdd55b58U,
  0x3e5a62e6be8aca67U, 0xbead7e92bf51ad62U, 0xbf78ade5bcf7e474U, 0xbd1e189cbe20a1ebU,
  0xbf01dcabbe21fcccU, 0x3d878c47bdb9475cU, 0xbe37e58e3c0e7169U, 0xbd97afb63cf37075U,
  0xbe094e23be05fc7eU, 0x3ca9d84dbec636d1U, 0x3ce9c1f53d776028U, 0x3e22ea81bdde643fU,
  0xbd969c97bf95b175U, 0x3c8d9d5cbdaac2feU, 0xbe9118e6bdde4545U, 0xbf8878773cf63036U,
  0x3ea8e0513cf29eedU, 0xbdc982b9bed6aed1U, 0xbf07b5adbd2b1cc6U, 0x3ceb675fbdbc9f7fU,
  0xbf8427c93deb4328U, 0xbbc896acbeda42a3U, 0xbe1a00453dcca800U, 0xbd1d9d1b3e3f60f3U,
  0xbf1c1cf03ee2bde1U, 0x3e047f7cbf0d51e2U, 0x3e207a60bddfd648U, 0x3ea3a7dabea729cbU,
  0x3e1a605dbf37e1a1U, 0x3d1aabe03cdcd8d5U, 0xbeca4ca7bda4c300U, 0xbf468a733d8a3573U,
  0x3e311427bba86147U, 0xbdf036d93ecd8a12U, 0x3e7bd5ecbd485c24U, 0x3cc02adcbe9a0e3eU,
  0xbf7e84cd3dd301aaU, 0x3ce959073dd217a7U, 0xbea46e3d3e203de3U, 0x3ecf71d93ed62c1fU,
  0xbd962096be11f114U, 0xbc9033dabdb50c5cU, 0xbd953af43d445f76U, 0x3e5e4b303ddf269aU,
  0x3caa18c93d3b0b57U, 0x3d336be9bd1b01c5U, 0xbddd0a893d73d1faU, 0xbe0b1b9c3c1020a8U,
  0x3e511d57bb0011f2U, 0xbd3669363e6a671aU, 0x3e76101bbeba3749U, 0x3b205863bc66e627U,
  0xbf81e926bdeeb3acU, 0x3df534c0be19922cU, 0x3e3e3998bbdb563eU, 0xbd1371883df63783U,
  0xbe1eabc2bed23584U, 0xbcf1237b3d4071b4U, 0xbe0893f8bd2a2c85U, 0x3e0456edbdea7ae6U,
  0xbe4424773d7434dfU, 0x3e784d20beb8c013U, 0xbe14e2fdbcb78c57U, 0xbe8d1cdf3da47180U,
  0x3dbeb414be548b61U, 0xbe96f964bd50666eU, 0x3d8d4baabf7363eaU, 0xbe36a6d03f033c09U,
  0xbf164a69be9a1649U, 0x3dc7d490bc46ded7U, 0x3e6bf44dbe8e20e5U, 0xbe065b66be6fb137U,
  0x3d6eabdfbf0185cbU, 0x3debccb6bcfd0978U, 0xbece0b40bba909f1U, 0xbea7e393beab5ba5U,
  0xbd8010edbe8415d7U, 0x3d9d0188bed3b92cU, 0x3be4764dbd91200eU, 0xbdf5b3323d718dadU,
  0xbe39af18bef81125U, 0xbf2d03393de07811U, 0x3b9073b2bf1f6f37U, 0xbe89df303d0bc9eeU,
  0xbe968e54beb46b3bU, 0x3e2381c1be41f4deU, 0x3e2b5ce7bef3b19cU, 0xbd005180be98f9a6U,
  0x3ca4a03cbf347731U, 0xbe8227fe3e19915cU, 0xbeb050653d2a6d0aU, 0xbf5d1b31bedf2f5cU,
  0xbcffff59bf2e2bebU, 0x3e426b5cbeb505c8U, 0x39dbac47bdfdfe7bU, 0x3e9e62173de22a5cU,
  0xbf021dfabe99265fU, 0xbec878423dbd17d2U, 0xbe6cdb10bee7d725U, 0xbe6c8d6f3dbbef04U,
  0xbc9c94e8be92c665U, 0x3e61d5c6be462b4bU, 0x3ec0ddf1bf0bc396U, 0xbef73c5c3e5ed951U,
  0x3e0cb1f8bdb2e879U, 0xbe16bd773e78a0b1U, 0xbee4f07fbc91929fU, 0xbf3e7a63bec71f43U,
  0xbd36e2d9bf116a7dU, 0x3d79cd29be8a883aU, 0x3e12b0ea3e437e66U, 0x3e7db398bd5c6b3bU,
  0x3e25c5ddbe9ce879U, 0x3bb1c08dbec39827U, 0xbeba2c17bd81be53U, 0xbdedbc56bda023e9U,
  0xbead3553bd827f0eU, 0xbdc09073bc9cc423U, 0x3e149094bd213d45U, 0xbf58c71c3e0730c9U,
  0x3df44d163e3c5b51U, 0x3d34e7bdbfabe87dU, 0x3dea98fc3bc2c427U, 0x3d51c28fbf0ce555U,
  0x3e3ec909bec3d8f9U, 0x3e448f14bdf795baU, 0xbfa89f5c3e069d8fU, 0xbea89a1a3d6e3756U,
  0x3e28b50fbeacc7f8U, 0x3c574a25be70f18aU, 0xbe6e3f27bdecc21bU, 0xbe435b69be5ac4d5U,
  0xbe8eca82bd718e20U, 0xbe13d2c7bcbf598cU, 0x3dd7e7413da9e1c6U, 0xbde40f863e4d0390U,
  0x3c3992013e520f29U, 0x3d8a391cbfb92943U, 0x3df8fb1a3dd214aaU, 0x3de536b83e526db3U,
  0x3ea4a24abef58b52U, 0x3e0effc2bda3961eU, 0xbfcdd8443e7c7753U, 0xbf00a7743da97eefU,
  0x3dc7853dbe3b422dU, 0xbd4b30ddbefcd8c8U, 0xbf09443a3eaeffadU, 0xbeb2a0bbbe25ec23U,
  0xbe48f0b83c867525U, 0xbd9cc013bd8a9961U, 0xbe377c223de6d7fdU, 0xbe1a68af3e39c008U,
  0xbda794d0bd1ef8cbU, 0x3e1c9273bf56992bU, 0x3cdaa9123dd7592eU, 0x3c6f003bbde21ff2U,
  0x3e77fc0cbed4262dU, 0x3d49f9b4be24f35aU, 0xbf79762dbe0e54ebU, 0xbeabceff3e5337b0U,
  0x3d71ec73bd090e12U, 0xbd4638163da01a03U, 0xbd8b4a8fbf889cebU, 0xbebff7aebe385a63U,
  0xbe2b2d873d979133U, 0x3d4acc073c86da60U, 0xbf0717f4bd04477cU, 0xbecf20f83d7a5de9U,
  0x3d9b59fdbd1a5bcbU, 0x3cae4728bdf798c2U, 0xbcb153953e15e489U, 0x3da5232fbe51ecf6U,
  0x3dc1c610befad0c7U, 0x3e164590bd0ac9d1U, 0xbe89265abf2e7a98U, 0x3c9687283dc6f779U,
  0x3dd01c2dbe1734d5U, 0xbd0f8e873cf0ee59U, 0xbe849709beb68f36U, 0xbee8dac3bcb6f3a0U,
  0x3d8588c4bd12af8cU, 0x3e008eb63e1fe1ecU, 0xbf0d244d3d26be50U, 0xbfe2add43df9cdcaU,
  0x3e3d2d5dbd627cf1U, 0x3d8eee9b3e08e5bcU, 0x3da9173d3e2d9637U, 0x3ca3410f3e3a6d89U,
  0xbcd8ff7dbdaa34bbU, 0xbddb26b93c74dca4U, 0x3d0f9d5cbee7e96dU, 0x3e8fed2c3e606faaU,
  0xbd356d85bd849796U, 0x3c2270cfbeadb095U, 0xbecfbfcfbf56efddU, 0xbe2f7aa23c7df755U,
  0xbe3604ce3d0a3b2dU, 0xbe70b6023e13d2e9U, 0xbd8105633de2c0f3U, 0xbf2e4cdb3e24f384U,
  0xbd8625f2be75afcdU, 0xbd93a04ebf2942d6U, 0xbe186fa23e013d7cU, 0xbd9392f0bea87ee1U,
  0xbd11b1ccbc1b2a87U, 0x3d4c2167be12e47eU, 0xbf2a13513ea4d01bU, 0xbedace6d3d25f7b3U,
  0x3b9ec404be4cb61eU, 0xbbbe7047bf2268bbU, 0xbf147806bece2820U, 0xbebd4979bd5a24c4U,
  0xbeaa48b6bd54546bU, 0xbf1981c4bdd4e0d0U, 0xbe914441bcb2421aU, 0xbff1b6c4be541c37U,
  0xbf0339abbd352c9cU, 0xbc73417bbf89d3eeU, 0xbcd749b2be849458U, 0x3dc11ec13de8821eU,
  0xbdc7ae91bd698153U, 0x3d169b55bca13aa8U, 0xbf66a8cc3e2d62b4U, 0xbf102f1dbe0b7f7dU,
  0x3e0f409abf4fafe8U, 0x3d29ff103db1aef5U, 0x3e4254de3f415a1eU, 0xbe2e86e0bd10df14U,
  0xbf144fc6bd30dc1bU, 0xbe96c1b2bd683783U, 0x3d230ac63e1675e6U, 0x3eda4c803e3079b1U,
  0xbe88d6313d73347dU, 0xbda20eacbf130612U, 0xbcf3fe2abe1eb264U, 0x3ddaceacbdc7f97aU,
  0x3dc0def1bdd672b0U, 0xbcc73a093d4cff1eU, 0xbf7bf4f43d3329d4U, 0xbe8d0e97be38396aU,
  0x3d2f1fb7bf031d49U, 0x3e567c77bc9ce4e5U, 0xbde9e9d0be057a21U, 0xbf4fdb173e2ffa87U,
  0x3c6095b63e73041dU, 0x3d9dc4693e25a0a8U, 0xbea271113de8be5cU, 0x3dac44fdbd869468U,
  0x3e5774e83e41e9b0U, 0xbd410676bd99c0adU, 0xbd979fa23e235534U, 0xbde26539be166f97U,
  0xbde32c8bbf3e3ec3U, 0x3d13a2ca3c65cbd7U, 0xbeb77af5be05c5f5U, 0x3d8335d73e653ca4U,
  0xbca6452d3edd40b9U, 0x3de830a13f0328fcU, 0x3f03d015be557dbfU, 0xbf1648f63eaac7b8U,
  0x3e27ca973cdffc49U, 0x3dabb0763e0ad429U, 0xbf10351bbca0e986U, 0xbe4daa9abdf82916U,
  0x3ea690dc3d2b2c41U, 0x3d3e75343e1cbb33U, 0xbe30ba823e192c40U, 0xbe6e63e53ea78b24U,
  0xbd74a3f73da74a77U, 0xbdf1d377bde43fe4U, 0x3d5d3c5abf0a3b39U, 0x3f2d7eb13e2d2db5U,
  0x3e51d2d6bdaf05eaU, 0x3e9da8b1be12ab59U, 0xbe19b99f3d7373ebU, 0xbe3354d23ea530daU,
  0xbda710383da12150U, 0xbe3a44893dba9af0U, 0xbd7552a13eb9e071U, 0x3eb4389fbe9f6ffdU,
  0xbe8bc43ebeddda58U, 0x3c61ff1b3e560296U, 0x3e765f1abde474deU, 0x3dc0eb763e185bc7U,
  0x3d29a14bbe342972U, 0x3e1df3223dd8257aU, 0x3d3cb767be47d593U, 0xbe8545463e1e5cb2U,
  0x3e4cd2883e0ef7e1U, 0x3e8312b1bd7c0707U, 0xbc32d0b9be665cd0U, 0xbe1187b73e8020b8U,
  0xbe97cd1a3cd12cc0U, 0x3c40c5373e7cfc47U, 0x3e297d783e851bfbU, 0xbe027b5cbe91f707U,
  0xbe2e4a8cbea3dd8dU, 0x3e2b6f323de33324U, 0x3e057d32bcfe6ddcU, 0xbcf966843e7fce04U,
  0x3ebb605a3e577f34U, 0x3cbe0046bd21b9f6U, 0x3d89d556be8d7958U, 0xbda63bd43e88ebf9U,
  0xbc81dea13e8d343cU, 0x3e0b82f6be700cafU, 0x3e2e9151beca223aU, 0xbf0d2c35be12320aU,
  0xbf10ded7bd285c36U, 0x3df592e63de2c9e9U, 0xba0b692f3e3169d8U, 0xbe69095ebe7567f7U,
  0x3d5a91abbd83fff5U, 0x3e476efcbcceaf92U, 0x3d9ee995bca5c183U, 0xbe1782033bf7daafU,
  0x3e5046793e8ede1eU, 0xbe5853253ba79a2eU, 0x3cff64093ded8ad7U, 0xbd9bab133daed76bU,
  0xbdd5198c3e29b160U, 0xbb86bda93e15ab93U, 0x3e477e9dbf267032U, 0xbf022db9bec5bfa4U,
  0xbe6f9e58be515881U, 0xbced92b93cbf0376U, 0xbccfe54dbdcb2d4eU, 0xbee82ff2bea6f809U,
  0x3c2e339bbdbf4b7fU, 0x3da45075bd406ef8U, 0xbe94adae3d8950d2U, 0xbed357f2bd45b7ddU,
  0x3e52a75c3c806dd4U, 0xbe701a20be78fe7fU, 0xbde3c27abe7c0157U, 0xbf0b4c703d7f2cbcU,
  0xbe220220be222f8cU, 0xbea474aa3e112786U, 0xbde4b63dbf3ef9d1U, 0xbeda7a1cbe7ece91U,
  0xbf044077bf109463U, 0x3c7111d3be6d016aU, 0xbe1312e9be983632U, 0xbf7e437abe8963a9U,
  0x3ccb1efbbe60ebdcU, 0xbd97cdddbe349042U, 0xbf04c16cbd19861eU, 0xbed59626bd892cfdU,
  0x3dd173c2be6de056U, 0xbe904021bee31676U, 0xbe4b8a40bde25e9fU, 0x3db307bbbe73f52bU,
  0x3ccb3981bd7b2193U, 0xbe05cd60bcc3cdddU, 0xbcaf642bbe78ccaaU, 0x3e8b9f57bea4b264U,
  0xbf09b227bcad2effU, 0xbf50d07dbd8abe49U, 0x3dbb2d80bd34fc74U, 0xbe8ba5c43e421946U,
  0xbe225e5f3e677e84U, 0x3d62ca8dbea47171U, 0x3d6ea126be1b51c9U, 0x3da2a1dabcd018dcU,
  0xbdf816973c3c60a7U, 0x3e1cbf26bc320743U, 0xbeb6f5363ebf9cc1U, 0xbef202b8be4cdfb7U,
  0x3d3c41aabc97a251U, 0x3d5d5279bf067cb6U, 0xbf0a6393be70bf1dU, 0xbd96e9f8bf12190fU,
  0xbe992c34bcccfb7cU, 0xbf23265dbd49678cU, 0x3e97523b3e454c45U, 0xbed3f0f13cb90114U,
  0xbdeb354d3e33938aU, 0xbd9e4b333e096325U, 0x3da71a463a60fdc1U, 0xbd8eeb31be33ccc4U,
  0xbe3fd2c5be7c1cefU, 0x3e0efbc6bd9c8fadU, 0x3c4152413e270cdcU, 0xbf70da2ebd9e86aeU,
  0x3d51b3e03d85487bU, 0x3e13a2a2befbfcdaU, 0xbed470cbbe098663U, 0xbed1e8afbef56407U,
  0xbe16331e3de2a3ceU, 0xbf395ff3be5a3811U, 0x3db6c7583e156877U, 0xbec97f81be7216fcU,
  0xbd73030dbdcc4da1U, 0x3db0d0fdbec05aeaU, 0xbc13695c3d0ccb0bU, 0x3b9221ee3d376302U,
  0xbeaeb85abe95e0bdU, 0x3dfb7b7f3d2c5de5U, 0xbe1d94a6bd6f3ef4U, 0xbf563fcb3cef74faU,
  0x3dd2d3633e8f5996U, 0x3e27dedebd779597U, 0xbbe8b5d1bdb21b79U, 0xbea8d7bebe2d6170U,
  0xbf05c49d3de9c8aeU, 0xbf1d3e1fbdb8cc22U, 0x3da11d843e05de07U, 0xbe0f19d2bd9ac5fdU,
  0xbdfd34f0be001bbfU, 0xbd160268bf1589d8U, 0x3de755323d53cb51U, 0x3df6bc99be4a595dU,
  0xbd817fba3d4581a3U, 0x3e0c61733e634205U, 0xbefcd248bcfd9aa2U, 0xbe34c3c03b0bb018U,
  0x3e00c3ea3dabfe1dU, 0x3e7b1e9d3e831b11U, 0x3edfce39bdc6ae29U, 0xbf27eb003d4c795fU,
  0x3d41491c3e4e1777U, 0xbea31f193c0eae1bU, 0x3cbd12b13e80d950U, 0x3d8447163dca479cU,
  0xbd62930ebe140419U, 0xbe7b3f25be8d3077U, 0x3e993f183d0153baU, 0x3dc9ef5c3c0ccc1cU,
  0x3db6100cbe0bc4faU, 0xbd97a2e73ea99b41U, 0xbeadb3f2bdc15279U, 0x3e24e33c3b3ae69cU,
  0x3e280d373d4e450fU, 0xbece7314bdd5925fU, 0xbcf7482f3dcf651aU, 0x3eb157afbee96dd8U,
  0xbf70f9a4bf1f13a8U, 0x3c3c86a1be9c0fd2U, 0xbddb79cebeaa0b9bU, 0x3c192e69bc93c0b6U,
  0x3e3b304ebf52e029U, 0x3e08f632bc412059U, 0xbe691c5dbcfc4f0dU, 0x3e793e8abce5a61dU,
  0xbebe52b73dc10b75U, 0xbea05a1bbf566525U, 0xbc2229dfbe4039efU, 0xbed1a1c5be7e3fc9U,
  0x3e6eeea5bd649cf6U, 0xbf114133be098aa0U, 0xbe155f20befdac68U, 0x3e260f70bf10cd2dU,
  0xbf1b9865bebf201aU, 0x3d356002bf17a9b4U, 0xbe4e589dbec75499U, 0xbdbf6f5e3e01e2ceU,
  0xbcf11ec0bf556179U, 0x3da20448bd828003U, 0xbd63456cbe54929bU, 0x3e2c9e80bebb24f6U,
  0x3bf89e58be27031dU, 0xbe9a6444bf431a09U, 0x3c0248eebe3e47ebU, 0xbf47051dbec971b0U,
  0x3e2dee8bbe47c9efU, 0xbee9b40cbeed15a1U, 0xbee4b267bf717b5bU, 0x3ddd0ea1be0fd2e3U,
  0xbee0284abf067ac8U, 0x3deee610bf27c963U, 0xbd35c8acbe54bd53U, 0xbf943b12bea8abdaU,
  0xbe03b0b7bf34b465U, 0x3d798eecbe322f87U, 0xbd89266dbdd5e317U, 0x3da0e057bed35e0cU,
  0xbe612e57be53a023U, 0xbd84e974bf212152U, 0xbd1a19a6bda00e33U, 0xbf50eb7ebe747e10U,
  0x3e518a4bbd1989ebU, 0xbf09a8bebf57e305U, 0xbf43691abf86e4b2U, 0x3c972709be5368acU,
  0xbf24e2f2beb0e9c9U, 0x3bcf816abeedab24U, 0xbded58bfbdf1f965U, 0xbf25f9053d1b43c3U,
  0xbe98aecabf091ff5U, 0x3d9bf893be29d25aU, 0x3d1c9c76be16bd6eU, 0x3e886ff5bebcf4acU,
  0xbd93e7a1be539ee0U, 0xbe30a3a1beda0015U, 0xbe443787bdb317e7U, 0xbfc3f6d6bde6cdabU,
  0x3ecb9373be065af7U, 0xbe6f9e2abf2ff629U, 0xbf3e77ddbf2d4a35U, 0x3d0ea5fabe8dafbeU,
  0xbf5bb1373e82b4cbU, 0xbb266b703d067071U, 0xbe7b74aabd9243dfU, 0xbea6a7683e8ab5d6U,
  0xbe83740c3eead831U, 0xbd23d541be9d8c82U, 0xbddd2e1fbcbac9ecU, 0x3daa6632beca95d5U,
  0x3c90b342be829563U, 0xbe99466bbecfca9cU, 0xbe49ad31bd5e0300U, 0xbf81b0043dd784f0U,
  0xbcc0797fbd4587c6U, 0x3cd35e29bd519d78U, 0x3d7da39ebd743ae7U, 0x3d913a45ba90259eU,
  0xbc308c303d334a75U, 0xbd6bfafabcd6101fU, 0xbd71fe9e3d63dc0dU, 0xbcadf9bcbd4df030U,
  0xbd5809a83d1666e4U, 0xbca28d9e3d0b1e4eU, 0xbcb568403d955f88U, 0xbc0c29583d64fb16U,
  0xbd5c2a9cbd934568U, 0x3ce467b73c339158U, 0x3d3ff03a3d7821c2U, 0xbd541a673d665467U,
  0xbd99149bbd8b71e4U, 0xbd727b3ebd295745U, 0xbd90ea793d817567U, 0xbd9dec3dbd962da3U,
  0xbc0cc2753d0e6018U, 0xbd1a10cabd2ef9dcU, 0xbb8cf413bdab14d6U, 0x3b7723403d90dae0U,
  0xbc69d9303d6f1a0eU, 0x3c3e9f1ebcfd4118U, 0xbd2aff90bc291427U, 0xbd885057bb66b8c0U,
  0x3d5697bbbd865988U, 0x3bbaecefbd6b21b5U, 0xbcd7c351bd9a040eU, 0xbd154ceebbd924c7U,
  0xbbdb05a2bd9c1014U, 0xbd53845abbcafa7aU, 0xbd8596fabd02c1bdU, 0xbd1bf2cbbd1aedffU,
  0xbd6d1cd6bd35e309U, 0x3d13ea593bb60d40U, 0xbb1d3680bd45d9b6U, 0xbd1e3de5bad33eddU,
  0xbc1c2cb83cc41226U, 0xbda552cabd76d01eU, 0xbda854463d6b18f1U, 0xbd2a0a54bd3c1980U,
  0xbd756cb9bc46c2cdU, 0xbafd45d73cbf4cccU, 0xbcc9bf4fbd2df290U, 0xbcece271bd12faf7U,
  0xbc1f5d8fbd442046U, 0xbd73bc843bee45ebU, 0xbd3404e9bd419656U, 0xbdb2a0eabd6b2e64U,
  0xbd1fe759bca6c0fbU, 0x3c828555bd9686c4U, 0xbc10440e3d0ec421U, 0x3bb1db7abdb8a77aU,
  0x3da0bf15bdc5d64dU, 0x3bfe1bea3d303185U, 0xbd923effbc5e7022U, 0x3c63257dbca6aaa2U,
  0x3c9889a33cdd75bfU, 0x3d24220b3d00937fU, 0xbd440b1f3d170dc7U, 0x3d2925f0bd3986deU,
  0xbdd2e2d7bcf2c7faU, 0xbd26866abcd9a235U, 0xbb8147603c95da00U, 0xbd84a161bce32d92U,
  0x3bc018d03d10f739U, 0xbd9723d1bdccbc9dU, 0x3c89468c3befb745U, 0xbd847083bc7b9ca1U,
  0xbd439df6bcafb4f4U, 0xbdb38045bd44bdafU, 0xbdae6ff9bce44092U, 0xbdca3ed93d747112U,
  0xbd8585bc3c8520e6U, 0x3ccfe280bda3f0d1U, 0x3c6b506a3c97c305U, 0xbd85efbdbd8b362fU,
  0x3b0ab199bcf706ffU, 0xbcd3ac673cedbd62U, 0x3e0bb63b3df84056U, 0xbdbef265bd3f06fbU,
  0xbd9db36ebdb9bd98U, 0xbdc32efabca789dcU, 0xbe0e9a0ebce382b6U, 0xbc5b02f33d3f0a0fU,
  0xbdaee290be3c3dfaU, 0xbdaff1f3be0a798eU, 0xbd33eb9bbd71c9a9U, 0x3b31b1c73c236e03U,
  0xbe571566bb45accfU, 0xbcba61c3bca83083U, 0xbdebe93bbd215fc3U, 0x3e344212be03027dU,
  0xbca5a2acbce0d191U, 0xbd5f7c6ab8fbf47fU, 0xbd80b5ce3c87ff6aU, 0xbe4530c0bcf5ac4bU,
  0x3c1846d03c09c43eU, 0xbe37db3fbe02ca85U, 0xbdd6f64bbd7ea9b3U, 0x3c8b33663d975222U,
  0xbe4df815bd6fff88U, 0xbe4210c4bde9b00bU, 0x3d5dd413be28f846U, 0x3d28a821bd5d7b63U,
  0xbe03408ebde0f291U, 0xbd8966193d837837U, 0xbda37f6a3c338dfaU, 0x3cd01c7bbd6d82c4U,
  0xbe1a9d4cbdf509baU, 0x3c310619bc9053d1U, 0xbdc094f53d90269dU, 0xbdfc3c9dbb2841eaU,
  0x3e3a2eb83db5c1aaU, 0xbe071d273b8ef409U, 0x3d5a2cba3bd7c8a6U, 0x3cb4ce83bd6bb688U,
  0x3c920526bd223949U, 0xbe3b9e24bd94c575U, 0x3d3f55a2bc22acd9U, 0xbda1fec63ce5df5fU,
  0xbd9cbbefbc22afa7U, 0xbd95113d3d630aa6U, 0xbd9e50633d9a31e4U, 0xbe0055113d68bb6bU,
  0xbd71554abd8ca50eU, 0xbd3e5f85bd611f7dU, 0xbd79e8593d612a11U, 0xbdf47c37be3332f7U,
  0x3c9d48f13d1df292U, 0xbda0d9393b34ff86U, 0x3c429560bd98f1a2U, 0xbdb4a4aebe2163a5U,
  0xbd3e0e52bbe8c87bU, 0xbdc640a9bda097cfU, 0xbdba14773d1faf39U, 0xbe066867bd680c6cU,
  0xbdd5d80f3bb348ecU, 0xbc8197ccbdcee53fU, 0x3c72911cbdf6a106U, 0xbdfb8b9a3bd51c81U,
  0xbe405e4dbdc47731U, 0xbd44831dbdf95606U, 0xbd896fbcbcc89d3fU, 0xbe29098fbe65d46eU,
  0xbc7f0f2fbd88bc53U, 0xbe06ed7e3d5d1650U, 0xbd91740fbd8c5b57U, 0x3c228253bdffa355U,
  0x3bd7e66c3d9fc0eaU, 0xbd932a32bde08521U, 0xbdd70294bd115c5aU, 0xbe528ababd76a6eaU,
  0xbd6ccea73d070d3aU, 0xbe357053be02e191U, 0xbdd013e9bded448cU, 0xbe1017543d1182d1U,
  0x3e2dc508bebabdefU, 0xbe08c7553f4d4be5U, 0x3f2fecdbbe8b7377U, 0xbecff4c9bda81fdbU,
  0xbdabd81abe1e6116U, 0x3e333a7fbecc2319U, 0xbe46180b3e4b9514U, 0x3e80ef8b3f219a7fU,
  0x3dacd81b3e0f7d7bU, 0x3d3e8e86be47d313U, 0x3ebb8cd5b980f70eU, 0x3e7fe573be60dc93U,
  0x3e2e094fbea5f4d5U, 0xbe259e783ea954d5U, 0xbe48577dbd04a34eU, 0x3f147288bdf694b0U,
  0x3d8902babeaee008U, 0xbcba091d3edb0501U, 0x3e9b083cbe004b1bU, 0xbf0906d1bd8248b7U,
  0x3e30e8eabe2f2cdfU, 0x3e89ad7cbe6a1ef8U, 0xbdcea2c63e0394e9U, 0xbf5d7eb43eaab744U,
  0xbcd2c8dfbdd3f914U, 0xbe62b2ae3c9941d9U, 0x3ebf9026bc8d4f0fU, 0x3e1c1013bdcffb13U,
  0x3e1c55bcbed8f70dU, 0x3da6dffd3d782dacU, 0xbda9ce67be372c23U, 0x3e09d103bd3481bcU,
  0xbdc7b9c1bd9a32a4U, 0x3d1ce2b3bea2d470U, 0xbed5e60bbd809011U, 0xbe6259383e6d0032U,
  0x3e6788b3bcb75025U, 0x3e8e723ebe5f3c09U, 0xbe7a56003d874835U, 0xbf1b99793e3178f7U,
  0x3de8c8f8bcdc84afU, 0xbc4274cb3e28ac35U, 0x3e4d67ed3d8b0c67U, 0xbe9729663e09cc70U,
  0x3e0aa54c3b143211U, 0xbe5628b83d665f15U, 0x3dcf66cb3c2d6879U, 0xbeaad571bd54bf44U,
  0xbeaee4903e397756U, 0xbd0501af3ecb5ca7U, 0x3ec6fc0a3cd8c815U, 0x3da0f417bd925046U,
  0x3e2dfb7fbc933884U, 0x3e619d27bd6cca89U, 0xbde17b9fbd9658bcU, 0x3e15e0773e0b0934U,
  0x3c9c5ee33dfb0b94U, 0x3cf660563e3e9d53U, 0xbd92d997bd10c4e2U, 0xbecfb0e6bb0b0a7bU,
  0x3e3b05363e48c7e3U, 0x3d331258bd2a24fcU, 0x3dea0f903e3517dfU, 0x3ed1fe1a3aaadeacU,
  0xbf1e21e53df75e1bU, 0x3d5f22c43ea9260dU, 0x3ec84d183b537861U, 0x3e417800be82ca84U,
  0x3e3327d7bd2f7e37U, 0x3ea454d7bd27922fU, 0x3e5003f8beda87b2U, 0x3c05c9bebb9771dbU,
  0x3e0215e63e7b106dU, 0x3c5620653e891fa6U, 0xbf21a6c83cb891d8U, 0xbe0a49cf3a73ba1aU,
  0x3e3ed7193e9bb751U, 0x3c98808cbf0dacb3U, 0x3e891e4a3f29dbc3U, 0x3eb061673e25aed1U,
  0xbeb0dd46bc4598e5U, 0x3f054258befb63cfU, 0xbed816d6bdbadbaaU, 0x3e8c3f993f2c0a39U,
  0x3eb38d693edb2695U, 0x3dd9dd583ed1bba6U, 0xbeaf3e2e3dad944bU, 0xbe7e7f3fbf093178U,
  0x3e77522e3e2caa64U, 0xbc8f2bcb3e559d12U, 0xbf0584773e0b1063U, 0x39c0afe2bd985468U,
  0x3dfe5bd53d6e3b7bU, 0xbe6cf851bda4f0e8U, 0x3e33b4d9bddf26a0U, 0xbf261952bdeca5eaU,
  0xbe24402e3c785ec6U, 0xbe7da104be3c7e03U, 0xbdd216cabd734502U, 0x3ed625a8be5533ceU,
  0x3db34fa6bcd08bceU, 0xbe1010bcbe2b7435U, 0x3e9c67c9be20a4a9U, 0xbd81fdb6be66c939U,
  0xbe913c11be0938ecU, 0x3cc4e57b3e2b3d31U, 0xbeef3ea8be9e39e6U, 0x3e86ceee3dbea8f6U,
  0x3e1833f63e2f232cU, 0x3e38b0603e40ecdcU, 0x3e466679bda62a0dU, 0x3e4c834abf49a767U,
  0xbc9735d3bd968ab1U, 0x3f52f2c9bed309acU, 0xbea12d69bdc97c9cU, 0x3eabe6c2bef1b186U,
  0xbdc3067c3cac438aU, 0xbead8e17bdd941c8U, 0xbdd003eabf18c7afU, 0xbe5aff983a280072U,
  0xbf2568f6be2aabceU, 0x3e0feebebb4f1214U, 0xbea7b387bf3f49a7U, 0x3e1166ec3d6e2247U,
  0x3c8ceca23da89d12U, 0x3e6c150dbe0062dbU, 0x3dba77e93dfab31cU, 0xbe65d8f3bf8c8779U,
  0x3e6e53c9be643666U, 0x3db7a87fbf50541aU, 0xbf5555773c8d1fb3U, 0x3d6ce05cbe9cad5aU,
  0xbd5c20133d31e85dU, 0xbea14019bd34d8d9U, 0x3e8fd99fbe940cc9U, 0xbea214843eadb8f2U,
  0xbf0364c83eaf03e4U, 0xbcd811ecbd0f1597U, 0xbee7927fbf11d4acU, 0xbc59907e3d617664U,
  0x3e30736cbd958451U, 0x3f25c310beeb5426U, 0x3bdf3f993e337f5aU, 0xbf0ec85cbf0edb81U,
  0x3eab50b8bea14a93U, 0xbdffa89dbfa0eaa6U, 0xbf9987c53b4e987eU, 0xbd05e888bd9fcdb1U,
  0x3dd428acbdec2eaaU, 0xbe06112fbd7971c4U, 0x3e3efc06beef77bcU, 0xbe7e18fb3e791631U,
  0xbe59694e3e31f11dU, 0xbc871b1abd9a4186U, 0xbec715bdbbeee5e3U, 0xbd1cb6bbbd4b0599U,
  0xbcbf2c40be6c7502U, 0x3f136e43bf53b539U, 0xbd8bf9fa3bec654fU, 0xbf315b59be5549c4U,
  0x3e21e2bfbe141c20U, 0xbe20e9b2bf02c461U, 0xbee27c453e824a2bU, 0xbc8a9647be580de4U,
  0xbf1bc10fbe548a86U, 0xbe7b6158beb3bb8eU, 0xbcb61809be404f07U, 0xbea7ba76be94dd65U,
  0xbf2b2029be8cb5aaU, 0xbe60b15cbe3715b6U, 0xbdb9e66bbecb7f70U, 0x3cae3bd4beacd4deU,
  0xbecc7dd4bea7da21U, 0xbe124379bd95ce55U, 0xbe72660d3d4b231fU, 0xbee2801abeb8fad4U,
  0x3ddebe0fbf138496U, 0xbdc2b191bc670d78U, 0xbdf99dfc3e2563f6U, 0xbee19c59be8e450cU,
  0xbea434be3d703eeeU, 0xbda9d8a33d92eb6dU, 0x3d5c9cecbdc6d69dU, 0x3ea340fd3b8eb3e5U,
  0xbe2f23b43c93dd6cU, 0xbe7092f0be434d4eU, 0xbdeacef1be8943a4U, 0x3e50d6a0becf3fd1U,
  0x3bcb2e11bf07961fU, 0xbd898565bc0f39b0U, 0xbe8f6eac3dedf406U, 0xbd7f0a47bd3500e4U,
  0xbd715f73be758ce8U, 0xbe2615b7be1927fdU, 0xbe9f91e33e24b721U, 0xbf6704dbbe4606d8U,
  0x3df481db3dc7b1e6U, 0x3e0cd7323e999294U, 0xbeb796e7bd555a92U, 0xbdccf210bcde7303U,
  0x3dcd63893bb1fbd4U, 0xbebc26573db48ee1U, 0xbe1ec3ec3dbda98eU, 0x3d689408bed786a2U,
  0xbbebea1cbf0c4852U, 0x3d281639bc2ef60aU, 0x3c4888e93e725a9fU, 0x3d99d2be3eab6596U,
  0xbe8637fc3df43ea6U, 0xbe886bbabd328a26U, 0x3dba5c21bda59477U, 0xbec7eda23ed4c89dU,
  0x3e6ea8f7be244ef2U, 0x3e4983e63e5b7538U, 0x3d90da43be4608cbU, 0xbd8b2f613c728d95U,
  0x3dd554d6be19d2bfU, 0x3e2eafda3cda475bU, 0xbeb5c561bb375ea6U, 0xbe767d643e23efceU,
  0x3ae2c03e3cd9dc66U, 0x3d4ea2efbebe3333U, 0x3d9f77a63e5cf77cU, 0x3e028c313e5fe6f8U,
  0xbdaaf00c3e1dcb65U, 0xbd2617323f7b17a0U, 0x3f8f2985bccc500eU, 0x3e9f9615be85549dU,
  0x3da813c4bdea6738U, 0xbe0d0b5ebc70d66bU, 0xbdb0d9c8bf1a72cdU, 0x3ee217373d095d09U,
  0xbde73ed93bddf670U, 0x3e1ad14dbc9de9f9U, 0xbe46de46be579019U, 0x3e8dc0d03dfd5c31U,
  0x3e137cda3e70fd9bU, 0xbc9878abbe23050bU, 0x3d6edbca3cfd7940U, 0x3f1694ffbe31066dU,
  0x3d8ba54d3d49b350U, 0xbe1d88d93e3eb7d5U, 0x3d41540e3defa27eU, 0xbd7cae163ec32452U,
  0xbec29c03bac63f28U, 0x3be4e340be2cc21aU, 0x3eecee08be6cc098U, 0x3e44859dbd215fecU,
  0xbec0592e3e47b4dfU, 0x3e6f3982bdb968c6U, 0xbe6c7907beb5fa21U, 0x3e1104d43ec103a5U,
  0x3f1ae78bbdd2bad2U, 0x3e25b18fbd0a667aU, 0xbe2d2c623eaeefa3U, 0x3e4559dfbe44357cU,
  0x3e05af87bd2440fdU, 0xbe061d0a3e942520U, 0x3e85f4303e2a6307U, 0xbde1054d3edce747U,
  0xbcd4edc9be1c86c4U, 0x3e151036be593d05U, 0x3e850b1bbe26fceaU, 0x3e52d9dc3e0b0798U,
  0x3e26281fbe2dbddaU, 0x3e32ee9abc920f28U, 0xbdb058a73bbba6c2U, 0x3dd1e8823ea4bad4U,
  0x3ef60c443d626610U, 0x3eff4d62bdd39bd3U, 0xbe2b37da3e691a5aU, 0x3c36a6233d833055U,
  0xbe73a9b3bd5a3faeU, 0xbde81334bb9fc41fU, 0xbe5691cebfe4af2eU, 0xbf024fcc3e51d2efU,
  0x3c061c48bab87504U, 0x3ed515d23d8bbdd8U, 0x3eaf4a74bddaced3U, 0xbca6b5953db06ae5U,
  0x3e598842bca5c111U, 0xbcf4f7193d679b30U, 0xbeb5705d3e52aaefU, 0xbe8e1187be392d74U,
  0x3ed0398cbedfd932U, 0x3ea9a89abd3384f9U, 0x3d8e0bea3e2f6ac3U, 0x3c66af743ead62caU,
  0xbf4505193e1ed482U, 0xbece15073e2ec533U, 0x3ec854c7bf8e58c2U, 0xbe92029abeddcfa9U,
  0x3e3da6e7be779366U, 0x3e5c8d8a3d3c2a7eU, 0xbd8ada9bbe893cbfU, 0xbe0155c7be3095aaU,
  0x3d4d01e7be855d03U, 0xbe3694ca3e4f3715U, 0xbe89e2453e0b0297U, 0xbf69629bbe542c6eU,
  0x3e91f3e7bddac998U, 0xbcd047273e97664fU, 0x3e011928be715fc6U, 0xbc2b46da3de275adU,
  0xbf7824493e3f9b54U, 0xbe9e48ad3edcbc49U, 0x3df80aa4bf489aefU, 0x3d4f552a3e8e4f49U,
  0xbcceb8f3beb77a79U, 0x3daa9f93be4992c0U, 0x3e2492dabecad925U, 0xbf5d05543dfeea32U,
  0xbdc85298be0b4fbaU, 0x3e3c1eb03d9ea6afU, 0xbe4b0f3cbd71a6d6U, 0xbe83e9503e068619U,
  0x3e0bff2e3d8440c3U, 0x3d991d163d06ef2fU, 0x3df4b89e3efe3945U, 0x3f37847fbe42b1edU,
  0x3e14827cbed8a22bU, 0xbe16bf80bfb6b352U, 0xbfc3a061bf426db7U, 0xbe245ec03d867421U,
  0xbf05bdbebea49a90U, 0x3e1d04b5bdb5d8c1U, 0x3e3134f2be0a3d70U, 0xbf4c01e0bf0e358aU,
  0xbe232d8dbecee8beU, 0x3c82eb92bdfdfa74U, 0xbed468033d9832a4U, 0xbec8b455bf0d85f5U,
  0xbdd880f0bef58050U, 0x3e09ee893e4b5b53U, 0xbe4c6a823d0ad215U, 0xbf590594bd96cfe6U,
  0xbc35c2cabeb7e279U, 0xbec523e9bf1d532dU, 0xbf56e23cbecde2f5U, 0xbe122d713ea72bd5U,
  0xbea8012ebea16064U, 0x3e94d2cabe9ea7e6U, 0x3b167f53be0d0a27U, 0xbeabb040be427591U,
  0xbc9c0797bd12e278U, 0x3c042e53bdbbffd6U, 0xbe138077bdb065fdU, 0xbeed7c3ebe033480U,
  0x3db3084cbede1078U, 0x3ec57d5c3e757c65U, 0xbe2d6874be0be7cdU, 0xbeb8e7cabe8cae19U,
  0xbdfee432be4bae54U, 0xbe69bef63d41ca24U, 0xbe01c96bbe29d4ebU, 0xbdb0575c3cdf7bf9U,
  0xbd9d8395bece811dU, 0x3e486888bebd9543U, 0xbcddc17f3e9d3356U, 0xbe5ff359bdcedf33U,
  0x3c73f9b2bb106213U, 0xbdb58c91bd082487U, 0x3ea7cf0fbd9598c4U, 0xbeee5b96bd847817U,
  0x3e12cbd8beb7f58aU, 0xbded60523e985a50U, 0x3cb4bd3b3cd32e2dU, 0x3e4e6096be915f0cU,
  0xbefb0ae8bdcad311U, 0x3e318f663d535880U, 0x3e88a5c6be35a305U, 0xbd54da603edbffa2U,
  0x3ce317b7bbf6dfe5U, 0x3e8b79f1bdb92237U, 0x3d039f3f3eb32bacU, 0xbdcc72f23e0fb471U,
  0x3cc32ed43e0cd642U, 0xbe014e0b3d6c253aU, 0x3e0d50eabd1a4995U, 0xbf625c4f3cb068afU,
  0x3f04e91fbe12b5b3U, 0x3d732be63e830b31U, 0x3da383433e089dc6U, 0x3e8e0f7cbd94a63cU,
  0xbf19651e3e33fcb9U, 0x3ed147863f0e8079U, 0x3ee2b8e6be2cd91cU, 0x3db93cf83f2c9c2aU,
  0x3d8e0a313e670843U, 0x3e63f92ebdcbe797U, 0x3e86499d3e555a8eU, 0xbea822a9bcc5935cU,
  0x3d27d3643e70f7b5U, 0x3d7013543e394e76U, 0xbe665a6abe187a72U, 0xbf35b8273e463585U,
  0x3eeb4d493d8fe853U, 0xbdf2b3083dbd3f3fU, 0x3dff2e073e2e5ba3U, 0x3ec694d13cf9b0abU,
  0x3d86ff843e4d516bU, 0x3f1a0c163ee2f70fU, 0x3e8efa703e8cc8c9U, 0x3dd252383dd2819bU,
  0x3e4c88373eef3716U, 0xbe10ae513e9c71d0U, 0xbdb876bf3ed5ddd2U, 0x3e9caa1a3e8987d0U,
  0xbcd27b893e68994eU, 0xbe0d6e233d0352f8U, 0x3e959d4fbda52f2eU, 0x3e51bbf33e18a138U,
  0xbe4e06513e68c34fU, 0x3e24bc593ea70f81U, 0x3e2c7d1b3c1e7f4bU, 0x3e6e211f3e166395U,
  0x3bf60c433d2448f3U, 0x3ea8c65b3d45da0bU, 0x3de847393e714660U, 0x3dbbdfbebe35af31U,
  0xbd80d84c3e8da037U, 0xbe849d3e3f090a0cU, 0xbdbf9cf83e0c33b2U, 0x3e9d3ce1bd1e5b40U,
  0xbd72a2e5bd080ec1U, 0xbdd6c7efbcb41ebcU, 0x3d7c3b423e23b446U, 0xbd8d752cbe184a6dU,
  0xbe804b293e226574U, 0x3e01d1fcbd43afeaU, 0xbc9083a1bc0a1a8bU, 0xbd4fcde13e8594d3U,
  0xbe194c1dbd02280aU, 0x3de3e6bfbb87d0a4U, 0x3bb559043dd548f1U, 0x3cfa506ebe5ae75fU,
  0xbc07ce1ebcdaf764U, 0xbd97d11d3e8e1f44U, 0xbd66ea13bd80d107U, 0x3eb5e885be30236aU,
  0xbdb4ceb5be805f81U, 0xbe00583bbd89b2e3U, 0xbe7c9c2c3e1bb02eU, 0xbe95ee17be920068U,
  0xbdd978363d152134U, 0x3dfb3940be39f3b4U, 0xbca5bf5bbe041cfeU, 0xbe3881233e80f8a3U,
  0xbe372c95bd2bf40bU, 0xbe1b7bd1bd034e2cU, 0xbc01adc13e2a22ebU, 0xbc9a2b59bf007b5fU,
  0xbcdfde3fbbce00f3U, 0xbe4d14db3ec7454bU, 0xbd3d0c26be77d6b7U, 0x3e88151dbde6575fU,
  0xbd9cc038bd63695aU, 0x3c77c7e73d25134eU, 0xbe37012abdb032e0U, 0xbeaf14bcbd71a988U,
  0x3da9e5143dd7f897U, 0xbe2526c3be9c47d9U, 0xbd6c42fd3dab6152U, 0xbf22016e3e1fef39U,
  0xbe2810e1be3b501cU, 0xbe6584d0be04d7c4U, 0xbe5cd55d3eb1c9e0U, 0xbda53d84bea76fcdU,
  0x3e8334fcbd1919f6U, 0x3c5403283e79668aU, 0xbeb435febe814f3fU, 0x3d93b85dbd8d9dfeU,
  0x3e344eb83d483b8cU, 0xbd8c97123dd2c970U, 0xbd5c1ce53c349670U, 0xbe6f0da4be160228U,
  0xbd220be3be20a9eeU, 0xbe8ffa75be463bfdU, 0x3d23c4d03cbafa45U, 0xbea27f473e412a7dU,
  0xbe660c2f3d8075e4U, 0xbf54b8e93dc81074U, 0x3cd57647bf1660afU, 0x3e90dc24bebef4f5U,
  0x3e05f3abbebd611dU, 0xbe277121bdb068b0U, 0xbe819b12bf4949e2U, 0xbf283d76bed45d72U,
  0xbe0a0e65be92c42cU, 0x3e2cd0913e89ef4dU, 0xbe9affbdbe9a55b2U, 0x3dffc7f6be069445U,
  0x3c9f780b3e7b3259U, 0xbe599d27be828f9dU, 0x3e6019c4bdbe7c8bU, 0xbc6eb5bcbf0037a0U,
  0xbde6de67bd88b591U, 0xbf1d4e03be7a6ceaU, 0xbe9ff908bf0ea677U, 0x3e9de672bed0d261U,
  0x3e77cea5bf19eae0U, 0xbe94ca75bf89dd50U, 0xbf044093be34c6a2U, 0xbf837269bebac1bcU,
  0xbea7d65bbf62bbd5U, 0x3e3d92423dbb24e0U, 0xbde0c812bed70bd3U, 0x3d61c584beaad30bU,
  0x3cfd99ef3c43c643U, 0x3dc526913dc955daU, 0x3d5b1433bbbba9dbU, 0xbeb3a2b5bf5638d1U,
  0x3e6efe4a3dd56aa1U, 0x3de5a3c9be807086U, 0xbe5542e3bf39b5a8U, 0x3e8bc2acbeef4eb7U,
  0xbddfcd453eb76002U, 0xbebdab66bdc37e24U, 0xbeea27ed3ddb5088U, 0xbf72a4bb3c2def9eU,
  0xbee0a6adbcc021d6U, 0x3da9c991bd092f90U, 0xbcde80c9be745fc5U, 0x3e901450bec66aceU,
  0x3f220e763cd6573dU, 0x3e5c4c593d036ebeU, 0x3e10b57cbd8d83d2U, 0xbf0485aebe8d4e32U,
  0x3ea00d273d4f145fU, 0x3ddf7239be7f53f9U, 0xbe16446ebf4c4ad9U, 0x3e86d720be7d6ef3U,
  0xbedba9983d88e33eU, 0xbeb0fd873e058e58U, 0x3cd1ee95bbbae3b4U, 0xbf0b23563b284bedU,
  0xbf2cdbf23d85b88cU, 0x3d96f799bed67ae6U, 0x3d01f066bd3e0c60U, 0x3eec0f2ebe8d2f1fU,
  0xbd74894b3e1670eeU, 0x3d9b4534be6e3d5dU, 0xbe4934fa3f0dcf16U, 0xbee59e1b3db51e1bU,
  0x3f15cdedbe2f3e12U, 0xbd1deb2abc3ea576U, 0xbda8d28d3ec2a1b2U, 0x3e0c4163bba25000U,
  0xbe6ab1853dcbf53fU, 0xbe5ee0f43ec3eeb4U, 0xbdea97073dab4076U, 0xbef302de3e70e744U,
  0xbd88d4c73ea8970eU, 0x3c42c010bf0b1ce1U, 0x3e1373f53e7918bdU, 0x3f282f46bea17c4dU,
  0xbc1cbe1bbe885ae4U, 0x3e389ffabac6167dU, 0xbf06b5043e4fb4baU, 0xbe13b1953ebea758U,
  0xbcdc32a13e7af20cU, 0xbe2efc24bf26ef74U, 0xbf0a0fb2be54877cU, 0x3eb10042bf5b0054U,
  0xbe8be48ebe002081U, 0xbf1a8680bf25d9a0U, 0xbe875af5bdd1b276U, 0xbf07f17d3d38656bU,
  0xbf8287b0bcb32d5dU, 0x3e0d64a63e7770d4U, 0x3b075848bf4f57b2U, 0x3e4cdcf0bd866791U,
  0xbeeb47743e97218eU, 0xbe13c1a63ac0e61bU, 0x3ea1b303bda2f27cU, 0xbf488e50bf2414b5U,
  0xbb3c7c153dceacdbU, 0xbdad9c43bf1e9013U, 0xbf04b280bf2ce874U, 0x3dfe0cacbf292057U,
  0x3db9fcbcbc9bce4fU, 0xbedcfcd9be2ebf3dU, 0x3c89f0f03e07bcd5U, 0xbf2be5cdbea4f4ebU,
  0xbee072ccbc74465eU, 0x3ca9b1b93e38dcedU, 0x3c9396bebe2741dcU, 0xbc237475be2e10e2U,
  0xbed3be593e1874fcU, 0x3a3e22c9bdd6c9efU, 0x3e2ab838becde84aU, 0xbf34188bbe474f0eU,
  0x3dafaf693df0ec8cU, 0x3da19ab5be6e7636U, 0xbe5b72a2bec70744U, 0x3e008c8cbe9d98d8U,
  0xbfb95b93bddfec57U, 0xbef367b6be1c71d4U, 0xbd98be873df3b28fU, 0xbf12ba3bbec7f462U,
  0xbe8c9e40be8defd1U, 0x3c3c65763c0bf01aU, 0xbd07f1c43baa4e1bU, 0x3e1f4fb1be6bf206U,
  0xbf0c57303d908290U, 0x3dd519debe6072c8U, 0x3d9ef465bd834d23U, 0xbf1855debe09bb62U,
  0x3e4010b43dc7faeaU, 0x3caa7edabdb8dff0U, 0xbdc5e78cbf5dc114U, 0x3e837edf3d545246U,
  0xbf64b6c3bdda3f4bU, 0xbf04edf4be8168eaU, 0xbdb9cf7e3dbaf5e8U, 0xbec22445bc9dd7a2U,
  0xbf1827febe70f3b3U, 0x3da96f05bf300208U, 0x3e9059f7be715a8aU, 0x3eda1e32bdf5963bU,
  0xbe4b77133e87762aU, 0xbe7ee6e63e2664e3U, 0xbf003975bcd61a3cU, 0xbde89c34be752458U,
  0x3eaf4464bec4d83aU, 0x3cec048b3e8cfc93U, 0x3ebc6b56bf1a73c5U, 0xbd7a82983e6dbc21U,
  0x3ccc96fa3d13c3b7U, 0xbe9db6873e5e2530U, 0xbe3e007d3e898d8bU, 0xbeb1613c3e4b712dU,
  0x3e223fab3e3a728eU, 0xbd6ab0e7bedb9ae4U, 0x3eb912e4bcf55846U, 0x3ec63ae0be1f8720U,
  0x3d37c6783c254141U, 0xbe4868f03e7796edU, 0xbf11671cbe866c13U, 0x3e48170b3db8a149U,
  0x3da674933d283e5bU, 0x3d0e2aedbf11e473U, 0xbf06fc5dbdfa9bd9U, 0x3c81a252be384b18U,
  0x3d81a2cd3dda8714U, 0xbe57d0f13d89cdb0U, 0xbe8c42e4be508e84U, 0xbe531d3ebed6ac9eU,
  0x3dcd31c0bdc20f6bU, 0xbdbc26d9be8374deU, 0xbe40e31abb48c721U, 0x3d60d9c23e96971cU,
  0xbe0052083d5fde5fU, 0xbde23bb0be94fdd5U, 0xbd9718253e51b599U, 0xbf1de920bcba0e62U,
  0x3e5e447c3e29a428U, 0xbe9f71bebecc58b1U, 0xbe6b884ebf98a99fU, 0x3e82b182bd6a716aU,
  0xbe238d90bd491b56U, 0xbeb36081bdb7b733U, 0xbe37e835bd83a05fU, 0xbe639ce1be9150d6U,
  0xbe6c882abf1ddbbcU, 0xbd0e0d49bf294efeU, 0xbc9cdd06bd48bb65U, 0x3e0656db3e514f9dU,
  0xbe6f96e33e11e223U, 0xbde4eb64bd18ba00U, 0xbf0757ddbe02acaaU, 0xbec7d9a0bdc123baU,
  0x3e57d87dbdd31e4fU, 0xbd560d33bcc45559U, 0xbe181f09bf8443a5U, 0x3cee2a2a3d515e9bU,
  0xc0137a24bccf6984U, 0xbebb64bdbdfe4a14U, 0xbd5b393f3dbba710U, 0xbf22ecc2bdb8da51U,
  0xbf2d23b7be8b6a91U, 0xbcd3cd24bf8d8a01U, 0x3e3e26f2be5777d3U, 0x3e652f9dbecb0f44U,
  0xbd3f6fdf3c0825dbU, 0xbc87fd5f3c7ba03fU, 0xbf569660bbde1a4aU, 0xbdc09c32bdd179e1U,
  0x3e9088cebf13a8bcU, 0x3e5188fdbb983862U, 0xbe317264bee8f821U, 0xbdc3e4c1bd9dcd40U,
  0xbd6ce3a93ec56666U, 0xbe56e4d33e357460U, 0xbbb744c93e3e56cfU, 0xbfe601af3e4eb00cU,
  0x3e164eb83e978f92U, 0xbe5c2487bf4c9b5dU, 0x3e6ae4a8bb651238U, 0x3da775d7bf8c8553U,
  0xbe07d5a2bf291992U, 0xbc0414b03cf68ab8U, 0xbf78f3f1bd7dcb54U, 0xbe4531413e1ab300U,
  0x3e0d6302bf134c07U, 0x3e944d12bf1cd4a0U, 0xbf7495683e244d8bU, 0xbec1b363bebdbb23U,
  0x3e8a6ebf3f01570dU, 0x3d9c7a6b3ec2405fU, 0xbf0e4af23d16186bU, 0xbeadd7cbbc8c35bbU,
  0x3ed073643e728b4eU, 0xbf02b70bbe9db16dU, 0x3dfbbfeb3e495ae3U, 0xbdd2de123ce79869U,
  0xbe182c0dbfaa6b08U, 0xbe43e2b23c2ee4e8U, 0xbeaa66d1bf362ffaU, 0xbee03d1a3f014792U,
  0xbdb463edbe01ae5cU, 0x3d2a8492be3d3ae6U, 0xbdef64b3bdaeaf55U, 0xbdcc60e3bd4c4bb3U,
  0x3c1977003dc10eceU, 0xbd444f8e3cdeef7aU, 0x3d928dd33d756466U, 0xbe1024753d67ee47U,
  0xbd573a963d8ee8afU, 0x3da5ad12bd7f2486U, 0xbd66c0783cf63c51U, 0xbc2030243db58465U,
  0x3d64b72bbd1154d1U, 0x3d5919aa3d2207f7U, 0xbd5c8a053d389dc3U, 0xbe06521d3d83e8c5U,
  0xbd57c578bdec8df1U, 0x3d2d92e4bd8f8bacU, 0xbdb3d94c3d20f881U, 0x3bb60d22bcdbbfe4U,
  0xbd14f055bd91355cU, 0xbcc85dffbd0752dbU, 0x3d105e8cbd02ebb6U, 0xbc3c2287bde9155cU,
  0xbd01ec403d371de2U, 0x3de9ffbebda22779U, 0x3c5f18ba3d2b8082U, 0xbd1a8eb43de59169U,
  0xbc986659bdd02220U, 0xbca9a133bd1d5e86U, 0xbdbd571f3e0f0334U, 0xbe37f9403d74e265U,
  0xbdd0997fbd56471dU, 0xbd11fbb8bcdc316fU, 0xbd3c013f3c0b8d44U, 0xbdac8a18bd53f525U,
  0x3bf89902bc8fd6aaU, 0xbe018215bdbdd221U, 0x3d1eb68ebbb7e319U, 0xbdb4d52fbdea5510U,
  0xbdfb8f653cb2613bU, 0x3e22844cbdef78e9U, 0xbd0f59f83c802cd2U, 0xbd23400c3c72c29bU,
  0x3d325eafbdb9fe13U, 0xbdae6adabca0761eU, 0xbd02d6283d3b718eU, 0xbe19ec0a3cbf9342U,
  0xbdcee10cbd5bc829U, 0x3da8647e3a985462U, 0x3d8c580dbc389545U, 0xbd6fa6293ccdac82U,
  0x3cb68c10bdc29e9eU, 0xbdd4bf913c6eaa29U, 0x3d8edcd6bc6f3b8bU, 0x3d20fd19bc879128U,
  0xbc0506bcbd00092bU, 0x3e36ce7dbd9fb8c2U, 0x3d57664fbd9a7cb5U, 0x3cd593ec3d9f63daU,
  0x3deb03d93c0d7447U, 0xbce7c0933d553f0aU, 0xbd80cca73d82b436U, 0xba59b4813c74fe50U,
  0xbc920e393d974c8fU, 0xbd3c6a013d1c7f21U, 0xbdafc8c0bd253efaU, 0xbda009493e0575b6U,
  0x3cac614dbe149a69U, 0xbc27120cbda6c802U, 0x3d635b2abcf17f5bU, 0x3d478daabd0b58a3U,
  0xbdb2ddf63d4f7db4U, 0x3daa11c6bd8507b1U, 0x3d89768b3c8c6eb4U, 0xbd825510ba885964U,
  0x3e1dc8cb3d456837U, 0x3ac558803d49ed5cU, 0xbcb785743d1ad2d6U, 0xbcea6eaf3c1ad426U,
  0xbe2a657a3e99903cU, 0xbeadf3a63dfb5880U, 0x3de0bb37bd5a5203U, 0x3f1071fabe4c82baU,
  0x3d8fe3b0bebc3865U, 0xbd09c52bbeed57c8U, 0xbe38dee7bea7cba3U, 0xbe5d1929be787503U,
  0xbbc1e5e8bd4abd0dU, 0x3e20529d3ec71ce0U, 0xbe227c37bed07c34U, 0x3eba36cc3e313909U,
  0x3b3fe0c53f0089d5U, 0xbee35fbdbead46deU, 0x3ea658f43dca9f52U, 0xbe194bc4bf089708U,
  0x3db0760e3e1cf843U, 0xbec69b133c8f5e65U, 0xbe01e2dabd03b3d2U, 0x3ec8aa9abe4fedbdU,
  0x3e76f108be534862U, 0xbb82f68bbeeead03U, 0x3e0904adbce1171cU, 0xbe2dd13e3d4f3dfbU,
  0x3e1786b33ca4424dU, 0x3d9a54963e5cacb1U, 0x3d6aa568be0d5e53U, 0x3ebfc4e03b8c2904U,
  0xbc399ec13e890246U, 0xbe3437603e11fafeU, 0x3ea487623d917dc7U, 0xbdfc4b45becbeb20U,
  0x3e8260b63e0bdad8U, 0x3e1e84c1bd8bdc22U, 0x3dc0e3f8be4f15d1U, 0x3ec51f96be81837bU,
  0x3e361ca43e06201aU, 0xbe04a383be582676U, 0xbd0273423e544b6fU, 0xbea3d6dc3dbcaa16U,
  0xbd52e3713d9c2d93U, 0x3d4d70fd3e17c2c7U, 0x3e188dd5bdb2737aU, 0x3f0cf810be4e8f9bU,
  0x3df22fa33e8ac179U, 0xbdb361c73e190104U, 0x3e8eff54bdb3cb3bU, 0xbe649371be42d1aeU,
  0x3f09ce043e5e32abU, 0x3e8a7fba3e80fa62U, 0x3e8dd6e8bec7b504U, 0x3ee82e763d415cddU,
  0xbeb1b12a3e58e043U, 0xbe936eee3e0ba31eU, 0xbddd85b13e7eb439U, 0xbcea99353e80183bU,
  0xbecf0d1dbd816d1aU, 0xbc85eec9be08f1bdU, 0x3ed85a94bcb63abfU, 0x3f3eff1bbe2f52e1U,
  0xbe6988ee3e665212U, 0xbe0b80d83e82c71aU, 0xbc59c16bbe31875eU, 0x3c74188b3d1f3e68U,
  0x3f42cc25bdf372b2U, 0x3e9818a23ee95614U, 0x3ef80eaebeb14a7cU, 0x3eb192a8bc7bb246U,
  0xbf34e0723ed2bc2bU, 0xbe5ae5163f2c5285U, 0xbef90e213ed95e22U, 0x3e3d63cc3eeab45bU,
  0xbeb6fb7d3eac85a0U, 0xbc110dcebed4b7edU, 0x3f0561fc3e58ea33U, 0x3f786d77becfec67U,
  0xbd51df143d8f68f1U, 0xbe4235453ed4bbd0U, 0xbeb6fca5be9c5399U, 0x3e372d0c3f05a52fU,
  0x3e772c123dfe2995U, 0x3e2a52c43e0291a3U, 0x3e0700e13e6e42c5U, 0x3e15a427bdc3b526U,
  0xbe8156fe3e11cd24U, 0xbea286dfbd4ceb02U, 0xbe3e57d83eab1a71U, 0x3ed6ecb43e1b3ecdU,
  0xbe8d5841be66a6b3U, 0x3dcc0d8d3cd7fe69U, 0x3e905005be4160caU, 0x3d7f1f1e3e8823bdU,
  0xbe81caf53e268858U, 0x3e48aee33da177d5U, 0x3d017fb13ea6ed3bU, 0x3d89f10a3da7732cU,
  0x3e2faf22bdec5690U, 0x3d86b2ddbe29ba24U, 0xbd8ae4153e8e113cU, 0x3c8e2f433eb6f43dU,
  0xbe883e2d3e51e8f1U, 0xbbfe25d53d96c9a7U, 0xbdf20c0b3e9242aaU, 0xbe0e5f023de89603U,
  0xbcf4b21dbdf03e8eU, 0xbddfd29b3c57ddf3U, 0x3e3bba8f3e455624U, 0xbe22e3963e04e490U,
  0x3d4bd7f23c427532U, 0x3dc75428bda83435U, 0xbd81f527bdd4df13U, 0xbe5c36593e0af5ebU,
  0xbe93e1eebdb6f411U, 0x3d86ee39bf641340U, 0xbf53c23b3d296483U, 0xbe56112abe230573U,
  0x3cdd161e3e5aeadaU, 0x3e37cf693e577ba4U, 0x3efb9b04bcc23d8aU, 0xbe879603be8dc72fU,
  0x3e76778c3e8e5715U, 0xbe8b15fe3dc4f541U, 0xbe80eb283ea16831U, 0xbf4633ce3e38c2f1U,
  0x3ed382e4be0b21c6U, 0x3e4b0fb0beea32d9U, 0x3d808d313e79ee14U, 0xbe8cc0d83e30b8f2U,
  0xbef222bebd873398U, 0xbefe0160bf286486U, 0xbf5319ffbe674ea4U, 0xbd8d6be4bf4aa33bU,
  0x3db5d078bf2192c4U, 0xbc04b1d9be39d141U, 0xbe1fbd75bef0c1acU, 0xbbc6d138bf209a9aU,
  0x3d35b8c93e290bb7U, 0x3cc639b03df0fea4U, 0xbf2bc51bbc9faedaU, 0xbf2df85dbe279f60U,
  0xbe8770e7bd68f8d9U, 0xbecc369fbf9879b9U, 0x3dac9d14bebf023fU, 0xbf59459fbe804d6eU,
  0xbed086783e087de4U, 0xbfad73493d6a2a4dU, 0xbe07a965be952a46U, 0x3dc71c5f3b5c3df4U,
  0xbd5b8369bfbc5106U, 0xbe29fa63bf452d20U, 0x3e2a94b9bf81d1b1U, 0xbf0de87c3bd7a9b6U,
  0xbe66b1e3bf0a7bf4U, 0x3e7737483dec8495U, 0xbef08172bea8a899U, 0xbdce5f863e82ebfbU,
  0xbead9ee93da0a402U, 0xbeb8d061bf6515f5U, 0x3dc830603e8cce6eU, 0xbda43ea4bf436406U,
  0xbf41c8463e2ec597U, 0x3ec4d9443e08f44aU, 0x3ce675233e03fbaaU, 0x3ec490e63f18e6e8U,
  0x3e4dd7be3ef20600U, 0x3e19bf1c3e906999U, 0xbeac44173e413bf7U, 0x3e90bbebbf53220eU,
  0x3e9572833dd0665cU, 0x3d8e9e523e8f4eeeU, 0xbdec19993e9769d1U, 0x3d0479993e57b4c8U,
  0x3e04cfba3e89a0e6U, 0xbeb07f9bbdca7fffU, 0x3dd39e75be87588fU, 0x3e1fa82bbe7f1800U,
  0xbf4594ee3da24394U, 0x3e128d783e700002U, 0x3e290ca1bd0bceabU, 0x3eb63365bccc2fb2U,
  0xbd901b053e6c0810U, 0x3c79b155be8f8c56U, 0x3db8c09fbe82efdeU, 0x3e6c3c34bd80f5acU,
  0x3e1148523dd641b0U, 0x3e1102963e85b130U, 0x3d51eb1d3d4ef7ebU, 0x3df206fc3e0acbefU,
  0x3e9faffd3e9139f7U, 0xbe7e26f13eb93497U, 0x3d9e988bbe1ced97U, 0x3ed7d185bef9dd42U,
  0xbf0c0bf63cecda02U, 0x3f18259fbde7891fU, 0x3c143a3cbdcdcf87U, 0x3e42c977be377b28U,
  0xbe3cf59f3dece71dU, 0xbe52d843bf79ca41U, 0xbd8fd580be7a6e16U, 0x3d9460b63e13d103U,
  0xbda787213dc0a440U, 0x3d670c313df97cc0U, 0xbe76a9e0be8cc7c1U, 0xbd04b8903e4ccb60U,
  0x3eef5d683de09e45U, 0xbe7d3defbe455e4aU, 0x3dc3a3ec3dde01eeU, 0xbe02f6e1bf6fcffbU,
  0xbeb9f729bd8965caU, 0xbe0a6459beb1881bU, 0xbee19ad6bbda79baU, 0x3d056ef5bd88c71eU,
  0xbdbb0b5dbe84fc2bU, 0x3cc489b0becef83bU, 0x3dc99442be9679f8U, 0xbdd9e1463e1895a8U,
  0x3c25d0333d901b04U, 0x3c1261493d04b650U, 0xbeecb6c6bd955191U, 0xbe41c15e3d25f956U,
  0x3e01e416bc331e2dU, 0x3e1db8fdbef55e19U, 0xbd01086bbcba1a32U, 0xbee57cc3bec26dbbU,
  0xbe62f198bbbdca62U, 0xbe83e422bf2c604aU, 0xbf19cb6bbdb54384U, 0xbd4ae4413b6d575aU,
  0x3e2dfde9bec683f8U, 0x3dca1264bdc58989U, 0x3e5a4ca3bf21348fU, 0xbe8527813d65d8d3U,
  0x3da02727bca7df5aU, 0xbd8a7b9c3e013c01U, 0xbf0cff2e3e35e8f5U, 0xbe8332223c9ee1a5U,
  0x3d9ca0e5bd727804U, 0x3e928e3cbf1e37e5U, 0x3e0bdb983dc5a51eU, 0xbf032398be72ab3dU,
  0x3e1c93febdcb45fcU, 0x3e2d92de3f158d25U, 0x3ef7a8d7bfdc3af0U, 0xbdb737b9be9e2f7dU,
  0xbe77a0dc3e06df4cU, 0x3eb3b1583edd6837U, 0xbead03223eb20815U, 0xbe54106f3eec548aU,
  0x3e75889b3e1b8877U, 0x3d2e278ebe07aa5eU, 0x3ea1b3d23f053ce1U, 0x3e3b046dbf451f73U,
  0x3d19f5eebe94d374U, 0x3c022c9c3e878deaU, 0xbe2546f6be37856aU, 0x3cbb48863f1a1e49U,
  0x3d5f50f03aad53bfU, 0x3e0bf977bef70becU, 0xbef37fc6bf84f9faU, 0x3c4b49a2be772354U,
  0xbde9bca5bdde36b0U, 0x3ebff7093df66a75U, 0xbea15ec93e1824c7U, 0xc00ac871be2f9c19U,
  0x3d9cf9b9be9e1bc5U, 0x3e00799e3dcdbd38U, 0x3e2628ac3e4e1471U, 0x396ef7dcbf2af826U,
  0xbee20666bd452a9bU, 0xbe0b4f3b3e0da80aU, 0xbc154320be290c5dU, 0xbeff3edb3e283807U,
  0xbda41ee43e40219aU, 0x3e025004be9f8dd8U, 0x3ded70aabf237f5eU, 0x3d7565d5be6fcb38U,
  0xbe1187bebdc64f09U, 0x3e0ccbe6bcc2dbd3U, 0x3d6535d73d9ea5b7U, 0xbfa67917be2c187bU,
  0xbde7a044bdfa24ccU, 0x3e30f9de3d82f530U, 0x3dfca6fcbdcc0701U, 0xbdb91274be848eb4U,
  0xbe102ff23d9bb7cbU, 0xbd77467c3e47ec85U, 0x3d9a311ebdde10f2U, 0xbf4ebe4bbbe348d1U,
  0xbe90908a3dd92f10U, 0x3dd7b153be272f01U, 0xbb34f935bef93566U, 0x3da0a77cbe7d6419U,
  0xbdd0f3c13bdfb781U, 0x3e7f58e3bd539a3cU, 0x3d21ca023d06841dU, 0xbf5826943e5c5c6eU,
  0x3d663e4e3e738eceU, 0x3dc6ecca3e05d299U, 0xbdc6d9eebd83519eU, 0xbe82c875be66daf5U,
  0x3d4ac38a3e7ebb1bU, 0xbdc3308abdb191acU, 0x3dc2e377bdfa2dc6U, 0xbef227b9bd4f3f25U,
  0xbf0731b9bd11f5d2U, 0x3c0f18a43d96f377U, 0x3d81807bbe38d4b1U, 0xbd561fecbeba8d34U,
  0x3d87bc113ddfb297U, 0x3e88d8d23e0d0458U, 0xbe0a41a4be906330U, 0xbf2796c1bd50a12cU,
  0x3e57d60d3ec40d70U, 0xbd9410593eb9f11bU, 0xbeffe82fbd9ca04bU, 0xbf46b2293dbe3088U,
  0x3e0116873d9ca4c8U, 0xbcb46028be5d25acU, 0x3e54445ebe2be1adU, 0xbe1d36ce3dce81e5U,
  0xbecb59fdbeb1e7ceU, 0xbe1841e7bf74d48bU, 0xbf7fed0a3d154ae1U, 0xbea02f81be1cff2bU,
  0xbd489733be9cbd40U, 0xbe8eb36abc2c759bU, 0xbd437e963d517cd5U, 0xbf75d2acbcfa13e1U,
  0xbedff197bc73dcaaU, 0xbdb389cabe5dc442U, 0xbe60bc80be841e5cU, 0xbe904806be58e37dU,
  0x3d7a71e4beb0e202U, 0x3e9b19163d8b611cU, 0xbe3bd6aa3dd282beU, 0xbf114eb0bede7e23U,
  0xbe4b12c8be3346e4U, 0xba821bb4bf2398c2U, 0xbf15e408bee59858U, 0xbd9a859ebea03ce2U,
  0x3e0b8749bd6ff785U, 0xbf4fd23ebf2ffe08U, 0xbd2c401e3cbc012fU, 0xbf11217bbdbc4077U,
  0xbfc6f3c93ea7565bU, 0xbd539025beaf5ddbU, 0xbd9ca016bf65ef27U, 0xbd8406173b602737U,
  0xbde2313c3b0ea2faU, 0x3e9f11723db9bae8U, 0xbeb651db3dd3f24aU, 0xbf389b5bbf559360U,
  0xbe0ba9eabf3383d9U, 0x3d841b92be962ab4U, 0xbe15fdf3bf88fcb6U, 0xbe5be3143e6ae381U,
  0xbf27ee21bd4f4062U, 0xbec80f90be4e95d1U, 0x3dec165dbd2ab469U, 0xbe71d1f33dc7e86fU,
  0xbee739c93d81924dU, 0xbe74e9d4bf2925edU, 0xbd70cb95bf0e5cb1U, 0xbcdd5cee3ea2a1b6U,
  0x3d9b7882be36e12bU, 0x3ee8b890bd5254a1U, 0xbf2ff0e73e006e30U, 0xbee8d374be950061U,
  0xbd0d795cbeeff107U, 0xbd1e83623d137cbbU, 0xbd708891beca4edfU, 0xbee806b93e611302U,
  0xbcc20a513d97f2e9U, 0xbddcfafb3dd8ab5fU, 0xbe060d33bcf42f2fU, 0x3e86f0a6bd1468b1U,
  0x3d477a573aa051cbU, 0xbe497bd9be32b110U, 0xbe09d0f8bdb9f96fU, 0xbdab74e8be484a22U,
  0x3e4ce7463cb8462bU, 0x3d0ec7193d01893aU, 0xbef4af673e13b466U, 0xbe0b8fcabceca76dU,
  0xbd94a472bd1d4b36U, 0xbc377bd43ee86075U, 0x3eefabcbbd219b6bU, 0xbe1047483e8c7a03U,
  0x3ddfa4043cfe9bb8U, 0x3d9675eb3ddce263U, 0xbe059b083e06955dU, 0xbe02bf11bdc45078U,
  0x3e83eba03d04daafU, 0xbeae80cc3d9f53e8U, 0x3c35a278bc920364U, 0xbda599b43dc9d605U,
  0x3e807c92be4f76f9U, 0x3e2b90353dffc982U, 0x3d64387b3da4c551U, 0x3ec3b7a43df353f5U,
  0x3cf6e0efbe1fced2U, 0xbb354923bd254f0cU, 0x3da6233ebe1e9a8cU, 0xbcec9470be383353U,
  0xbda517203d99870aU, 0xbe067ca43eff5310U, 0x3d94da2bbf0445d5U, 0xbe6e94493cfb229cU,
  0xbe08a4383cf9fe7eU, 0x3df579f4be5fe042U, 0xbea461d5bd7f6fe9U, 0xbccc69143cb83506U,
  0xbda81bcabd8185e0U, 0x3c91449abe5636e0U, 0xbe178eba3e9167bdU, 0xbddc2e8cbdf69bdcU,
  0xbd9d38b8be0836f7U, 0xbf163ccabe9cf989U, 0xbeb4a7d7bd7b81f1U, 0xbe33ab56bed96647U,
  0xbe2e9058bf3dcf60U, 0xbe3f9648be8fe6ccU, 0x3dfedfffbe61877fU, 0xbe919159bdb9e4dbU,
  0xbf2421bebef97f2fU, 0xbe0d867fbe1deb3dU, 0xbe684e47be65ed14U, 0xbe56aaa7bc776b44U,
  0x3e8cacdfbead372cU, 0xbe53085ebe85b2c2U, 0xbe5f9fb33e9d9bcbU, 0xbeab447bbedbd1cfU,
  0x3e21ea89be9521fdU, 0xbeb69dfcbea48ecfU, 0xbe6b232bbdde0be0U, 0xbd0c5fb4bec0ad77U,
  0xbf26f2fdbf37fd79U, 0xbed778aebf80aad0U, 0xbe4c7089be48817bU, 0xbe993350beb515b5U,
  0xbf70e293bf82979eU, 0xbd320debbe686622U, 0xbd378f85bea122bfU, 0xbbc1ef4fbebe11e3U,
  0xbf383687bedb724aU, 0xbd12cc7ebe68d917U, 0xbec568873e0023ecU, 0xbe56954abf44b541U,
  0x3e2094a4be65218cU, 0xbe4802d9bb587373U, 0xbe48eda1bef34d00U, 0x3dd23b5fbd7b21b5U,
  0x3be0c4bbbd781a29U, 0xbebfe46abeb6065aU, 0x3e334d41bc1fbf88U, 0xbee3f7bbbdde21d7U,
  0xbe29689abe1290aaU, 0xbcc56ea1bf6c4966U, 0x3e212dc9bdec9dedU, 0x3df90988bde69a22U,
  0x3ce6d247befee7c9U, 0xbce7d8f2bd607602U, 0xbf2be011bd96463fU, 0x3cc82cbdbeb00748U,
  0x3e2305ccbe008953U, 0x3bfa3edd3e43bc37U, 0x3e0db337bf01d3dfU, 0x3c1ecf703cc3a906U,
  0x3e9ddfff3d8f0af8U, 0x3dfe7a963e5b4909U, 0xbde946e83e653d5eU, 0xbd0dd7cbbe1fc2f5U,
  0x3ea0f2103dc70807U, 0xbd38edaa3cd6ab3cU, 0x3e83dd973e70bd61U, 0x3e6c95c7be25f308U,
  0x3e36ecb6be126612U, 0xbdec74293e4666b7U, 0xbe7982373d17e8e2U, 0x3e0280a63e8bb640U,
  0xbe80ab933c066f53U, 0x3d0ae3fa3e781e75U, 0x3df3a927bd41d62aU, 0xbdbae36c3cc7e63dU,
  0xbe47906d3db05fedU, 0xbc2008843dc6a218U, 0x3f07a6f23cd05d5aU, 0x3e73da61bdd2f91dU,
  0x3df196ff3e82a2b7U, 0xbe1ab142bde80f2fU, 0xbdcf2afe3e1eb472U, 0xbdc0c6eb3d14c46cU,
  0x3cddb9063dbb37bcU, 0x3dbcedd5bc34b5e4U, 0xbe5181ce3eda1194U, 0x3e8261ecbc9a01e9U,
  0xbe8caa87be2fcb5dU, 0xbcc289863dc271b8U, 0x3e02aa56beba7c08U, 0xbd3f3a43be52ed12U,
  0x3c24ce51bdabb126U, 0xbdb2188b3c529153U, 0x3edb4c67bd88a7c4U, 0x3e5d193fbe425ddcU,
  0x3dd6940a3e159f6dU, 0xbdc09cffbe86ed7bU, 0xbe490776bda0f753U, 0xbe39b5f2be42913dU,
  0x3dbe497dbd8db9a7U, 0x3ceb323cbde8baa3U, 0xbe3b1bd33e300ebbU, 0x3dfec539bd5a6eacU,
  0xbea8c04fbdc64be6U, 0xbd687f7f3e1f70deU, 0x3d87571fbe91f219U, 0xbe370c32be081e0cU,
  0x3d054676bd8cbf1aU, 0xbe4aa4013dad865bU, 0x3e426d54bd878a65U, 0xbe3ed355bde866f2U,
  0xbd97cfd63de6f726U, 0xbe7a8632be677a87U, 0xbdca7daabd2170d9U, 0xbe892fb3be6753fcU,
  0x3c8ef5febe892df4U, 0xbe41d3bebeae2b06U, 0xbe2cde3c3d2c1206U, 0x3e040b023de0c126U,
  0xbe57eb1fbd2f89f0U, 0xbe66f9bb3d455198U, 0x3da47b47be97ced4U, 0xbead4cc33e3b2598U,
  0x3de0c6b1be64e616U, 0xbe8dc0c8bdcbcff3U, 0x3e04b79fbe2280a1U, 0xbe8b3ef0be6fe457U,
  0xbe3c28833cceb1dcU, 0xbeadf995be5be4ddU, 0xbdd98fbdbd5b3b0eU, 0xbe937e8f3d2371d4U,
  0xbe13d0863ce6341cU, 0xbe383017bde55c8dU, 0xbe566700bdb9152aU, 0x3e5a19f7be4a4439U,
  0xbe6d6760be37d06dU, 0xbe0f396d3e9354bcU, 0x3eb0af07be432862U, 0xbe66071e3e9f952aU,
  0x3dd66de5bd8ff5b7U, 0xbe853ca2be7579a4U, 0x3e83b37bbdf0f5b7U, 0xbe358a5fbe63e6f7U,
  0xbe3fd914be12f95fU, 0xbe6327b2be07c2beU, 0x3c75394ebe91fd76U, 0xbe19e096bdc1a6a4U,
  0xbe230f603dc315c8U, 0xbe4943083c469721U, 0xbe23b4073d37fa11U, 0x3e88e47abe9ded62U,
  0xbd76c0b03c3d98b6U, 0xbc810263bdd9e488U, 0x3d21b3f1bd8adbceU, 0xbe14e668bda3069aU,
  0xb970156e3a0cd4a5U, 0xbdddb0a9bd9d8588U, 0x3d0463d43c92a07dU, 0xbce08fd0bd1c711aU,
  0xbda7e879bd5b9715U, 0xbd013452bc8a9c7cU, 0xbd22b5e5bd7f2240U, 0xbdd5c9983c00d12dU,
  0x3c5df629bdbdaf03U, 0xbb395d20bb61c280U, 0xbe01a056bd12d887U, 0xbd05eb443d49bc13U,
  0xbdd3aee3bd5db86aU, 0xbda34e0e3d3959bfU, 0xbde23367bd991eb4U, 0xbe0c0d31bda21c46U,
  0xbbe9e996bdbe3897U, 0xbdd20944bd18deddU, 0x3d10e871bd550430U, 0x3ca941e4bd2f02ddU,
  0xbe0b4358be0031b6U, 0xbdcca140bc5125f8U, 0xbcc16d8fbd96fd09U, 0xbd89fb22bd1fc169U,
  0xbdca1eacbcfcc3fcU, 0xbd662521bd3bf0beU, 0xbe048c283d2a381cU, 0x3cd6dfa1bdf6ec95U,
  0xbd722f0dbd727d1dU, 0x3d80f426bd07290bU, 0xbd07167e3ce6e586U, 0xbc30025f3d3ab328U,
  0xbde0d11dbd9dc4aeU, 0x3d0d0f0bbda4f31eU, 0xbca705cebdb14bfbU, 0xbd037c3b3d40b391U,
  0x3d08d6443cd61abeU, 0xbcd93673bde36ce9U, 0xbd73a264bd8e40d7U, 0xbce22ed5bd75d800U,
  0xbcbd4c59bd9f3641U, 0xbbe946ddbcc08400U, 0xbdb9cde4bd99b9dfU, 0x3d9c888f3c1d124fU,
  0xbd8fe8e5bd83d796U, 0xbd9d38a0bd08077aU, 0x3b5a4800bd37631aU, 0x3c9399633cbf08c4U,
  0x3b8e238cbdc8473aU, 0xbd004cb23d5eb8d3U, 0xbc9abbbb3d803365U, 0xbd57fd393cc9e300U,
  0x3c57578fbdac0529U, 0xbd94608bbde9bac6U, 0xbc5300b03d7bdee3U, 0xbd7b59edbd61a8bdU,
  0xbcce3c8ebcc097a5U, 0xbd3ba3993d184c86U, 0xbd79ba76bd01abceU, 0xbd7026d4bd6c1250U,
  0xbc878e203c61f8c9U, 0xbd7f73f43bb96dd1U, 0xbda1eaf6bd2d03deU, 0x3d605b823abfed9cU,
  0xbdb1ffd6bd97e9ffU, 0xbdb507d03d4fc115U, 0xbd3eb2e9bd6cf3a9U, 0x3d1ee4c83d42a0ffU,
  0xbd35a510bd987df5U, 0x3daa2d323cef5ed4U, 0xba1b2c80bd5f7da8U, 0xbdc27bfdbc09e425U,
  0x3c45f5ccbcf513edU, 0x3cab50b8bc1babd8U, 0x3ca0c133bbb87efaU, 0x3cd2086abd6b9e49U,
  0xbe71690c3dd64798U, 0xbed5e0573e0f119dU, 0x3dd3638fbe7d713bU, 0x3de2cb18becdee37U,
  0x3cade0dbbf19a5e2U, 0xbdad663abed4e816U, 0xbe38aa69be3546e6U, 0x3c894175be42a1f0U,
  0xbd7ae668beb1fabcU, 0xbd4a25b23c2b164dU, 0xbdd85cf7bd04949aU, 0x3d1eed29be5c4368U,
  0xbef8bab1bb3b4ec2U, 0xbc243b64be3ed2dfU, 0xbdbe687f3e5fcf03U, 0xbbf2e05ebf5701deU,
  0xbd4b8afdbe37be3cU, 0xbe5324af3d21e8a2U, 0x3d149c9ebe1c9c8dU, 0xbceeb65bbe84a5f9U,
  0xbeb51735bea199ebU, 0xbe765bddbf1624d5U, 0xbe8cc87bbdfade27U, 0x3c6afbc2be725b47U,
  0xbec6d77cbeeb3da2U, 0xbde84638be27f158U, 0xbd4c4780bf094809U, 0xbcadc762be602fb6U,
  0xbe92ed3fbd82cbadU, 0x3e1d7587bb372aa1U, 0xbe4e84ea3d6b8b9aU, 0x3d0bd3a6bf24d531U,
  0x3d94590ebf2eabe7U, 0xbd2eff883e3abb3bU, 0x3d00e6873e2794daU, 0xbe527864be0dc185U,
  0xbb81b3a13e683680U, 0x3cfa2a983d4522cbU, 0x3d957a313e098d60U, 0xbef4aa7e3d1f84dfU,
  0xbc9b2cdbbe26d2ccU, 0xbe8cc2d1bc2a04f1U, 0x3df9f179bd7d4619U, 0x3e58ec1abedae737U,
  0x3da1ba06bedcc4b0U, 0x3e9873ce3e166655U, 0xbe1d31ed3dae1d30U, 0x3ad8e6793c52a5e4U,
  0x3d15b141be8cfe95U, 0xbd1ba4a5bd708a60U, 0xbddcb7483e191cc3U, 0xbface7763ce20048U,
  0x3eab2617bdb1cf04U, 0x3e7a3f933ed946c3U, 0x3e2399cb3da9a34aU, 0xbed23c66bec5be8eU,
  0x3e586c24bdd5c73dU, 0xbea1a6693d9098dfU, 0xbc01c55f3ea88891U, 0xbec59ae4be394986U,
  0x3c5d1b03bf0ef3e4U, 0x3e50aabfbc9305baU, 0x3df128b33b2d0178U, 0xbe109bdb3edc6b7eU,
  0x3ddaefe93e8e6c70U, 0xbd06402abe85b1caU, 0xbeb1d1e53dbe9239U, 0x3d52a205bd23860cU,
  0x3e826522be5be19aU, 0x3e369314bd094bfcU, 0x3e50d3153dcb2715U, 0x3c63fe2fbee4dbbaU,
  0x3c4706c5bdc363f9U, 0x3e613aea3e51803fU, 0xbce9466b3c5845c9U, 0xbe9f92f03d564623U,
  0xbd96541f3eac9fa2U, 0x3d94bf3d3d7ea0c1U, 0x3e6abf323e888115U, 0xbe3b7f95bdb2e3afU,
  0xbf0456573e14bc83U, 0xbe532f6c3ec19ce4U, 0x3eab6d3cbe190a4eU, 0x3d83a4b0bee3a06fU,
  0xbdb41cadbe10d4faU, 0x3e9d78783f2fb05eU, 0x3ec2790fbfcad795U, 0x3e5fa9063e528005U,
  0x3e712d27bdb37f3fU, 0x3d84fdb03cef70bdU, 0xbe8e2d5e3da9d36dU, 0x3e5273cb3e860329U,
  0x3d455b103dd33d59U, 0xbf1d536fbe6f7c23U, 0x3ad6f6983e4a59baU, 0x3ea78aab3e729605U,
  0xbe61afdebe02eaa6U, 0xbf39781a3d3eb4caU, 0x3cef9b92bf192a74U, 0xbd3638bcbe6ec83dU,
  0x3e0351f3bee74e02U, 0xbe893a3dbfd42db3U, 0x3eaaef6cbe3f021aU, 0xbe1b1762bceabacdU,
  0xbf8ad5f2bd9bae6cU, 0xbdc25062bdd241fbU, 0xbe87a00bbee17bb7U, 0xbce61e4c3db1e013U,
  0xbebb0910bdbf1715U, 0xbe01e4e9bec8bb78U, 0xbd8bb1d63e1e4684U, 0x3c14387bbf6eccecU,
  0x3d670d97be46e70cU, 0xbeb494813d1f3a71U, 0x3cab7c0ebf006b4bU, 0xbd819391bdd5d5a6U,
  0xbf3429efbd9b4fe2U, 0xbe07956ebebb70e7U, 0xbeedb2f7be7c4801U, 0xbe8f26a8bd11f1fdU,
  0xbefe6cd8be72bdecU, 0x3cc5dc1bbef6502fU, 0xbcf08e22beea8483U, 0xbd0faf88be61896cU,
  0xbe9ec054be180883U, 0xbe3121a0bdfda2bfU, 0xbefc13533dbabaa8U, 0xbc93ce6bbd7f5ec3U,
  0xbce1d2b1bf6a08f9U, 0xbea2c09c3de16dcdU, 0x3e02d3b2bebf6343U, 0x3c1f4e413e31d267U,
  0x3da36c3bbdc18175U, 0x3e728978bd9b7ac3U, 0x3dfd362e3d0acda9U, 0x3e40adeebe702322U,
  0x3d7ef537bda868a6U, 0x3e0ab7e2bf18ed9eU, 0x3c6fac82bd8a28d9U, 0xbd9f52c8bed4e14fU,
  0x3ec6f891bf06366aU, 0x3dde74bebd244c03U, 0xbf1c415d3db9c4ffU, 0x3e204eaebe54d29bU,
  0x3d3027b7bf4a8312U, 0xbd4a29c83e0fe411U, 0x3e03e0b83e8f6754U, 0xbec3f4e83ea57a64U,
  0x3eadc1633d820d24U, 0x3e2488ab3952b486U, 0x3d8ad04e3df179ffU, 0xbabc79a3bd072430U,
  0x3e1026ba3dd9f994U, 0x3c8d8a583e4aeb7bU, 0x3e0b663c3cbca870U, 0x3e414f333e9cd772U,
  0x3edc66cbbf707241U, 0x3e45ef7b3df94cbcU, 0x3dbc06993c20c908U, 0x3e8812853d52e95bU,
  0xbd0ab1893e41eb98U, 0xbe939515bd4c7040U, 0x3da2c1b1bed0d607U, 0x3e240613bec4fe7aU,
  0xbedf8372bda8fd4bU, 0xbf98a6d0bf0d2783U, 0x3dfdac45bcc3a182U, 0xbe06ff4bbe5a1ec9U,
  0xbf427dd93c2ff35fU, 0x3d30d8693e31ff6bU, 0xbe04f3c6bf08f5e3U, 0x3d94fcdd3e4a842cU,
  0xbd4ce9f83ea080d5U, 0x3d8b8628be11a6f2U, 0x3e3f89a23f17014eU, 0xbe8b5a8fbebda695U,
  0x3d7b42d13c8a9dfcU, 0xbd9414b5be99cc12U, 0xbe063417beeb5d94U, 0x3d813254bede5bc1U,
  0xbee3dd943d3134dcU, 0xbf2feea8be447cfdU, 0x3e761e733da4ffa5U, 0xbeae0ff2be48ab35U,
  0xbe4a08eebe8c1652U, 0x3ced99ab3d30cad6U, 0x3d464aa0bd13ea87U, 0xbd3ce99e3dc0aa8aU,
  0xbe66aca33db3ae65U, 0x3e110039bbceea3dU, 0xbd9c7bbc3ec50ef9U, 0xbf2beeb2bdd3fab1U,
  0x3dbc69f5bd54674eU, 0xbc9683e8be72b39eU, 0xbdf8637bbf37812eU, 0x3cb2dba8bed16017U,
  0xbea99a45be104a4fU, 0xbf140ad6be9fe755U, 0xbe12f24e3dc5012fU, 0xbf36bc36bead1f23U,
  0xbdf09eecbeb8b298U, 0x3e087789bf242320U, 0x3da3716e3cff1cb1U, 0x3da78a43be0e0d07U,
  0xbe913ef0bd0045c9U, 0x3e51c88abc9780aeU, 0xbefb1e64bc8d8c54U, 0xbf2fbb92be0a73f4U,
  0x3e2153cebdacd6a1U, 0x3e13aa62bdbfacceU, 0x3d8c4529be3a12d8U, 0xbe1a9a64bdf94501U,
  0xbf353d52be3332faU, 0xbf6d6780bec2fa26U, 0xbcac17283e719d3eU, 0xbea63fa53c28e51fU,
  0xbf0e3a10be6ff69bU, 0xbd9d9b87bf1a50a9U, 0x3df2057fbe1ec26aU, 0x3e09f57cbe311e89U,
  0x3a2431393cba7e51U, 0x3d3cba543e07b634U, 0xbf580015bdd33e18U, 0xbe63370a3c1fd4adU,
  0x3e915113beac81cbU, 0x3eb9e6b03e8f700aU, 0x3ecd6d523d009b96U, 0xbef195c03c971259U,
  0xbed75b9a3dccb0ffU, 0xbeac308cbc2a83dbU, 0x3c6d4d3d3ecdfab3U, 0xbe1914e83e097a5fU,
  0xbe46eeb0bcc2e86dU, 0xbe04f74dbea12761U, 0x3e6f7f9abdcbf018U, 0x3e663b2ebce62cc0U,
  0x3e4b86bfbe8e4220U, 0xbd3f4a363e9620ceU, 0xbf1b25a63ed8e13cU, 0x3e5915b63e1f1aa1U,
  0xbda02e1fbdb5a7f7U, 0xbe62e0153e656c14U, 0x3d3b6971bc81f7bbU, 0xbda215e93d9df4d7U,
  0xbd0d8539be94e674U, 0x3d74b596be680687U, 0x3dc14ffcbf378f77U, 0xbc09d469bd928cf1U,
  0x3d990607bc4142e5U, 0xbd88f220bdd795ccU, 0xbdd20bcb3e5451f9U, 0xbdbe167fbd14baa8U,
  0x3d28535abdadb5c0U, 0xbe8bc1fcbdad270dU, 0xbc9107163d9ce636U, 0x3db60f5bbe179838U,
  0xbe46270dbe1c0c32U, 0xbebe75033d687ab9U, 0x3c8b3452be0606cdU, 0xbd23a9a3bd91a4d9U,
  0xbd9a9314bdc5fc0cU, 0xbdd42d483c1a3e40U, 0xbdac6e3ebcd3a9cbU, 0x3cb5e0d33cc6ebb6U,
  0x3de9ac35bce18580U, 0xbdfc69cebe71f37bU, 0x3cb8118b3e4b0ef9U, 0xbd3a5d68be404de1U,
  0xbd9a7e4bbda115c9U, 0xbdaf0afbbbc46b2aU, 0xbe1a22493e2df6b3U, 0x3da3c06fbdf869daU,
  0xbe5f89ebbe1c4a33U, 0xbb94fc7bbd939776U, 0xbd3d095dbe4622b2U, 0xbe38556dbdf814d4U,
  0x3e0f57323dfe8445U, 0x3d8496943c48c658U, 0xbdce704dbd62f785U, 0xbdf349dcbde84abbU,
  0x3d23e5adbde4ef92U, 0xbe8973f7bdf2575aU, 0xbe2c68863cff4251U, 0xbe5ff1c4bd7a3136U,
  0x3db08e21be7ec9aaU, 0xbc054cfd3d368b59U, 0xbe376f313c3d14b6U, 0xbdbb387d3eaf7c2bU,
  0xbe116cd3bd9caeb6U, 0x3d31c790bd0af642U, 0x3d4109c8be0f42afU, 0xbe1c4d45bc0b85edU,
  0xbedd142f3d9bb035U, 0xbdb4834a3d7f5a4cU, 0xbc28bfadbe29642fU, 0x3e2ea5e0be930a17U,
  0xbe8c55f2be6d2d71U, 0xbdda149bbe4d980aU, 0xbe7b1a9c3dfdbf67U, 0xbd9132a8bdcacb20U,
  0x3ddd51fcbe43fa03U, 0x3d8ee5d5bdb0e8efU, 0xbe2c7f863da5b0fbU, 0x3d8fab0a3ddaba9fU,
  0xbde49202be76a928U, 0xbd7b47973e17a7b8U, 0x3dc56bf3be17036fU, 0xbe54f8c13d3a3274U,
  0xbf2e8404be2c3c4cU, 0xbe352ee9bc383fedU, 0xbd0a7174be7bc9c6U, 0x3eb7d05cbe47be6eU,
  0xbf00d4abbeb68472U, 0xbe346c31beb59050U, 0xbe0affe5bd752643U, 0xbe75b1c7be94a1b0U,
  0xbe1be608be99cb10U, 0x3d8a7c24bd94cef7U, 0xbeb689d7be09cd86U, 0x3e1b1da4be342aceU,
  0xbc7df165bae2ea86U, 0xbc9b0dba3c6025f0U, 0x3d8150cf3bb3b5f0U, 0xbdb7a789bcd23ff8U,
  0xbcdae7093d94b064U, 0xbd75a929bc810f5eU, 0xbd1c96a4bd1ccd90U, 0x3d5ca55abd149f92U,
  0xbd94d111bd5f692cU, 0xbd089860bba50705U, 0x3c7ce9b6bcd1dabaU, 0xbda349b7bd948f7eU,
  0x3cc8dd15bd7974bbU, 0xbc388ff23cf89a3cU, 0x3d026f833ad47515U, 0xbd8c1cb4bc18997cU,
  0xbd2ad32cbbb9b243U, 0xbd9973ad3d65a266U, 0xbd8b38b33d0d5fbeU, 0x3cb2ea2abcb06838U,
  0x3c9ee59f3cc71764U, 0xbd710e0a3d29ddf9U, 0x3c6a27bebd9e848fU, 0x3d8c7ec5bd93e565U,
  0xbdabcf873d81e090U, 0xbcaba71fbbc99d06U, 0xbd6b73a6bd17ae8eU, 0x3d3026b1bd1e9fecU,
  0xbbc7881abd80116aU, 0x3cb449803c584f20U, 0xbd7cd368bd91dc9cU, 0x3aeb25c0bd9f3a53U,
  0xbdafb07bbd3e8ad7U, 0xbc1084083c8a4b56U, 0xbd74383dbda03ce5U, 0x3d145173bcc98d5fU,
  0xbcf302ef3d0beb7aU, 0xbd265231bd99774cU, 0xbd13593cbd169fc0U, 0xbd7f18d2bd9c9afdU,
  0xbd021a193c13820bU, 0xbd57776cbce3b26bU, 0x3aba5e59bd11c860U, 0xbd6408c0bcf1d508U,
  0xbdbc8cf2bde0560cU, 0xbd9d7f1abd66cd16U, 0xbd6708e7bc429052U, 0x3d5c8cb9bd8628b1U,
  0x3c831b50bce09f23U, 0xbda684dbbae7d5f8U, 0xbd074184bd8bfd97U, 0x3c870084bda7321cU,
  0x3c372470ba42e32cU, 0xbdb67d5dbcabc50dU, 0xbb38c01cbd908f8fU, 0x3d68ee76bcd70b78U,
  0xbd0faae9bdb2daceU, 0xbd8cd3a9bd8abb8dU, 0xbc64c016b953839eU, 0xbd97c21d3d435b73U,
  0x3d88b4d0bcb28c04U, 0xbd80b049bd4bf19fU, 0x3cdd0a3bbd29ffa9U, 0xbd68c8dc3d28e570U,
  0xbc98c7c6bd2f07bcU, 0x38edc8b03cd61031U, 0xbd867b523d15bb76U, 0xbd4d9f6a3c26e73bU,
  0xbd867c1ebb884e4aU, 0x3cd4de7dbd2f0657U, 0xbd07a17ebd3171bfU, 0xbd95567dbc97cd7eU,
  0xbbe1ff5b3c823922U, 0xbdbbbda1bd16b8c4U, 0xbdbb74fa3cb0c0aeU, 0xbb5d88233cc97bfaU,
  0x3cf604c8bcc01d66U, 0xbd44ea293c3925beU, 0xbda6aba9bda6c40aU, 0x3d694ae6bdb7caa1U,
  0x3e297b703d7c8472U, 0x3f17a594be4ee18cU, 0x3c6e220bbe5a4e6dU, 0x3e8a16a6baeaa3a6U,
  0x3bbb39013d0efa88U, 0xbf17f9023dd159cbU, 0x3e6ffd4cbf4ee2c2U, 0xbe23f0203e83a291U,
  0xbf0a90093e278077U, 0x3ce0981f3cde8d81U, 0xbd24cc57bf106ce3U, 0x3e61f513bdcb1b7dU,
  0x3ec2f3393e4c3c3fU, 0x3e9b95a5bc513ec5U, 0x3d2393b03cc71634U, 0xbe53265fbf2f222fU,
  0x3cc416873c9fe282U, 0xbed2a96dbe49a77fU, 0xbcc9db39be79d3cfU, 0x3e0a3c23beb34c2cU,
  0x3d95d939bec57354U, 0xbea06087bf5657dcU, 0x3e1a32d5bd99e96dU, 0xbe0c87c0bdd50c42U,
  0xbed87fb0be0fd9fdU, 0xbdcbee4c3d885e0bU, 0xbda9626abecc3cb4U, 0x3d91ac49be280535U,
  0xbe114e233cf07bdfU, 0x3e8d0a123de1a466U, 0xbd82b2623dd65be7U, 0xbe4f08f7bf0c3b9cU,
  0x3e1a6f13bd3737f1U, 0x3deefd2abe58c88fU, 0xbe43a643bd7de4baU, 0x3c2bf0debe7a94c3U,
  0x3db7204e3cf07e01U, 0xbe97fc0fbd3f46beU, 0x3e9d0e653cc6e544U, 0xbd992bbebdc197e9U,
  0xbe7b46dcbe37b461U, 0x3d53c6c4be0eecebU, 0xbda6d206be1f8889U, 0x3dfc0f13be3203f3U,
  0x3bf8dd2abd0eabfbU, 0x3e3422d3bd600fafU, 0xbdb2d6413e0ee580U, 0xbe5ed89d3dccb857U,
  0x3e31183bbe80fe80U, 0xbd93aab0be0ccc41U, 0xbe1981b23cc9bb94U, 0xbe02fe89be58bc75U,
  0xbf0ca80bbddc7af9U, 0xbe5d6642bcc5d0b8U, 0xbce787acbd9fd076U, 0x3dddf852bdabe9bfU,
  0xbf2cb9f8be643ad8U, 0xbda1c699bee29049U, 0xbe5f9f2fbdfa8df5U, 0x3d1a2e39bd6d836eU,
  0x3e3cd98abde0f948U, 0x3dfe62b1be71a143U, 0xbea093753d36e6f3U, 0xbce60d44bdea62beU,
  0x3e5c9d9ebf1417d2U, 0xbe5595a1be09f27aU, 0xbe9671ae3e2a4d30U, 0xbeacfa59bdadebd2U,
  0xbf22a8fabea7c1ccU, 0xbd28ad54bdf4be5aU, 0x3da1b6cdbe3ac9e6U, 0x3eee00c33dada1baU,
  0xbee18caf3e40eb16U, 0x3ca97982bf17398cU, 0xbb9d882bbe9e9899U, 0x3d5f0f683dc97b28U,
  0x3eaca64cbf0f59d2U, 0x3e484c77be9f4cc4U, 0xbf12e9b33dcf733bU, 0x3e2e79ebbc786401U,
  0xbe5d891bbdebb33fU, 0x3ed893f13e833bf6U, 0x3e108d1cbdd20ab8U, 0xbe6e2b683ea5ebbfU,
  0x3e3815183e0fb7a0U, 0x3e2c2c47bdacdcc1U, 0xbe8f9d6a3ecb6a7eU, 0xbea70ed83d500315U,
  0x3cb93f7f3c853f3aU, 0xbe710a8a3c015fa2U, 0x3eb8b423bddeeae2U, 0xbe94f664bdf967d6U,
  0xbd4a924fbe7e050bU, 0x3ccc35ad3ebffb43U, 0x3d80ce79be115e18U, 0x3eceeea0be827bd0U,
  0xbf094a62bdf9a903U, 0x3ef16a18be90e6b2U, 0xbf80ba8bbe188faaU, 0xbe50dd523e596488U,
  0x3e3064f83e95b5beU, 0x3b0903b4be70440aU, 0xbe6415963ea892f6U, 0xbed1089f3d8376d0U,
  0xbcc26ad5be231cb4U, 0xbe8b863d3d23f008U, 0x3e495a86bdc4a44fU, 0xbf75629bbe784a4bU,
  0x3e0189e4bdd1aed5U, 0x3ceb07dc3e4c27fcU, 0x3d621715be1c1553U, 0x3cfde8d0be4c5eccU,
  0xbf35550a3cbc556bU, 0x3ec8eb8dbe397dc1U, 0xbe85e156be8c476dU, 0x3de584a0be5247a5U,
  0x3dc0dbf93d7fce77U, 0x3d19d0e23ca57afeU, 0xbe8b08bc3c43485aU, 0xbed55939be9ba00bU,
  0x3d6f6368bd0d4dfdU, 0xbe7f8e533d7328faU, 0xbe96a0c63c0d1c9bU, 0xbe1270d7be38c237U,
  0x3d922b863dd80614U, 0xbedf43f8be60e1c8U, 0x3b238a833d554954U, 0xbf587129bdde21b7U,
  0xbea85d843d5b26fcU, 0xbe3ceb07bd7db661U, 0xbcdd322bbe9d4580U, 0x3e5761dd3e041a23U,
  0x3debf4babebd5357U, 0xbcfcf1633caf5ee4U, 0x3ded9dacbe5352eaU, 0xbf0a3a78bd75a84fU,
  0x3ca269f0bec2f94eU, 0x3d62d2ff3d1ac490U, 0x3dbca551be0c76f3U, 0x3f1173fb3cb73838U,
  0xbe634f263e4e9123U, 0x3ab2c6583dc9ccd4U, 0x3db02c573d96af5dU, 0xbda5f56cbe148e4dU,
  0xbd923325bdbe8909U, 0xbe4b2f4fbc2689e0U, 0x3d6762d8bea3758eU, 0x3e78468c3eccb767U,
  0x3d663e5ebeee66adU, 0xbd626e8a3d6b944aU, 0x3deec981bc3b76a1U, 0xbf0fad313e58f93cU,
  0x3c91e60ebf01a7f0U, 0x3d0b67093c892e91U, 0x3f092e5a3d108e5fU, 0x3f1d273fbe1593a8U,
  0xbe414f023da7e52cU, 0x3e934d963ea759adU, 0xbd7cff213db007bbU, 0x3e90dbc3be0194c8U,
  0x3e6c324fbf29f764U, 0x3e700c84bee25e48U, 0xbf68b297bdfd6839U, 0xbf2651f73e182f99U,
  0xbe8a77d2bdd5c23fU, 0x3d8368dabd6f97b6U, 0xbd68b8f73ee30382U, 0xbf1fdeecbdbcd06fU,
  0xbb65527cbe2dbde1U, 0xbe3851dfbe801fd0U, 0x3ee2c75f3da75391U, 0xbe524479be2c2046U,
  0xbe1c1628bf3f5d4cU, 0x3e2b09213e935b4aU, 0xbe908399bde8fc60U, 0xbe1659bd3e8f8630U,
  0x3e2118d9bef8a2e3U, 0x3e61ad883d33665fU, 0xbd9b2c68bd5ab7ddU, 0xbefe5c3bbdc9614fU,
  0x3d89e3acbc425854U, 0x3e518a66bdf98526U, 0x3da0b2f23edc9e34U, 0xbf0034b73d94b550U,
  0x3e5569f5bdc36368U, 0xbdce010c3d1ae796U, 0x3ed9174b3d85b1eaU, 0xbdcfcf48be1bf7a3U,
  0x3e035bfdbef47263U, 0x3dc25a7e3e8a6a0fU, 0xbdaddbb4be560842U, 0x3d3dff803e0d8d1eU,
  0xbd785ae9be12181eU, 0x3ed15ca7bf366de7U, 0xbf51ea85bbd2e1f5U, 0xbe664f03beec3cafU,
  0x3d32790d3ec0db91U, 0x3ecc71f73cdb43b8U, 0x3c8edfc33e879e75U, 0xbe939b0f3e195388U,
  0x3e82ffb33eab529eU, 0xbe0b6e1f3dee240dU, 0x3e02860d3e27c384U, 0xbf09486fbe80777aU,
  0x3bd33bcfbd453394U, 0xbe60e16c3e71e5e3U, 0x3b2e05763d22a448U, 0xbf246bc63e5934fdU,
  0xbeb098ba3de1583aU, 0x3e840557bdef4f36U, 0xbdaae4873cbb4138U, 0x3dca0d5dbd5c6684U,
  0x3e6d402b3e5f8025U, 0x3eb3ea593e3ab7dcU, 0xbc1ff41b3d64ef9aU, 0x3e4a8dcdbebf0c59U,
  0x3e2e33183d93b1eeU, 0xbd4c69f73e8bef7eU, 0xbe81b8873dd4b631U, 0xbf18bc37bcae16aaU,
  0xbdcba9253e392234U, 0xbb911a7f3d46e034U, 0x3e79fc9abdf2bef8U, 0xbe4a5b8a3dbf7f16U,
  0xbf10e0b83eb25aa2U, 0xbd5f06543e59a198U, 0x3e995f94bde75506U, 0x3ec7a817be9ca077U,
  0xbdb2b493bee70033U, 0x3cb6d45ebebdef9aU, 0x3ea3efd5be621688U, 0x3e14aaedbec93ba8U,
  0xbe6de889bf17cb4dU, 0x3d7f52b13e63ce8fU, 0xbf163eb6bd0596ebU, 0xbd99b14d3c915839U,
  0xbe9ffcbe3e91a931U, 0x3d72bb61beacd9b8U, 0x3dfa6d063e534845U, 0x3ed6ebf4be1a8430U,
  0xbdcb5c67bf24669eU, 0x3da27e8cbe594e1cU, 0xbeb1f62ebe2a7811U, 0xbe558d2fbe7b6cabU,
  0xbf82e982bdb7eb2dU, 0xbf21c3f5bcdea809U, 0x3bbcfecb3d42c5b8U, 0xbef0bf7a3ca2d75cU,
  0xbf08e5613df81043U, 0x3c99eca6bf5c9f06U, 0x3d1f45f2bdc3e980U, 0xbe111d65bf1dae64U,
  0x3b48d517bf4f4203U, 0x3e11baeb3cc6a829U, 0xbf657927bdffaf2eU, 0xbecfc217be3137eaU,
  0xbd9a1affbf1f180aU, 0x3e361adfbf074718U, 0xbf3e36383d4960f4U, 0xbf09181cbe4d296eU,
  0xbfeb0fcc3d8460ddU, 0xbf0ffa65bd54e3a8U, 0x3e4b79263d5d3878U, 0xbe828e20be4854b8U,
  0xbea01dd63d8aec00U, 0xbdd7503cbf086c65U, 0x3cc2c54dbddcb27bU, 0xbd6c76f93cd4f7e4U,
  0x3ca7a2acbf25f92dU, 0x3e8b78a93d044bd6U, 0xbf18ed79bd2e8046U, 0xbf0ebef4bd8d8fdaU,
  0xbd3dd015bf060dd3U, 0x3e4575da3d915b75U, 0x3d8830753e96db8bU, 0xbe99b38e3bd4d50cU,
  0xba715fd73e46a395U, 0xbece3ba1bbc68ba9U, 0x3e4a8f4c3e0f43b5U, 0x3f1cead13edbafceU,
  0xbec47fc13f06f56cU, 0xbe1c64613ef75aa8U, 0x3e02257c3daeb7b8U, 0x3dd601733f16882dU,
  0x3ef5f918bec8bd9eU, 0x3e6db77f3e77b387U, 0x3eaf8174bd5d68bcU, 0xbeb4bee8bdd80945U,
  0x3df87bf6bbef62f9U, 0x3e2f9fb4bcef1633U, 0xbe0ca804bf2edc50U, 0xbf112b3a3e21e329U,
  0xbf3a25213d0abeb3U, 0xbe9594233dea3a37U, 0x3bfc7e5d3e1f7166U, 0x3f247b43bd7a8685U,
  0x3e32eeaebe7b3e4eU, 0xbd8c2b89bf299e80U, 0x3d93e1b63df9e827U, 0xbd02c2723e0b87aaU,
  0x3d4e2a39bee2ac4bU, 0x3e1af18a3e7160a7U, 0xbe6b5eac3e0079bbU, 0xbdbb725cbd307eacU,
  0x3e1975133edae75eU, 0x3eb6e9223f1739aeU, 0x3f14e409be9f7d90U, 0xbed4c30a3e4cf750U,
  0xbd32371d3df8e9d5U, 0xbe10ea4e3e77f52dU, 0xbdcc7a3e3ebad931U, 0xbb676e7e3e08c667U,
  0x3ec97eec3e100d91U, 0x3d01168b3e3f6376U, 0x3e8450593d15761dU, 0x3e8192e2be8884cdU,
  0x3da52642be33cdfeU, 0x3d11b71c3eb5bb0aU, 0xbe942152be10b4baU, 0x3f388fde3d664b2bU,
  0xbc7a4034bd8d91b7U, 0xbd432f093d0e3ad5U, 0x3d100584ba13a400U, 0xbd4418f4bcbb424dU,
  0x3d8c7a15bd1eb80bU, 0x3c0d1ccebcf849edU, 0xbdbcab0abc5348ceU, 0x3c824383bdd44861U,
  0x3c700be83d9524b1U, 0xbc983178bcbc2db4U, 0xbd14ecd73d360351U, 0xbd6eaac7bd8f7609U,
  0x3cc3384cbdb917f5U, 0xbb44cca5bdc78c06U, 0xbc4c79a0bcd59f5cU, 0xbd917f0abda1d4d5U,
  0xbd081c953d06e7aeU, 0x3ba17b97bd40ee44U, 0x3b1f610cbd2afd6aU, 0xbdbe7aaebd8bdaadU,
  0x3d357856bda03c90U, 0xbda53a99bcb579a6U, 0x3d301afc3ace05dfU, 0x3caf2724bdbd466dU,
  0x3d89fbed3c9949afU, 0xbc627766bd6cbc4dU, 0xbc5cd0b5bd9ed138U, 0x3d15f83e3d678952U,
  0x3d9f2cafbd763e95U, 0xbc85348bbdb5e9d0U, 0xbd3c67d93b9bc460U, 0x3ca037483cce1e3dU,
  0x3cdcdd02bcb6134cU, 0xbdd61ba73cb5c67eU, 0xbd33f0a63c3a0bd0U, 0xbd4764eebd79eb54U,
  0xbd197c963ba11a31U, 0xbd13980abbd674a2U, 0xbdab66293ca4e8ceU, 0x3cb28cf0bdb01d16U,
  0x3d5c28cebbeaa4ecU, 0xbc8d98bc3b7374e0U, 0xbcc750663d8bb752U, 0xbd9c02de3bbc7ce0U,
  0xbc95a56abd78e414U, 0xbd7fe395bd9c2a74U, 0xbd64a2e4bd4443ebU, 0x3c9ca0b4bdc9779eU,
  0xbc850ad33da1d0f3U, 0x3caf02da3c1fa960U, 0xbb4ebe40bd98c1ccU, 0xbbd195d0bcb483e3U,
  0x3cb76065ba99c5c3U, 0xbde14e9b3d043f7eU, 0xbd8fa5fdbdaf02c6U, 0xbc610de8bc0f48ebU,
  0x3d12a7b8bd327d5eU, 0xbc3b6a40bcbf0432U, 0x3c860a48bda57d7cU, 0xbd9474e0bd4f3ed1U,
  0x3bcc98f13d71e03aU, 0xbdad7ef4bdd05368U, 0x3c4eae483d121d5cU, 0xbda11e453c4a04e6U,
  0x3d6cb8debcbfc5e2U, 0x3d6dd7923ccd4674U, 0x3a25ef80bd94d1ffU, 0xbd943bfdbc1e99b8U,
  0xbd7bd4fdbd219c1cU, 0xbd2aba2f3d86a8a1U, 0xbd581b51bd10781dU, 0x3da05153bd68870dU,
  0xbcbf85a6bc92b37cU, 0xbd8eb40bbd117e8dU, 0xbd7eca8d3d4752caU, 0xbd812eb93d85fecdU,
  0xbd886a813d9745a1U, 0x3ae592803d299a82U, 0xbcf3092abd65d021U, 0xbd46aa84bd9957b7U,
  0xbd4ab2bc3ddca0d7U, 0xbe834e173c19811bU, 0x3cc7ca893d7841b1U, 0x3eb480ccbf17fdc3U,
  0x3d3b89f9bf2a207fU, 0x3d32f685beeb3c99U, 0xbd8178bcbf1bf6f8U, 0x3e7da5bfbbdfabb1U,
  0xbea2ccf13e1a3441U, 0x3db4c57f3e9e7da1U, 0xbf4ea1e1be4b7e4bU, 0xbe6442ebbd95ac3fU,
  0xbe0822783e3c9d88U, 0xbe48c21d3e556a05U, 0x3e60d2a9bd7f4e40U, 0xbd04b953be742f93U,
  0xbd40d1513c886a31U, 0xbf8821c2bd483acbU, 0xbce158a93d4c911aU, 0x3e8df19bbf2d9300U,
  0xbec76171bf37f259U, 0xbd95b867bf80db62U, 0xbdc2a355bfa3ea88U, 0x3d831dfbbe97d940U,
  0xbedeed3dbe1836bbU, 0x3c7fdda13e68f785U, 0xbf79ae3cbe7a70bcU, 0xbe1d8cbdbe081539U,
  0xbdb14b11baa499a4U, 0xbdeeda97bfb016fdU, 0x3e45a7be3d5c12c2U, 0xbdd50276bed75a9dU,
  0xbdeba8acbe034bb5U, 0xbfaf87dbbe5f9927U, 0xbe6d2bcbbe5fa593U, 0x3e3dae5cbe468c81U,
  0xbf07e232bfb226c0U, 0x3d0e357bbee875caU, 0x3e31a826c0043efdU, 0xbd3eeb9ebea6626fU,
  0xbe6c866ebf157be5U, 0x3e1b28bc3e102e2fU, 0xbfb11f12be2a6203U, 0xbd27dddfbe1a8259U,
  0xbe6e38f7be17b6e0U, 0xbd9a8ad7bff5e0feU, 0x3d8921a4bd7b681cU, 0xbf24f09dbed1cc7dU,
  0xbdd88b13bd3fb535U, 0xc006b264be9208acU, 0xbe2029fcbf3a2358U, 0x3e2475c1bf374522U,
  0xbebaf129bffb55d8U, 0x3db9e1ecbfbf0c4eU, 0xbe22ad63c0041096U, 0xbeb00578bdf40931U,
  0xbdbeef3ebf5b3be1U, 0x3e19c34a3dba580cU, 0xbf403ab0bd9c15bbU, 0x3cddaa4abe80819aU,
  0xbe9aef1abe1c07bbU, 0x3e453923bf981970U, 0x3c14a888be5952c1U, 0xbf0cd08fbf4fbd71U,
  0x3dc1251bbe131448U, 0xbf8d8616be3ed92aU, 0xbe411b3ebf8195aeU, 0x3e83cb8abed15188U,
  0xbeb1015bbf8ed794U, 0x3d74888cc0054f7eU, 0x3e42a9a1bf88b75fU, 0xbf36bce23e8dc7e5U,
  0xbd52219abf001a2eU, 0x3d4366e4be2d7883U, 0xbe853e40bddaecfbU, 0x3e3809b7bf039bf8U,
  0xbedee5b6be24f1d7U, 0xbd86e0a5bf0a7941U, 0xbe2b57523dfd27faU, 0xbebd7058bf66505cU,
  0x3bb35218bf02e16aU, 0x3e945bfabed3be02U, 0xbe74e9e9bde36003U, 0xbf3049a93db7e44eU,
  0xbf8a4523bc185de5U, 0xbead705f3ddd1e32U, 0x3e2258ec3e886f66U, 0xbe6b51b0bd87eb32U,
  0xbdd5fe7cbd39e2edU, 0xbde17861bf928fd1U, 0x3e1ec2f23e20d813U, 0xbc92f64d3f0c2530U,
  0x3e51764ebc5927cfU, 0xbcd6805d3deacb0dU, 0xbf9597973d9c3565U, 0xbedf31aa3e42a90eU,
  0x3d9cdce2bf85897eU, 0x3e7bfe28be9e9bb3U, 0xbe603514c0674b4dU, 0xbf44d3a13e4cf359U,
  0xbf4cbe24bddb3d81U, 0xbec165d83db138d1U, 0x3e8e89e43e8297e1U, 0x3e6e8ef2bdaff8b5U,
  0xbe87180cbda83148U, 0x3d9dc372bf6dc3adU, 0x3cc75e7bbe230fcfU, 0xbc74d200bdc2cf5bU,
  0x3e97bff0bebff44bU, 0xbe0ccabf3ca05c84U, 0xbf89c3013e68bb68U, 0xbeddea8f3e064bc1U,
  0xbb548012bee2fec6U, 0x3e5051d2be944f1dU, 0xbee0acd9bea22c06U, 0xbf6325683eb134bdU,
  0xbc6cb9cf3a844e53U, 0xbd626d9a3e8b6cddU, 0xbe7b64e93e287092U, 0xbd414fb2be2dee98U,
  0x3cc1ed443b597249U, 0x3e790d08be92a343U, 0x3ac9cf7bb983270fU, 0x3d9fbe0dbdc137d0U,
  0xbca3e86dbf3afd1eU, 0xbe0a40f73e1985feU, 0xbec5d3b43d38d2bdU, 0xbe7f242d3db8060aU,
  0x3d7b3556be320f71U, 0x3e34e56f3f08850cU, 0x3e08ea893adf7778U, 0xbfb677773eb35c09U,
  0x3e8833153dea5638U, 0x3dbfa3f03eb2f252U, 0x3d88ca873e58442cU, 0xbf2285bebcc5331dU,
  0x3e8030c73e60ccf1U, 0x3d4007bb3cf1ddfcU, 0x3c8f88843e18cec3U, 0xbd59672b3a1e7c62U,
  0x3c5eb88cbe884b76U, 0xbe1f10f53da3eb7fU, 0x3d6469833d905989U, 0x3eef0cf53ea6e338U,
  0xbe05e6d13e4d39bbU, 0x3e23cca63e46793fU, 0xbe500d303dd9ca61U, 0xbf5272c73e9adfafU,
  0x3ef8aa13bd380eb0U, 0x3e1155093e985e6eU, 0xbda73d0c3d84c5d5U, 0xbf02fd273da767acU,
  0x3ececd873d57eea0U, 0x3e6fb1993e5518daU, 0xbdaceb2b3e0211d6U, 0xbddaadae3e3d3567U,
  0x393e8aebbdbf90c7U, 0xbe2c54723cebe474U, 0x3ea0bddcbe26f3d5U, 0x3ec9cb423e6ce8dcU,
  0x3d76c0ef3d5443bdU, 0x3e6f1c993e72474eU, 0x3e7c60da3ea16226U, 0xbcee9fa03e0eeaa0U,
  0xbe1105ce3dd13a35U, 0xbeca5df8bd5cc6a5U, 0x3d6a54d33e70f6c5U, 0x3edc2467bd3e81d9U,
  0xbe4589abbeab824fU, 0x3a9762ea3d4bb3bcU, 0x3e6a27d7be661782U, 0x3e4917243d92666bU,
  0xbf1b7bc73e14e99fU, 0x3e4e649a3e15f76eU, 0x3c53cc163d57db0bU, 0x3e148033bddd3b7eU,
  0xbe126a82be94d4d2U, 0x3e59f3bb3e096d4bU, 0x3da6379c3dabc523U, 0xbe5fcf703eabaeafU,
  0xbde9a04f3d93302fU, 0xbde93ff03e9ebbe0U, 0x3c58a33f3e0d3ecbU, 0xbe268b643b8772e9U,
  0xbd69b4cf3de40cc9U, 0xbe71f937bd588bc6U, 0x3e13db113cab820cU, 0x3d4ed951be427e7eU,
  0xbe350248bd57f574U, 0x3e3b80c63d534162U, 0xbe1443a43d84ae50U, 0x3e375d2a3e36dd0dU,
  0xbde3952ebe80b461U, 0x3df4ae40bd68e46fU, 0xbe4136ad3db298f6U, 0xbebe50843c760baeU,
  0x3e48d5c73db8cb91U, 0x3e0fa00b3e8dc629U, 0x3de93d1d3daa67edU, 0xbecf939a3d3b21a4U,
  0x3e664ee03e05a0b1U, 0xbeb1ce283b98bcdaU, 0xbaa14d863e5dc438U, 0xbec3c3adbe9192a1U,
  0x3e3f17dabe5740ddU, 0x3e49e65a3dc25997U, 0x3d65279abcf90278U, 0x3e1830503e6e218aU,
  0xbdb6ee543e25a82eU, 0xbd14f322bf439432U, 0xbeef837b3dd277aeU, 0xbca1c8b83dc6c887U,
  0x3e5fe63ebdedf097U, 0x3de5d7c73e95ec1dU, 0xba83a64ebda4e020U, 0xba8469e6be714cc8U,
  0x3c80f985bb8ff860U, 0xbdffc2403dfbebe3U, 0x3d8bf64b3d6b2b73U, 0xbf63e7d73d8627d8U,
  0xbc3c42573e2ff741U, 0xbe8286793e0552cdU, 0x3de803613db94de9U, 0xbf5c48403debf06dU,
  0xbeba7b283e3b560bU, 0xbd4001f63e981e7eU, 0x3ebd0875be08312cU, 0x3eb95aeb3e1ebdeeU,
  0xbdf33f22be94f942U, 0xbe96ef58bdd0677eU, 0x3e9a1c10bdbb26ffU, 0x3ea8ff0cbe6b6681U,
  0xbe95029dbed111e5U, 0x3d85475fbca438f2U, 0xbe5e3c26be886694U, 0x3e477bf63e392f18U,
  0xbe8d34463e962cf0U, 0xbe6c81a8bdf97b69U, 0xbb956b743f037fa8U, 0x3ede66c9bd4e9628U,
  0xbe3a0065bdef918fU, 0xbee84c24beaa073aU, 0xbf0c97263dc0af27U, 0xbdc1a68a3cf52a4fU,
  0xbe8c4e79beb1f00eU, 0xbe0f8bc9be6d63c3U, 0x3dda9cbbbee47758U, 0xbe8ab250be3f2a0bU,
  0xbece258a3e7b747bU, 0xbdb08b5fbf1078adU, 0xbea33ca5be012057U, 0xbe82f225bdffd4a1U,
  0x3cbf24d2bf0ac8a1U, 0x3d82fa32bed0c5dfU, 0xbefc2560bda25b45U, 0x3db33438bee9f4feU,
  0x3d7a0195bea3583fU, 0x3d26667dbb84a73dU, 0xbe173c86bedba820U, 0x3e3d6a343ecc750eU,
  0x3d92d5da3e7b1040U, 0xbf11fc0dbf3e9a91U, 0x3e81a1a7be40095cU, 0xbebc86113f10e1c9U,
  0xbf929e083f641c6aU, 0x3ea1b4b0bea14cd9U, 0x3bd23ba9bf04d879U, 0x3d1071343d9594bdU,
  0x3f540691be1fb84bU, 0x3e15f9e3be21428bU, 0xbf114844bd8c6ee8U, 0xbd3c036ebf151f0bU,
  0x3d5b9425bea53067U, 0xbdf06e87bf26a0f8U, 0xbf3fde9abe271a0bU, 0xbe031d103e0c31c9U,
  0xbfa988ff3de655f1U, 0xbe9352aabdb2a87dU, 0x3e550f64bd5ce989U, 0xbdd5bca23e4a5402U,
  0xbf06626d3eb2d606U, 0x3eea6c35bf1ad66fU, 0x3c85c5523d279a75U, 0xbd41b8053d5b3756U,
  0x3e560cffbed6185aU, 0x3e35b1efbe67b618U, 0xbefd5aec3c9ee91fU, 0xbe1a08d1be19f3c1U,
  0x3dcc3693be37b9b2U, 0xbe12c49fbe13e619U, 0xbe4891cdbf1293baU, 0xbdabc16fbb5e538eU,
  0xbcfc1d103d852742U, 0xbe7bc7743c95bfcfU, 0x3e15312cbd188f2bU, 0xbeb62f333e23e776U,
  0x3cd1892c3e4f0519U, 0x3dc37c15bf1fb810U, 0x3dce9c9abcf51576U, 0xbca7225abf572c9aU,
  0x3eb1022dbf24e37fU, 0x3e8fba2cbd05faafU, 0xbefd99b83e96063bU, 0xbe277bd8bd7d0413U,
  0x3dbb08473d91d87fU, 0xbd84d36f3e3b6396U, 0x3e523dfe3e3fb0b4U, 0xbde77ee43eadba5fU,
  0x3d58f22a3df5fd16U, 0xbdfc87b73d9c29c9U, 0x3bbb6244bcf9ad2fU, 0xbf03db133e713a5eU,
  0x3d74237d3e6e9231U, 0xbd221c0bbe3b2d2fU, 0x3d1c78c6bd516831U, 0x3d8f31053ea55b84U,
  0x3e7c73b5bd967324U, 0x3e7a0a993e2d329eU, 0xbe4c74643d78126aU, 0xbdc13f2e3d1b1d50U,
  0x3e0c31483d898eb2U, 0xbf196b67be506413U, 0xbe1a52723dbf4735U, 0x3ef215c0be71a370U,
  0xbef55159bf0142bcU, 0xbe9a4f98bf2d2c26U, 0xbedfe979bf619711U, 0xbf87a6453dee6f92U,
  0xbf29a745bf136a0fU, 0xbe34df5bbeb4baa0U, 0xbdf66a9dbf1d1699U, 0x3e94c5babe366d40U,
  0xbeb2903a3e1d7363U, 0xbe36b895bf0d4f68U, 0xbe1e093abeb126e7U, 0xbe8d60bcbf7bed63U,
  0x3e721b8abefac5c2U, 0xbf2c5bfabdccf980U, 0xbe4471be3e7d2680U, 0x3e731223be10e78bU,
  0xbe89885ebda23eceU, 0xbe90b804bef1be36U, 0xbd87ac06bda20d5aU, 0xbf0792af3e79b3d7U,
  0xbee04f623b677715U, 0xbe10a0dcbe9b7d39U, 0x3d8baf5ebf1f3d46U, 0x3e758876be54e898U,
  0xbde4a956becab469U, 0xbe040e3bbdcac8dfU, 0xbefa18bebe0d8715U, 0xbe01e3adbf0d0d65U,
  0x3e237122bedc781fU, 0xbe637df8be013d72U, 0xbe7d15fa3e2bb2a0U, 0xbed2cec93e0fe6c1U,
  0x3e18125c3e8359c7U, 0x3e8f1f993ec754c2U, 0x3dd1446b3d650497U, 0xbdcfa4b0bd103938U,
  0x3e60bb7a3e021d04U, 0xbe3b007dbdbfb5a4U, 0x3e0c2f133e3cf959U, 0x3d9578ba3e846423U,
  0x3c121461bef18f34U, 0x3eb4cdfdbd06a22dU, 0xbdf740a7bdff7236U, 0x3dff2ca83ec2d78fU,
  0xbb7c0009bcca65adU, 0xbe5f5fcc3eba5026U, 0x3e43f78a3d7d740bU, 0xbf2ff4a73f051a94U,
  0x3eae2a553cc39760U, 0x3e25c3ee3ed3c542U, 0x3e9cd4393e1fae55U, 0x3e531fa1bd983b5dU,
  0x3ea5c569be21889dU, 0xbb78b24e3d6cb9a3U, 0x3d0fa1d43eb74206U, 0xbe1766953ef7b837U,
  0x3c2026d8be4d550fU, 0x3e628ad9bc6f4f28U, 0x3df16b53be1bd405U, 0x3f0529ae3ee5de1dU,
  0x3de1f2dd3e5ed09eU, 0x3bb0ddc13e814f5bU, 0x3e18e3ae3ddb7205U, 0x3e286404be5ce93aU,
  0x3e93b9b7beb52dcaU, 0x3d863f8fbeb2475aU, 0xbd911c893e0e2040U, 0x3f4a2b303e284a5aU,
  0xbd86d339be956f69U, 0x3df9e63c3c9010c0U, 0x3e28e51cbdda6446U, 0x3d8f2e713dcf6f5aU,
  0x3e4b6b2d3e72c4feU, 0x3e27938d3ecc4721U, 0x3e39dffdbe658421U, 0x3ed1af20be5b3c52U,
  0xbe80a69abdf7fefbU, 0x3e7ffdb83ebb1f8bU, 0x3db3e9afbdbf3b6cU, 0xbea517ed3e5e677aU,
  0x3de09c913e5a276dU, 0xbde5541e3e984b44U, 0x3d015ec03db84e32U, 0xbe0caa0ebda6a277U,
  0xbcaa4b4dbd5a3aa5U, 0xbe3087e6be484fe8U, 0x3d05198d3d425999U, 0x3d8b34f43b2c8831U,
  0xbe8d5394be260dfcU, 0x3e77f2ebbad09a80U, 0xbea08d093b8c44a3U, 0x3e0b02ad3e2af283U,
  0xbe7366c4be309eafU, 0x3dd4c8e43da5da01U, 0x3d5329edbe37047cU, 0xbe5010b33e4c470dU,
  0xbe10711d3df0a521U, 0xbe7cb5f43e054dabU, 0x3df4519abd3a7e04U, 0x3dbfa2c3bd6e2b7aU,
  0xbe0c1f81be804776U, 0xbe1ca3bebe8f6ed0U, 0xbd3c4090bd82be78U, 0xbe9a3719bd257cbcU,
  0xbe6c00ccbd7bb5f2U, 0x3d34d8c8bd9c514fU, 0xbbfefd66bdc8dd3aU, 0x3da45ef03dfcc656U,
  0xbe8e30abbce2b73cU, 0xbcd31c273db7df08U, 0x3e8403eebdf19fc8U, 0xbdb01e543d1361f6U,
  0xbe3a7e72bd805262U, 0xbec70c963bb5889fU, 0xbe4753e3be0c8a52U, 0x3cbae1c0be384b5bU,
  0xbea32ea8bd93048fU, 0xbe2e569dbe9ca498U, 0xbe803a6fbe7d24f6U, 0xbe3b01a7be6e26eeU,
  0xbd87fec63e799d54U, 0xbe0a95a0bdc38036U, 0xbe084fcabe07b5e3U, 0x3cf1c6f7bdb37542U,
  0xbecf0091beebc310U, 0xbdf6d80a3efd2928U, 0x3ef1ace0bc3cccd1U, 0xbcc16b47be808478U,
  0xbe37eca4bd1a4d25U, 0xbe81147f3e83b4a2U, 0x3e1b29b3bec738e3U, 0xbe6990bdbe5a4684U,
  0xbe19fdf63e0710f9U, 0xbe84958cbe4d1a85U, 0xbec2a14dbe265993U, 0xbeb56e29be926f07U,
  0x3deddab93e689411U, 0xbe1e2ca53cbfbb66U, 0xbe455b183d49b8d5U, 0x3da359493d15ea08U,
  0xbf0e3059be935cd6U, 0xbe6a0f99be8bf278U, 0xbe92f4d7baa5bce8U, 0xbeb0e142beb67c04U,
  0x3de2c9a7be2be16fU, 0xbd0ff1223ed8108eU, 0x3ddd0953bea494e7U, 0xbeb8983ebef28911U,
  0x3e54c0653e4b62abU, 0xbea84d74bd3bfa7aU, 0xbeff7a4d3d206b0eU, 0xbf088ac2be621d69U,
  0x3e5a33b4be980641U, 0xbeae2c61bebf9750U, 0xbe103e013e061ae2U, 0xbe9e6d5d3e164fabU,
  0x3d931f13bf3035f7U, 0xbdc7fc9dbdd23f97U, 0xbe679027bf0a607bU, 0xbea70a09be1295caU,
  0xbf715056bd334827U, 0xbdb6f8e4bda931c9U, 0xbe7e92e1be224d96U, 0xbf62aafd3d634a84U,
  0xbe76b0293da0b175U, 0xbe90f491bf8d6d29U, 0xbe42343d3d7267f0U, 0xbe39c1afbf0a60daU,
  0xbe8e364dbf540081U, 0xbdc54ef8beeeb303U, 0xbf8eb2febedc8615U, 0x3d6b4b54bca7aa35U,
  0x3dd07308bf464764U, 0xbea2ae42bf8bb737U, 0xbfb220c9be63681fU, 0xbe9add7ebf007210U,
  0xbee4cc9ebbe8da5dU, 0xbe18853b3d83c1c2U, 0xbe65e6bbbee8c8dfU, 0xbf3264903dbe469aU,
  0xbd858bb83dccd71dU, 0xbeb52645bf546868U, 0xbe9e0147bdfec49aU, 0xbebdbbb4befe1ab6U,
  0xbe21b954bf8d1090U, 0xbd51567ebf673ca3U, 0xbf7dc3423cc5b31dU, 0xbe8a70283e249243U,
  0xbc52452bbe8af122U, 0xbf03511b3d646585U, 0xbe2eb8fcbee6f001U, 0xbca3ac16befec6baU,
  0x3d9b0b143ef6339aU, 0x3dedafac3eb9f9f8U, 0x3d0dea47bf1c8391U, 0xbedeb72f3e504f76U,
  0x3e1f54bc3eb25b9eU, 0xbd760921be7c9f5aU, 0xbea6a2173d988d49U, 0xbdd7ac27beb4b000U,
  0x3e95ba813db86bf2U, 0xbe19b117bf5f4e66U, 0xbedf7327bce14476U, 0xbea133833e902c9cU,
  0x3d7967043e0d84beU, 0xbf5007673e7f138aU, 0x3ea7918ebe648207U, 0x3d5be762bb594d76U,
  0x3e95f88c3d93da57U, 0x3ea072c13ed2ea37U, 0x3e70299dbf3fbb65U, 0xbddcccd7bddb7302U,
  0x3e3fa14bbd79570dU, 0x3d68962abdc07880U, 0xbc82a8ef3e586648U, 0x3e4f0597bc80386cU,
  0xbdbd1fc13dd406d4U, 0x3e858077bed09f03U, 0xbe09c9883d9ab749U, 0x3e4b5e323ea551aeU,
  0x3e6f42903e0adf14U, 0xbf70cb983f546d01U, 0x3f73fe90bdf478e3U, 0x3e8b3f133e5ce02dU,
  0x3e1c57d6be8d84dbU, 0x3e054304be613167U, 0x3e2b4e2bbeb571d6U, 0x3decf9e53e02f7e6U,
  0x3d69157cbf09c816U, 0x3df2e381bddc6457U, 0x3e2e81fd3afad12aU, 0x3ecfd90ebc5d1258U,
  0x3de83bcd3e55eb0cU, 0x3db09dc3be2b753dU, 0xbc4f27e6be7ada81U, 0x3f3fd110bda98ec9U,
  0xbe2216a4bca966ecU, 0xbf692caf3dc3a5f3U, 0x3da57d35be831ba9U, 0x3d07cddb3d8636faU,
  0xbe9e71fdbf07837cU, 0xbeea4a5abe953159U, 0xbdefb75bbf377c8eU, 0xbe380f42be0cde7bU,
  0xbeed43a9be951250U, 0x3db4c7c03cba80e4U, 0xbe916570bf5ece02U, 0x3e088a843ca758e6U,
  0x3dbd417cbd2f2fd0U, 0xbebb1d5bbec56c22U, 0xbcce30303e001d61U, 0x3c008ad6bf104e06U,
  0xbcb54699bdaab035U, 0xbf22944bbd49d28aU, 0xbdba0c71be0cae57U, 0xbdb04937be50fb46U,
  0xbdabb0e4bf58a884U, 0xbd953e4cbf7a4810U, 0x3d9d9e9bbe81b370U, 0xbe9c5c45bdc8963aU,
  0xbe704603bed799a1U, 0xbe14b39bbe01a273U, 0xbd61a4b8beda521bU, 0xbdc017d7be40bb02U,
  0x3d3f9572bde855c0U, 0xbe458a71bd9bc274U, 0xbe3256a13ea9d9d0U, 0xbc380c7cbf621149U,
  0x3e391ef9bdea72deU, 0x3ccb8c1f3ba39668U, 0xbd5164e9bbd51d52U, 0x3dd57c1fbe8ad4bbU,
  0x3dbe9a5ebd8b4f8dU, 0xbeac2834bf3d8a7fU, 0x3da764163d372247U, 0xbed4fff2bcfd6370U,
  0xbe9afeb7bda7acceU, 0xbdd0dffabdfc3ae0U, 0x3e0b6bf5be8f14c2U, 0x3dcb8fddbe3912e6U,
  0x3e7f2b03be835b47U, 0x3a92dc923d2fff18U, 0xbd2155dd3e78526dU, 0xbdb8e589be9655ccU,
  0x3e42466dbd4d51a3U, 0x3d47d5843d56db81U, 0x3d3c4a70bf4b8f10U, 0x3d78199abde58439U,
  0xbf2387a8be47acecU, 0xbf1b0fc4bd8223beU, 0x3dabceac3e2ec465U, 0xbe3803ccbd7b03e0U,
  0xbebf04b6bd54964aU, 0xbe1c0d0fbeef5daeU, 0x3d7b7549bd2f0250U, 0x3e46c9583dfb85daU,
  0xbcee881dbde7c16aU, 0xbe0793acbd40e55bU, 0xbe0c29423efa03b3U, 0x3d9e89773d1a8325U,
  0x3ea6f340bedec192U, 0x3d85c0173dd755bcU, 0x3d044fcebf0640dcU, 0xbce573f13d79639cU,
  0x3f14796d3ca3e738U, 0xbd9878bf3ea7dba5U, 0xbecda0be3e07d29dU, 0x3c4fcf07be645657U,
  0x3ecc7a233e110d3fU, 0xbe794245bf0cafd1U, 0x3e9ff3113e22133aU, 0x3e740345be94853bU,
  0x3c56d31bbe96abdbU, 0xbd941c373d6fc88fU, 0xbf64a8a1bec97b55U, 0xbd3fb6713ebfe5bfU,
  0xbbc245983d76816eU, 0x3d1e908dbc839fe2U, 0x3cc2a4d73d2f4792U, 0xbdc116023c543b5aU,
  0x3d56c2b63b1905cfU, 0xbda1323c3c2bce88U, 0xbb0ef5b6b8ddc16fU, 0xbcf48ec63b2bc89fU,
  0x3c8234a43aa86cc0U, 0xbd908de1bd39276eU, 0xbc9183843c2b33f5U, 0xbb36e3bcbb8f83c0U,
  0x3d5175d2bd821dd1U, 0xbc016cdcbc06e0d0U, 0x3ca86318bcda0c96U, 0xbdb32dc5bd9573bfU,
  0xbda2ceb0bd1f6774U, 0xbdc4a161baf563eaU, 0x3cc7cb91bd959696U, 0xbc9fc4e03d0da693U,
  0x3d235bbcbcc50aa7U, 0x3ccdfec8bdb7dcc3U, 0xbd0312e7bc12a0d5U, 0xbcabbecabd228220U,
  0xbc06a4503cc879d9U, 0x3d5c0c3a3d1b1578U, 0x3d2b4397bda90757U, 0x3d07b82c3a906740U,
  0x3c0c57b83c4b0aa0U, 0xbda70d623d1e614bU, 0x3d436f2ebd20618aU, 0xbd82a4b4bda10bb8U,
  0xbdadbef2bd2a309bU, 0xbd9f9dffbdb2178cU, 0x3c8a9bd5bd801f8eU, 0xbd8bd661bd8adea9U,
  0xbd54f1f13c8a05d3U, 0xbc0998a83a13e979U, 0xbd964ec83ce0b3d4U, 0x3d03adb4bba0c22cU,
  0x3c91bc143c92b14dU, 0x3d668376bd3b83b1U, 0xbc7ef742bd219f1cU, 0x3c8d284f3cf201dcU,
  0xbd641c26bd5a6a54U, 0xbcca94423d02eb68U, 0x3d74bb3abcd7917aU, 0xbd4594f3bd94bcefU,
  0xbba33bcfbd683614U, 0x3d3c63f83d193512U, 0xbd8fba4abd83c0d9U, 0xbd27e236bc10d624U,
  0x3cab0afe3d4bb251U, 0x3d05d35b3d1ded22U, 0xbcdff5fb3c77c818U, 0xbd5ceab5bd02fe4dU,
  0xbd9edf303c9ddedaU, 0xbd9b4bc5bd8b9a42U, 0xbd714167bd5ba330U, 0xbd78367fbd8d9edbU,
  0xbcee45debc97c15aU, 0xbd94de25bd958859U, 0xbbe577e03ce582e7U, 0xbcd64ac2bd557743U,
  0xbd8e0ad83d628b6eU, 0xbda0aeccbd8b4000U, 0xbd4d4e3bbc5786a0U, 0xbd8955193c515c50U,
  0xbc8ac2c2bd9c6b57U, 0xbd348716bc848414U, 0x3bc93fc0bd169d9fU, 0x3d19cc463d61ca06U,
  0xbc492c883c61cab8U, 0x3d4d41463d0ad0e0U, 0x3d7f8e32bcb2876aU, 0xbda198633d4c0186U,
  0xbd4be7aeba304180U, 0xbd81b0da3a115780U, 0xbd25e96c3d531fd6U, 0xbda0adafbbe5f790U,
  0x3ddc9352bdb367caU, 0xbf1b0d93bdbf51e4U, 0xbe72dc80bed1b95bU, 0x3e584163bf0f2acbU,
  0xbea39401bf23acaaU, 0xbec27604bf583c01U, 0x3dec31e3bee3eedcU, 0xbf1d1f7a3bcd497aU,
  0xbf3f3811be6414c6U, 0x3e0c97aabebb5c12U, 0xbdeed0fabf3cb334U, 0x3e8353703e0be86bU,
  0xbe021e8bbd7c8afeU, 0xbde1ad42be2bf5bbU, 0xbea5da093dec7e35U, 0xbea2c4fcbf607773U,
  0x3e1c9928be4ce1caU, 0xbeb04c5bbebb7179U, 0xbeb04d51bf5ae058U, 0x3e132979be905070U,
