e7
e2
fe
06
05
0e
0a
08
04
01
11
01
d6
f3
0c
0f
0c
05
fe
f7
f3
f9
01
06
0a
12
01
dc
06
13
fe
fc
f7
f9
fa
ed
e0
ef
03
04
0d
0b
fb
f7
ee
f2
fc
04
06
02
15
15
12
03
f5
02
09
0c
04
05
0e
05
fd
fa
f1
00
00
ff
fe
fe
0a
09
f9
f5
f8
0e
b9
e7
f2
02
fa
02
03
fd
fb
01
05
09
06
06
e9
ef
fd
ff
04
fb
f6
01
09
07
0c
0c
0a
fd
fe
0e
05
fd
f5
f3
ed
e8
f4
01
05
07
fb
f3
ff
ff
f2
ec
f6
04
fe
00
08
ff
fc
fd
0c
06
fd
f8
f4
09
00
00
00
fc
fe
06
01
02
00
e4
f4
fc
03
00
16
18
0e
03
01
07
f8
d3
e6
08
fe
fd
f7
f8
f2
fc
f9
f9
fa
f5
01
00
ff
ff
f5
04
04
01
fa
f3
02
fb
f8
f4
fc
02
05
01
00
eb
07
05
05
fc
f9
fc
ff
f9
f8
f8
07
02
fe
f4
f7
02
f5
f3
fb
fe
03
09
fe
00
fc
f8
fa
fa
fa
fd
03
01
fd
f6
f1
03
01
00
04
ff
ff
fa
fb
f6
f8
08
03
01
f5
e4
fb
fb
fc
04
05
fd
fd
f3
fc
fb
ff
fc
f6
f8
fc
fc
f9
fa
f6
f9
ff
01
f9
f7
f9
02
00
f5
f7
f1
04
02
ff
fc
fe
fe
f9
f8
f5
fa
01
05
fe
fc
ec
fa
fa
fa
fe
03
02
fc
f4
f4
ef
00
fc
fb
f7
f6
02
f7
f8
fa
01
fe
f9
f3
f3
f8
03
06
fb
fc
fd
fc
00
04
01
f9
06
fd
fd
ff
05
fd
f3
e2
de
e1
0d
08
ef
e1
fe
0f
13
0e
f4
d9
04
fc
f7
fd
f5
0e
08
ee
eb
04
f9
f3
f4
fd
16
06
05
02
01
05
09
0d
0f
f6
c6
04
01
08
04
06
fc
02
09
01
ee
01
ff
08
03
00
14
10
05
ee
df
f7
f2
03
00
0f
09
0a
f6
e6
f9
12
fb
ee
ee
f0
03
01
0b
f6
ee
04
01
08
06
01
03
ff
04
05
03
07
fc
f9
fa
03
01
04
0d
05
02
12
0b
f4
e3
ee
06
fa
fc
00
02
09
05
f1
ec
0c
0a
04
01
02
04
fc
fe
03
fb
00
11
04
ea
de
e3
08
05
02
00
06
ff
f8
fb
02
0c
05
fe
03
05
01
fd
01
04
fd
ef
0b
f6
e3
e8
0c
04
04
02
fe
fa
f1
f6
fe
ff
05
ff
02
02
09
04
f4
06
f9
fe
04
08
01
fb
f8
f7
ff
02
03
06
02
fe
fd
03
ff
fa
07
03
03
fe
fa
f5
00
01
fe
fe
02
fe
f8
e2
de
fb
0e
0d
f2
fb
f3
f2
ee
f4
f4
fb
fa
f7
03
02
00
fc
f4
09
06
fb
fc
fe
fc
fc
07
04
00
fe
04
fe
00
f3
f3
fb
fb
0d
04
e9
e9
04
00
ff
f7
f1
01
fc
fb
fd
fb
f1
0b
02
fe
f2
fb
f4
ff
02
03
04
05
fa
ff
f9
fc
01
01
04
04
05
01
02
fb
f5
0a
02
03
fe
03
05
fa
02
05
04
03
04
02
06
11
ff
01
f8
07
01
05
02
fd
fa
f2
f4
0e
0f
f5
f8
07
00
01
04
08
fd
fe
fe
fd
fc
e8
f5
0a
0b
0c
00
01
13
0e
fa
eb
f2
fa
fe
0d
fa
00
08
0f
13
02
06
0e
09
f3
ff
f0
f2
01
ff
f3
f9
05
fe
fc
f2
ec
f9
01
11
02
08
06
09
0d
f6
ef
f3
01
10
fd
fa
f9
fb
04
ec
fb
fe
05
0e
fc
fc
f0
f7
fa
f1
f7
0a
06
07
e5
ed
f9
04
07
f8
fa
06
07
09
04
06
fe
fe
06
fb
00
00
fd
01
f5
f9
ff
fa
fa
f8
00
fa
fa
0a
f7
f8
02
0e
0b
fe
fa
fa
fb
01
fb
02
13
0c
fe
f8
fb
ff
f9
f9
f5
f8
01
04
02
ff
fb
01
0e
08
eb
f5
05
05
03
fd
03
02
10
10
f8
fc
00
fe
03
f0
ec
e7
fe
12
fb
f0
fc
04
02
fe
01
00
fd
01
02
fd
03
fe
ff
fe
fe
00
01
fe
fe
00
01
fd
ff
fe
01
01
fc
00
fd
01
ff
01
fd
ff
fd
00
ff
01
00
ff
fe
00
01
fe
fe
01
03
00
00
fd
fd
fd
00
00
ff
ff
ff
ff
fe
fd
fd
fe
fd
02
03
01
ff
01
fe
fe
fe
fd
ff
ff
fe
fd
00
ff
01
fe
ff
fd
00
fe
ff
00
fd
02
00
ff
00
00
02
01
ff
01
fc
fe
fe
fe
fe
fd
fe
ff
fe
fe
00
00
01
01
00
00
ff
fd
00
ff
fe
01
01
02
fe
ff
00
ff
fd
fc
01
ff
fd
fe
ff
fc
fe
fd
00
01
fd
00
fe
03
03
ff
02
01
01
fe
00
ff
fd
fe
fe
01
01
fe
fe
02
ff
00
fe
ff
01
fe
ff
fd
f6
f3
ff
08
fc
02
05
08
06
ee
ea
ef
fb
0a
f1
f3
f5
fc
ff
08
f4
d2
f2
03
f0
f0
f1
fa
0f
fa
fc
f4
fc
ff
03
fb
ff
f8
f0
ee
f5
fd
06
09
fc
f7
ea
fd
07
e5
d0
f2
06
0d
f0
eb
ef
fa
07
f2
fe
00
ff
01
fe
f6
03
01
f3
f9
f7
ff
01
00
f6
f9
fa
f0
00
04
fb
00
03
07
f0
e8
f3
05
0a
f1
e6
e5
ea
fb
00
f9
f6
fa
02
f3
f3
f8
02
04
fd
00
ff
02
01
06
05
07
0f
14
ff
01
04
ff
fc
f9
f8
fd
07
00
04
ff
00
03
01
f3
f8
f7
fb
00
f9
fe
03
fe
fa
03
fa
fd
0a
f2
f0
ea
e1
e4
fa
ee
f3
fa
03
07
f6
eb
ed
f8
10
ee
f3
01
04
ff
05
03
06
02
01
e8
f8
e4
01
f0
f9
f9
fb
fd
ff
fb
f2
00
e2
f3
e0
f7
e5
f8
e6
00
fa
fe
fb
fd
f9
f8
fa
fb
ff
00
00
fc
02
05
f9
fa
ee
f8
fc
f8
f9
fc
fd
07
f8
fc
01
01
06
fc
fe
ff
ff
fb
07
03
00
01
fa
ff
09
fc
01
03
ea
e9
fb
ed
ec
f2
01
fc
06
05
f2
f6
fc
00
04
d9
d8
f0
fa
00
02
03
08
02
01
f6
f7
ff
ff
01
05
06
fe
fd
fc
f9
fd
07
f8
fd
03
ff
fd
fd
fd
d8
d2
04
06
f9
fe
07
fe
03
05
fb
fc
f9
fd
fc
ff
fe
fb
00
ff
03
05
05
02
fb
d5
d5
f3
fc
03
fb
03
03
02
06
e9
db
e7
f1
e9
03
00
ff
fc
fa
fc
00
02
01
08
0b
03
fa
04
08
ee
e8
02
04
fb
06
02
ff
fb
f4
0d
03
01
0b
0b
06
03
09
fe
01
02
02
05
02
02
e4
fa
fa
fd
fe
03
02
05
f0
e2
f7
f5
fa
f6
01
fc
ff
f6
dd
ef
d6
f9
00
ff
fd
fc
fc
fe
fd
f8
fc
05
fc
fc
fe
02
01
03
0a
0e
00
0b
f8
fa
f4
fd
08
ff
e2
e5
01
03
02
f8
ec
05
03
01
ff
fd
f7
07
10
f1
f7
f2
fe
f8
fb
04
00
fc
ff
ff
f6
09
03
01
0b
09
03
02
04
02
fc
05
08
0e
00
ff
fc
09
fe
ff
02
fa
fb
02
04
09
03
05
05
fa
f0
02
01
fe
fe
f3
f4
fe
06
fd
02
14
0a
fd
04
09
f4
f7
fd
f9
01
08
05
01
f7
f1
f5
ed
f6
01
0b
09
fd
fa
f9
ec
c8
e9
f2
f0
f9
ef
ee
f2
07
0c
f8
03
08
f5
f3
f5
00
ff
01
00
08
00
fa
fd
f8
e3
f0
f7
fb
01
16
04
fe
01
fd
15
0e
08
0a
0c
02
ff
fa
ec
de
f6
fa
0b
02
05
fb
fd
01
01
f5
f5
ff
ec
ec
f2
f7
f8
fd
05
07
0d
02
02
04
06
fb
00
00
02
09
f0
f9
fd
f8
f6
18
08
01
00
ff
02
01
fa
e8
e4
e3
e9
fd
f2
ff
f4
fc
f9
f0
f0
e5
f0
fb
fb
ff
f4
f6
fd
ff
02
02
fb
f5
e0
e3
04
fd
00
01
fc
f4
f5
06
fe
02
f5
fa
00
02
07
1a
09
ff
03
ff
ec
e9
fc
f3
0e
fd
f7
f7
f6
01
09
0a
0a
07
0c
f9
e3
c2
e3
f1
f4
f3
f3
f4
fd
e9
02
02
ff
ff
fb
e5
c0
de
ed
f8
fe
fc
fa
fd
06
00
ff
ff
01
f5
f6
fb
fa
04
0f
d2
f1
ee
dc
fa
f5
fb
fd
f1
01
00
01
02
00
f8
fc
ff
00
04
ff
fd
01
fa
fb
00
f9
03
01
07
d4
fc
fe
fd
ff
dd
f2
00
fb
10
ed
f0
fa
fb
eb
f2
ef
f2
f2
ed
07
06
03
01
05
fe
f7
fd
02
fc
fd
fd
02
01
06
fd
ed
f4
fc
f5
08
09
09
06
0b
f8
d6
da
d7
e7
01
f9
f6
fd
05
f1
f3
f8
fd
01
03
02
03
01
01
fc
00
fe
fc
fd
f4
f1
f2
f6
f2
fb
f8
fc
01
02
e5
ff
d4
db
e5
00
00
f9
ef
f5
06
07
03
fa
ee
0e
08
fe
04
03
fc
fe
f6
e8
f2
fe
f3
df
ea
f0
09
08
02
00
f8
f5
00
12
01
03
01
00
fa
f7
f8
04
fc
f5
f4
f6
dd
dc
eb
f6
ff
04
fb
00
f9
f9
01
04
03
06
08
05
00
f6
ef
ed
f5
07
08
06
0d
0f
04
f8
f6
08
0e
ff
fb
ff
ef
fb
f2
ee
e7
fd
fd
fb
02
01
05
fd
02
ff
05
09
ff
ff
04
f7
fb
02
ff
00
01
ff
fd
fb
f2
f4
f0
04
fc
f4
f1
f2
08
05
f4
e2
e6
02
02
f7
e8
ec
01
f9
fe
ff
fe
ff
f3
f1
f4
f6
02
09
03
07
02
02
ff
fe
fc
07
fc
fb
00
00
05
00
03
02
04
fe
fb
f6
fc
0b
09
f5
f4
fa
ff
fb
06
06
03
02
04
f3
f8
ef
03
01
00
00
fe
fe
ff
fe
fc
0c
da
f3
f3
f8
ed
fe
f7
fd
f8
fa
fa
ff
fc
f9
f4
f3
f0
fe
fe
01
03
ff
f4
f6
f9
fa
02
ff
ff
fe
01
05
fd
fb
fd
02
04
ff
03
04
ff
01
05
04
fa
ed
ed
05
07
06
02
04
e2
fc
fb
f2
c2
06
07
ff
ff
fe
04
00
fd
03
06
d1
cd
e3
fc
05
02
02
05
01
02
00
04
04
05
06
04
04
01
ff
03
ed
07
fc
f9
06
02
04
01
03
01
f3
ef
f1
ef
fd
07
0b
09
03
ff
fc
fd
fa
ff
01
07
05
02
05
fc
05
09
fb
e8
f0
d2
c7
de
f7
01
02
03
07
03
08
f4
ee
f4
01
0a
fe
f9
e3
ee
0f
fe
00
05
02
ff
f4
ea
03
ff
12
00
00
01
07
04
e2
f2
1b
fb
f9
f2
ec
07
fc
12
01
fe
ff
06
0c
fa
f3
fa
e3
eb
01
fe
fe
08
01
fa
f4
ec
00
06
05
fc
fe
06
05
f8
eb
f6
03
03
04
ff
05
04
ff
fe
f6
01
f5
ec
06
f9
06
fe
fc
e8
be
0f
03
f9
f8
fe
02
07
01
fe
ee
f7
07
0b
e9
da
ec
fd
05
fd
ff
fd
fe
02
04
f7
fb
06
05
fb
ff
ff
fd
fa
f4
04
fd
fb
0b
fd
03
04
fc
f8
00
fe
fc
e6
03
ff
fd
03
fc
fe
fb
ff
02
00
fc
02
01
ff
01
fc
0b
06
02
fb
ed
e9
e0
dd
f3
02
01
fb
fa
08
06
f1
ec
f6
02
18
fd
05
0a
06
fa
07
07
ff
fc
fa
fb
fe
f8
05
05
0b
09
05
00
f5
02
f8
f2
e9
e6
fb
00
06
07
fc
0b
09
fb
f2
f7
fa
fb
ed
ee
f1
03
01
ff
f9
ec
fd
f6
ec
f8
ee
03
09
04
01
f8
fa
00
04
ff
01
0d
09
06
fd
f6
fe
06
00
ff
fb
f5
f6
f8
f5
f7
0c
fc
f8
f0
dd
f1
f5
fe
fd
f8
f6
fa
02
00
01
07
04
ff
fe
fa
00
06
07
03
fd
fc
ff
ff
02
ff
08
05
03
f6
ee
05
09
00
fe
fe
03
ff
fb
f1
f1
fa
07
0a
01
f8
01
0d
07
07
04
04
ff
00
f7
f0
05
01
f9
f8
f6
f9
f6
04
f7
fc
02
02
01
fc
f9
05
09
03
02
f8
f7
fd
fd
ed
03
fe
ff
02
0a
03
01
02
02
04
04
ff
ee
ef
fe
09
fb
02
05
06
09
f7
f8
fb
fd
fd
ff
ed
f1
00
0f
f5
ec
ef
fa
02
0a
fd
f2
f4
e9
ff
ff
04
04
07
ed
f5
fb
ee
02
fe
fe
f9
fd
00
e3
ea
e7
ea
f5
fe
07
05
05
09
03
0a
03
03
01
07
01
f8
fd
03
f6
f1
f2
fb
02
08
06
fc
fc
fb
fa
fc
fe
fc
fe
f5
05
f3
eb
f6
02
fd
03
ff
f7
fb
00
01
02
01
02
03
00
04
0b
ff
fa
02
f9
00
03
fe
00
04
03
00
f7
f6
02
fb
fc
f9
f4
fe
03
00
fd
01
08
0c
05
05
04
05
fd
0d
06
fe
ff
fd
f3
00
fb
ef
f4
f9
fd
01
00
00
ef
df
e3
fa
06
02
fe
f9
ff
fb
06
08
06
07
0e
fc
fb
f0
e2
e8
f2
ec
f0
ed
f8
04
ef
df
db
e8
ff
fb
f0
e5
e6
f0
ec
fb
f9
f6
0c
06
04
01
01
ea
f3
ee
f4
09
df
eb
f1
e9
e2
f5
eb
e9
f0
01
00
02
04
00
00
f4
f2
f9
fc
fd
fc
f9
fe
fc
f7
ff
04
f4
01
0a
00
fd
d7
e9
f5
e3
e3
e7
ed
10
06
ff
fb
f6
f7
00
fe
fa
fa
f5
05
03
02
03
ff
ff
f9
fc
fb
ff
f8
fe
fe
01
fc
ff
f3
f1
f3
f2
09
06
03
09
03
03
fa
f9
f9
f7
f3
00
f8
fd
01
e3
e5
ea
f1
f2
f5
f5
fe
fa
f5
f9
f9
fd
fd
fe
00
00
ff
f9
f9
f7
f2
f8
fc
04
f2
e5
e3
ca
dc
fe
fe
fd
fe
ff
ff
fd
00
00
fc
fe
ff
00
00
ff
01
fe
fe
fe
ff
fe
02
ff
fe
01
02
fe
fe
fe
00
00
fd
ff
fe
ff
02
fd
ff
fd
fe
02
01
fe
ff
01
00
00
fe
ff
00
ff
fe
00
fd
fc
fe
ff
01
01
fd
02
fd
fe
01
00
fe
00
00
00
01
fe
02
00
fd
ff
ff
00
ff
00
fe
01
02
01
fd
ff
fe
ff
00
03
fe
01
ff
fe
02
fe
ff
00
fd
00
fd
03
00
02
00
ff
ff
ff
fd
fd
fd
02
00
fe
ff
02
00
fe
ff
00
fd
fd
fe
00
01
01
fe
02
fe
01
fe
00
fe
01
01
fd
01
00
00
01
01
02
fd
ff
01
01
02
ff
ff
fe
01
02
00
ff
fe
fe
fe
ff
ff
01
fe
ff
ff
fc
fe
fd
00
ff
fb
fe
f9
01
00
ff
fe
fc
ff
fe
00
fe
fe
04
01
02
02
ff
05
fe
fd
fe
fe
fe
ff
00
fa
f8
fd
f9
fc
fc
fa
fd
00
03
01
fe
fd
00
06
01
ff
ff
fc
00
00
02
fd
fa
fb
fd
fb
ff
fe
00
fd
fe
fb
fc
02
00
fe
02
03
fe
fa
fc
00
01
01
fd
00
fa
fe
ff
00
03
fd
f9
01
fe
00
fb
fc
fd
fd
fc
fd
f9
fa
fd
fd
fe
fa
00
01
ff
fe
02
02
fd
fc
00
fe
01
fe
fe
00
01
fd
fb
f9
00
fc
00
00
01
f9
fb
fd
fc
fe
ff
02
02
fc
fc
ff
fe
fd
ff
fa
ff
00
03
fc
fc
fc
fd
fd
01
fc
fc
fe
02
00
01
06
01
fc
fc
fb
f3
f4
fd
06
04
06
02
fd
f4
ea
1c
0f
f5
0e
0c
fb
ff
01
ff
02
f6
fc
fe
01
00
18
0b
f1
0e
0e
fd
fe
08
fd
f7
f2
ed
f8
03
07
fb
fa
ff
ff
fe
fd
06
08
06
06
f2
f8
f8
fe
ff
06
09
0a
08
0b
07
05
02
fd
f1
f9
fc
f7
fc
07
16
0c
06
05
00
09
e2
eb
05
00
05
fc
ff
04
09
03
ff
04
01
04
f9
01
06
07
09
02
f8
00
01
00
00
ff
02
ff
01
0d
0d
07
fd
ea
f8
fc
05
00
00
09
05
f6
f2
fb
f5
f1
00
07
0b
06
05
05
06
07
0c
02
02
ff
ed
fa
03
f9
02
01
ff
fa
00
06
17
f9
fd
04
04
09
fc
fe
fe
00
06
14
05
f4
0e
0c
00
01
fd
f8
f5
f4
fa
ff
08
0c
ef
fa
f2
e3
d4
12
f7
1d
03
fc
fd
fe
fd
01
00
f1
fc
f5
e3
d6
18
f9
ef
f5
fd
0a
0f
0c
02
ff
0f
ff
01
02
fc
0c
03
fd
fe
04
0e
fa
fc
fe
fe
04
fb
f4
f5
fb
03
fa
eb
f6
f0
f4
0b
fc
0a
07
ed
f8
00
0c
09
f7
fe
f8
f5
f7
06
fb
fa
0c
06
08
f6
e9
ee
f9
07
06
00
ff
fd
ff
01
05
ff
ff
05
f5
e6
ec
00
ee
f0
f4
f0
f2
fd
03
02
02
fe
00
09
05
00
ff
02
06
03
fd
f8
04
05
01
06
ff
fd
07
fc
f0
e3
f8
06
08
17
14
fc
fd
04
06
00
06
07
03
00
fe
fc
e4
d9
ec
f9
e9
07
f8
ec
e8
fb
ec
f8
04
05
06
04
fe
f7
fd
ee
00
fb
fe
22
fa
fd
fa
f7
ff
09
06
06
fd
ff
f0
fc
f5
03
27
f9
f6
f9
0f
f7
ff
f1
e0
f2
0b
f9
02
03
fa
fc
eb
f5
04
08
03
f4
03
0b
08
ff
f7
fd
05
07
fb
f9
fd
fe
f9
eb
ff
02
f3
02
fd
f6
00
ff
01
01
f4
0b
fc
fe
10
f6
01
00
fb
00
e9
fa
04
04
fc
fa
f9
03
01
ff
f8
f8
f3
06
05
f2
f7
03
00
f9
fd
fc
fb
f4
f9
f4
f2
f1
06
04
01
07
02
f8
0a
f4
ed
ed
01
08
f2
00
00
00
05
fd
00
00
f3
fa
fb
fe
01
02
ff
02
04
08
08
01
f8
f6
00
03
02
f3
fe
0c
08
fa
f0
fe
03
04
15
02
ff
fe
05
07
02
05
f8
e5
de
07
0a
00
06
0f
fb
fb
fc
f2
f5
04
06
c1
d9
e4
02
09
f9
0e
04
0d
0f
07
f1
0a
fe
fc
ee
f6
02
00
fb
00
f8
f3
f3
ff
00
07
ff
fa
f9
02
02
f9
00
05
0f
08
03
f8
fa
fc
f7
f2
10
09
0c
fe
06
ff
05
03
fa
04
07
07
ff
fc
e2
07
fa
ff
f7
fb
f3
06
07
02
fd
fd
ff
02
07
03
08
06
ff
fa
06
f4
00
07
05
fe
f8
fd
f4
f7
f9
0d
0b
fa
f9
05
05
04
f6
e0
f7
fc
02
f1
fc
02
15
11
0e
0a
05
ff
fc
fe
0a
01
06
12
0c
ff
03
0c
08
06
f8
11
fa
fa
02
04
04
f9
02
0c
04
f9
07
00
00
00
19
f1
f3
f9
fd
06
05
00
fc
ef
eb
ce
ea
02
02
14
fb
f2
f8
06
0e
e5
f2
fa
fa
fa
ca
e3
fc
09
10
02
0b
01
0f
18
fa
fb
fd
fe
03
f5
f5
f2
00
08
ee
f4
fd
01
02
fd
f5
f3
fd
fd
05
0a
07
0a
08
fb
fb
0b
0c
07
06
00
ff
01
09
ec
f9
fc
05
ff
e4
f4
f8
fc
f4
f2
ff
00
05
08
fa
ff
01
01
01
fc
fd
ff
02
06
01
00
fd
fc
02
03
fd
fd
ff
fb
f1
fb
0c
05
f8
ed
fb
fe
01
07
f2
f0
f0
e1
e7
ef
f1
f3
fb
02
fc
03
05
12
10
07
08
0a
09
03
05
0e
fc
02
fc
01
fb
01
05
06
f9
fa
01
03
04
fd
f6
f6
fd
01
e2
f3
07
0a
0e
07
01
ff
ff
fa
02
00
fb
fa
fa
10
02
00
ff
fb
15
0c
04
fb
f8
0a
08
04
06
0c
0a
04
00
00
f8
04
fa
f8
ee
f5
04
03
01
ff
fd
10
0a
ff
00
ff
07
fe
00
ff
09
0b
13
0a
0e
09
fb
f7
fd
f9
00
0f
05
fe
f7
f7
fd
fd
fe
fe
f4
09
ff
fa
fc
fe
0b
0b
0c
09
03
08
ff
f7
fe
02
ff
fe
fd
fd
06
01
ff
fe
01
04
fb
fc
fc
01
fe
fd
06
05
fd
00
0a
02
f7
fa
fe
05
fb
f6
fe
fb
07
fe
f6
f4
f8
08
06
01
04
fa
f9
f7
fc
03
ff
0b
fe
fa
f5
f9
06
04
04
fa
f6
00
00
fb
03
01
06
ff
ff
fe
01
05
09
09
05
07
08
fe
fa
ea
f5
02
fe
04
02
fa
f8
fc
08
0b
15
03
f7
f7
f7
00
e3
ea
04
04
ff
eb
ec
e7
e4
0d
01
f5
f9
fb
fd
f3
f2
f0
f7
00
0a
0b
0a
09
05
f3
eb
0d
02
03
05
09
fc
f1
f8
fd
da
fd
05
0d
fa
f6
f3
f4
f8
e4
fa
04
00
03
f7
ee
f0
01
fc
f1
f3
00
00
08
e9
dc
df
ed
ef
f6
e1
ff
02
0c
fb
f4
f1
e8
fe
09
03
ff
f1
ed
06
07
03
03
00
f5
f1
f8
fe
09
f5
fc
ff
01
05
fb
f4
f2
f6
f5
04
02
0a
10
17
09
00
01
05
f7
01
01
16
fe
00
f7
03
01
f8
00
f9
03
08
03
06
fd
00
fe
13
07
08
02
05
f9
ee
ee
e3
f6
03
0d
ff
f4
ee
f0
fb
09
04
04
03
f2
ff
00
03
07
0c
e9
ea
f8
fd
0a
fa
fd
03
01
01
f9
e8
f2
e2
eb
ed
ee
f8
fd
0d
e2
e9
f5
02
08
0c
04
04
09
fe
fc
ff
fc
fc
01
f6
03
cd
e1
01
e9
fa
fb
f7
08
eb
f1
ef
ee
f5
fc
05
04
03
09
f7
01
fd
fd
f9
02
f5
f2
ff
07
ed
e8
ec
f3
f4
ff
ff
f6
f8
06
dc
f1
f6
eb
06
08
06
00
e8
f1
05
01
00
03
fe
e4
fa
00
f8
ff
00
01
ff
0a
0d
fe
fa
f8
fc
fb
07
00
05
0f
0e
0a
05
02
09
00
f0
f1
ed
f9
02
00
fc
f8
06
08
fb
00
04
f7
f9
fd
f2
fe
ff
f7
0b
06
03
ee
ec
e9
f9
fb
f8
03
e4
e7
eb
fc
07
01
06
fc
ec
ec
03
08
07
0a
05
ec
f2
ff
00
ea
01
f5
fe
07
0a
fc
d6
dc
f0
06
ed
f8
fb
fa
de
fa
fe
02
fd
f3
01
09
01
fd
f3
04
fe
ff
0e
12
02
fa
af
fe
0a
02
fd
fc
06
0d
f9
f4
f3
f9
03
f9
fe
03
07
01
f6
fa
fe
00
ec
f1
f6
fd
07
ff
f9
f8
ea
c1
f4
fd
ea
f6
0a
08
04
f8
e8
05
0e
f7
e9
d9
e4
f5
fd
ff
ff
f8
ee
00
fe
f9
00
07
f9
ff
07
08
04
0a
07
f2
d9
01
02
05
08
03
fc
02
05
00
e9
d1
fc
f8
fe
fb
fb
f6
ff
01
01
00
fc
fc
ff
00
f9
07
fc
00
fe
e7
fd
ed
e3
de
f4
ff
fd
fc
05
12
ea
f2
fd
f9
f1
fc
fc
fe
fe
03
fd
fe
fc
fc
ff
fa
fe
ff
00
01
01
01
ff
03
fe
fd
01
00
00
ff
fc
fd
fe
02
fd
fe
ff
fe
01
05
fc
00
fd
fe
fd
03
fe
ff
fd
fb
00
ff
00
01
01
01
ff
fd
01
fd
fe
ff
fc
fc
00
02
ff
00
ff
ff
03
01
01
02
02
02
fc
fc
ff
ff
fb
00
fd
01
02
02
02
01
ff
02
fe
ff
fc
00
fd
fe
fd
fc
fd
fe
03
04
06
06
03
01
01
01
fd
01
fe
00
ff
02
02
03
04
01
03
00
00
ff
ff
01
fe
ff
fc
fd
00
02
02
ff
02
04
05
01
ff
ff
02
02
02
ff
fd
ff
00
02
05
02
02
01
fe
fd
ff
fe
ff
02
02
01
01
00
fb
fa
fb
00
ff
0b
05
05
08
fc
fa
03
09
13
1b
04
01
fe
09
10
f4
f2
05
0a
0a
fe
ff
f9
f2
f4
04
fc
03
0a
11
f9
f9
f7
02
ff
14
0e
0e
10
0c
f3
f9
05
07
0e
02
08
06
f4
e7
f0
f0
f9
05
18
ff
00
fb
f6
f8
f4
ff
07
09
0f
fa
05
ff
fc
ef
f7
02
03
09
10
f8
fa
f5
ff
06
fe
01
03
fe
0c
00
05
fe
f2
f3
0e
08
05
fb
f1
06
03
02
ff
00
f2
fb
fd
ff
07
fa
02
05
0f
12
06
00
f9
fa
f2
0d
0d
13
1a
22
12
09
0a
08
02
00
00
04
f8
fe
f4
05
05
09
0f
f0
fa
fd
fb
f9
03
02
fd
fa
f5
0b
0b
0a
00
f3
ed
f2
f9
01
12
fb
fc
f8
01
06
04
fc
fd
fe
05
08
06
f6
ef
f2
04
fa
e1
e9
02
06
02
02
ef
d0
08
0a
01
f8
f6
05
fe
e3
e3
fb
fd
0d
fa
e4
00
05
01
f9
fe
03
05
07
08
ea
cc
f7
f7
01
03
fe
fe
03
07
fa
e5
f5
00
06
00
fa
0c
0a
ff
ef
dc
f9
fc
11
fb
06
05
04
f6
ea
00
0f
fb
f7
00
ed
f8
fc
0a
06
ed
f6
ff
08
02
f8
01
00
03
04
04
04
fc
f6
01
08
f9
07
0b
ff
f4
0a
06
f7
e8
ef
09
05
06
fa
09
02
fa
e5
e8
fc
06
00
fb
fe
03
f7
02
0f
f7
f4
03
fd
f0
d6
e1
07
03
07
f2
f3
0b
fc
09
f3
0a
01
fe
02
03
03
03
05
06
f7
e5
02
f8
f6
e2
fd
06
03
01
fe
00
e5
e5
ed
f3
f8
05
08
fc
f4
e8
0e
05
15
fb
f7
05
ff
fc
00
fd
01
06
00
f1
eb
15
ff
fa
fe
00
0d
0d
07
01
fe
11
08
04
f7
f2
07
fe
fa
fd
06
0a
f6
de
f2
fd
05
01
f9
01
03
07
f7
f7
f6
ea
f4
03
fe
03
07
e3
fe
05
05
02
0a
08
03
fc
f7
04
04
03
02
ff
0a
05
fd
00
03
0a
09
04
01
04
02
05
02
00
fe
0a
02
f6
fd
06
fc
02
f8
f0
ed
07
05
07
01
01
01
04
ff
f9
f7
09
0a
04
00
fe
05
0b
10
04
03
fd
0d
f9
ef
ea
f4
f7
f7
05
0a
f7
fb
04
ff
03
04
03
03
ff
05
f7
ef
df
f3
f8
05
0f
fc
f0
ee
fd
00
07
04
ff
05
02
fd
f6
ed
15
ef
f5
fa
03
06
05
04
04
00
c4
db
ea
ef
fa
11
ef
04
00
02
f5
f8
f8
f7
f3
fd
00
02
03
fe
05
fc
fd
00
04
f8
fc
fb
fc
02
0f
04
ff
fe
05
0c
0d
05
09
09
0c
05
03
01
f6
f4
f5
02
01
fb
10
fa
fa
08
fe
f9
b4
d2
e2
e9
05
f5
fc
08
0d
08
03
fc
02
07
fb
04
02
05
0d
01
04
06
03
fd
12
07
fc
fe
fd
0b
06
04
fd
ee
e5
e9
f7
f8
03
06
00
fd
f7
e5
f6
fe
03
09
03
01
f0
fb
02
04
09
05
07
fd
f8
00
fb
fe
fd
ff
fa
fa
fc
fc
fa
fa
00
03
03
07
15
06
00
fe
04
01
ee
e4
ef
fb
f4
fa
e7
f0
ff
f2
f9
fb
ff
fd
de
ea
f6
01
10
fb
00
02
ff
00
01
f0
da
f2
ff
dd
eb
fb
fe
10
fb
f5
08
08
0a
f5
fd
f8
f0
fb
f5
fe
fe
03
01
fe
05
e9
ff
04
00
e8
f9
04
04
f6
e3
f2
fc
03
02
01
ff
ff
05
fe
ff
04
fb
fb
ff
fd
03
ff
fd
de
ec
f8
09
fc
ff
0b
02
00
01
f1
c9
f0
02
09
f8
f4
e9
fa
03
fd
fe
f8
f9
f4
f7
e0
ec
fd
ff
f8
fd
fe
fb
00
f9
00
0b
f9
03
f6
fe
ff
fd
fd
f4
00
fa
01
f9
02
fc
03
07
09
02
03
fe
01
04
0b
0b
10
01
06
04
04
04
05
03
fa
f3
e8
ef
02
f1
e3
f6
ff
04
ec
e7
f0
fb
0d
fb
fb
f6
f8
fc
01
fd
06
06
06
ff
f5
f5
00
07
00
eb
f3
f9
00
fb
fe
fc
ef
ee
03
f4
f8
f9
05
fa
f1
f3
fe
01
ff
fa
ff
04
00
03
e6
e7
fe
02
fd
fa
e9
00
0b
12
f6
dd
f4
08
fb
f9
f1
f3
04
ee
f8
f9
00
08
03
04
f9
06
fc
01
fd
f4
fc
fb
f8
f6
f5
f0
ff
01
ef
dc
fb
03
fb
e9
df
fa
0b
f8
fb
f8
e0
01
04
fb
fe
ff
fe
fe
f8
f5
fc
08
f5
f8
fe
06
09
01
ff
f3
fc
fa
ff
f9
00
04
08
fe
f4
f1
ef
fb
fd
0a
e7
01
06
f9
f7
f8
fe
07
01
f9
ff
ff
fc
0a
0b
04
fd
01
fb
f8
f2
e8
f7
fc
f1
e5
f4
0a
fc
f4
f9
01
04
00
fa
fd
fe
fa
f7
f6
f4
f9
f8
09
03
05
02
0a
01
ff
fe
f8
fb
fe
f3
f6
f6
f9
04
04
02
03
0c
01
f9
fb
06
0b
fd
fe
fa
f4
f8
03
fd
fe
f8
fe
f9
00
01
04
04
03
00
03
fd
f8
00
fd
f9
f6
f7
01
fe
fe
fa
fc
13
0f
07
05
09
fc
f9
fc
f8
f8
08
08
f9
f6
fa
09
05
04
01
fb
04
04
fd
fa
f9
fc
f7
f8
f8
fb
fb
fd
f7
f4
f8
05
fd
ff
fe
f6
fc
f9
fd
fc
01
01
f9
f8
01
fd
fd
fa
f7
f6
fb
03
fe
f7
01
03
01
03
01
fb
fa
00
fc
f4
fc
00
03
01
f9
fa
f9
0f
06
01
fd
02
f9
fa
fa
f9
fa
ff
fe
04
f9
f5
09
04
05
07
09
00
fe
fe
fe
00
fe
fc
fe
fe
ff
fc
02
ff
ff
00
ff
fd
02
fd
fe
fe
fd
01
fe
ff
01
fc
ff
00
fd
fd
fd
02
01
00
fb
fb
00
01
02
00
fd
fd
fd
fd
00
00
fc
00
fd
fd
ff
fd
02
02
fc
fc
01
ff
fd
01
fe
fd
02
fe
01
01
ff
ff
fe
ff
fe
02
01
02
ff
01
ff
fe
01
fe
fc
01
fd
fd
fd
fb
01
00
fe
ff
00
fc
fc
01
ff
fc
ff
fd
03
fe
fd
fe
02
fe
ff
ff
fe
00
00
00
ff
fe
fe
00
fc
fe
ff
fe
fd
fd
ff
fd
ff
ff
00
fd
ff
ff
00
00
fe
ff
01
00
00
fe
00
fe
01
ff
01
fd
ff
00
fc
fb
fd
fe
01
02
fc
00
fe
fe
ff
01
03
fe
01
04
fa
e8
f6
0a
f8
fe
03
01
04
05
01
06
fe
f7
f1
f9
fe
ff
ff
f7
fb
06
05
03
04
01
01
fc
f4
f2
f7
fb
01
ff
04
ff
f9
d1
02
eb
f5
08
fd
f8
01
f4
00
0c
09
f1
eb
02
0f
ff
fd
f8
01
09
06
fa
fc
05
03
03
fa
f6
03
06
07
f9
f8
01
f2
f0
01
01
ef
f2
00
f4
f0
fa
fc
fd
fe
f2
ff
07
00
00
fa
00
02
07
fe
fc
f6
f5
08
ff
ed
fe
0c
00
fc
fe
04
00
ff
f8
f8
f1
fa
02
01
ff
07
f2
f5
00
fe
f1
ec
0c
ef
f6
03
00
fd
f9
00
05
ff
02
00
05
0a
07
03
08
02
03
00
09
fd
f9
fb
04
08
e2
e9
00
0f
fd
00
01
00
fb
fa
05
fc
f9
e0
e4
ee
f8
02
ff
02
0d
02
01
04
05
f9
e7
f4
f5
fe
fb
eb
ee
f3
0a
0c
01
01
04
05
f0
f8
fc
06
0b
02
fe
fe
00
f3
fb
f0
fd
fd
02
fd
05
e7
03
0c
18
c6
f3
fd
00
0b
f7
fb
08
06
c8
f9
f7
01
04
0d
0c
f0
04
02
07
ff
ff
f8
ff
08
fb
f6
07
00
fd
fd
f8
fd
04
08
da
ef
02
05
01
fc
ef
eb
07
02
fd
01
05
01
03
f1
f0
fe
01
f6
f7
ff
01
05
09
03
f8
f1
0b
07
ff
ff
fd
07
04
fd
fb
ee
df
02
f3
f5
0e
0f
f8
f2
fc
ff
04
ea
fc
fa
04
07
07
05
03
03
00
00
fe
ef
eb
03
08
df
fe
f9
02
0b
00
ff
06
09
07
01
fe
fd
f4
ff
02
03
06
0a
fe
f5
f8
fd
0a
f6
fd
ff
05
0d
f2
f0
e7
fa
01
03
fb
fc
02
0e
f2
f1
f2
fc
01
06
02
01
fb
ef
fd
02
fb
fa
04
f1
f0
f4
e7
f1
ed
f9
f5
f3
00
d6
e8
ec
df
f4
ff
03
03
08
0e
04
08
fb
ff
01
f9
f9
f4
00
05
fb
f4
e7
f5
fb
00
f6
f3
f8
ff
e5
f9
fc
ec
f9
06
02
e9
eb
f5
02
01
05
fd
fb
ed
ff
01
fb
fd
fb
02
03
04
08
07
03
fb
fa
ff
03
fe
03
05
08
0b
03
ff
01
f6
fe
f8
f6
00
07
fb
00
ff
05
0a
02
05
07
02
fe
15
0e
ff
fc
0f
07
fd
ef
e2
eb
f3
fc
fb
00
05
f6
e8
e8
f8
07
fd
fb
fb
fd
f8
fd
f9
f8
fb
fc
08
02
fd
ff
05
f8
f3
00
02
fe
ff
fb
f9
fb
fb
02
01
fe
02
03
03
fe
fc
00
02
fd
ff
fa
fb
f9
f6
fd
04
03
fa
ff
fd
05
f1
e8
f8
00
00
02
00
02
fc
02
fd
fa
e7
ff
fe
fa
f7
03
fd
fc
00
ff
fd
01
fc
f6
f9
00
01
fc
06
0d
00
ff
fc
f8
f3
03
04
01
f6
ee
fc
f8
fc
f9
f4
fe
fc
f7
fc
fa
07
07
01
04
fe
fc
01
fa
f7
fb
ff
f9
fe
fd
f6
fd
fe
f8
fe
f8
fd
fd
f7
f9
f5
01
fd
03
04
fb
fd
00
02
fd
fd
f6
fd
00
02
02
03
06
00
03
fb
ff
fb
fa
fa
f3
fb
fc
0c
04
fa
03
03
fd
02
05
00
00
fe
ff
fe
ff
ff
fd
01
ff
00
02
01
00
01
ff
fd
00
fd
00
00
01
fd
fe
01
02
fe
fe
ff
fe
ff
ff
ff
fd
00
fd
01
01
01
fe
03
01
01
00
00
ff
01
ff
00
fe
ff
01
fd
ff
fe
fe
fe
ff
fd
01
ff
fd
ff
fe
fe
ff
01
ff
00
ff
ff
fd
fd
ff
ff
02
02
fe
02
fd
fe
02
00
fd
01
fd
fd
ff
ff
00
00
00
ff
fe
ff
ff
ff
fe
fe
fd
ff
ff
ff
00
01
01
fe
00
00
fd
fd
ff
ff
02
01
fd
02
fe
fd
00
fe
fe
fc
ff
ff
01
00
fd
02
01
01
00
fe
fe
00
00
01
fd
fe
fe
00
fd
00
ff
fd
01
fe
fe
01
fd
00
fd
fe
01
fd
fe
00
02
fe
02
02
01
fe
f7
ec
06
01
05
06
08
f9
f9
f9
fb
fb
15
f2
04
fd
f9
f9
f7
fe
01
06
01
ff
f9
fb
f6
00
f4
f7
f9
fd
09
05
00
fc
f4
01
f2
01
fc
f4
00
03
03
ed
ea
04
e3
fe
ff
fc
eb
f5
f6
f8
ff
e4
fd
01
fd
fa
08
05
0b
ff
03
09
fc
fd
fd
03
fa
fb
fd
04
10
06
fb
fa
f8
07
ed
f1
f7
e8
f1
01
02
fb
f0
eb
01
fd
02
fd
01
ec
f2
fb
fc
f5
ff
fd
fd
f8
00
fd
fa
fa
fe
03
08
02
04
01
02
07
01
ff
fc
ec
0d
fb
00
06
0c
00
04
fe
f8
f5
0b
0a
06
04
07
01
04
05
02
04
01
fe
fd
f5
ec
e8
ed
04
fc
ff
f9
f9
f8
ff
06
fc
fc
01
02
fd
f8
ed
e7
f4
fd
09
f6
fa
fe
00
0f
11
0e
fa
f9
fc
fb
f6
f5
f5
05
dd
f7
ff
02
0b
07
f9
05
0e
f8
f9
04
07
09
05
0a
02
f3
f0
06
06
03
04
02
fd
f8
01
01
02
06
00
01
ff
fe
0e
0c
00
f9
00
f6
f8
f6
04
04
02
02
f5
fe
07
f5
f2
f1
ed
ec
01
fa
ff
f3
ee
01
ff
02
01
01
00
01
02
01
01
f8
f6
f7
02
01
fc
fd
00
fb
01
0d
07
f6
03
13
fc
f7
fa
01
fb
f6
de
fb
14
16
f7
fc
04
07
03
fe
04
03
f8
f9
0d
07
f8
03
0b
01
01
f1
00
0a
fb
fb
02
03
03
02
02
00
03
fe
f7
f9
fc
fb
fc
0e
01
e2
fd
0a
e9
ef
fb
04
0c
08
06
fe
f4
ec
f0
02
e7
fc
07
08
08
0e
09
fe
fc
fe
00
01
fc
e0
fd
e3
fd
0b
05
fd
f0
fe
f5
e9
ef
f8
03
0e
fc
00
0d
08
f0
f6
02
02
08
fd
fe
fc
01
06
f3
02
07
0e
0c
01
10
0f
09
02
f8
fe
03
01
00
0b
fd
03
05
f3
f2
ea
ee
f6
07
05
fa
fd
0c
03
eb
00
07
09
06
f8
f7
01
04
0a
08
fa
fc
fb
fe
02
03
02
06
04
ff
10
0f
04
f7
eb
fa
fb
f7
ff
01
f9
fc
ed
eb
fd
e6
ef
fe
06
0a
fb
05
00
fd
f5
0a
0a
08
02
f4
06
03
f8
00
02
fc
f9
01
fc
07
f6
fd
00
09
04
0a
05
07
03
fb
fb
02
e9
f9
0f
e9
ea
ee
00
0f
fd
fd
fe
04
05
f9
ed
02
ff
15
03
06
07
06
0d
fa
02
0a
e8
f5
f4
e6
02
fb
14
f7
f9
00
06
07
f9
ed
f5
ec
f1
fd
02
07
01
04
dc
bf
00
e6
fe
ff
fe
00
04
09
ea
ec
f2
f6
fb
02
02
05
05
0d
00
07
07
00
fc
01
f9
0f
fe
05
ef
f7
16
17
00
04
02
13
f7
05
ed
f5
f3
06
0e
e2
ed
11
e9
07
01
fc
fb
fe
01
fd
fc
03
04
01
01
01
04
03
09
ea
01
15
05
f7
fb
fe
04
ff
09
e4
e9
f2
f0
fa
00
01
11
02
03
01
01
09
08
0c
05
0a
08
05
01
fc
ff
fe
04
fb
e0
eb
0c
f8
f6
fa
fe
fc
fe
02
f2
ec
f4
fd
19
fe
01
ff
03
ff
ff
ff
01
ff
02
01
fe
01
00
01
fe
00
fc
01
02
00
ff
00
fd
fd
01
00
fe
00
00
ff
fe
fe
ff
00
fe
fd
fe
00
fd
ff
fd
00
00
ff
02
02
ff
01
fe
ff
ff
00
01
02
00
fd
ff
fc
ff
00
00
01
fd
ff
fd
02
fd
fe
fe
fc
fd
fd
00
fe
01
01
01
00
03
03
01
00
fe
ff
01
02
02
01
ff
ff
fe
00
ff
ff
ff
00
ff
00
fe
02
fd
02
fd
02
ff
00
ff
01
fe
fe
02
00
fe
02
fe
01
fd
fd
fe
fd
fe
fe
02
03
01
03
ff
00
fe
fd
fd
fd
fc
01
00
ff
fe
fd
00
ff
00
fe
01
fe
00
fe
fe
00
ff
fd
01
fd
00
fd
fe
01
01
fd
fe
04
01
fb
fe
fb
fe
fe
fc
fc
03
00
fe
f8
f6
f9
f7
db
d0
b6
d9
02
02
f8
e6
dc
01
ff
f8
fb
f9
eb
e8
f9
e7
f2
0c
0a
07
06
09
e9
e7
cf
bb
d9
02
f2
ed
f3
f4
f0
dd
f0
cc
b7
02
fd
01
03
02
eb
d3
b7
b7
da
fe
fd
06
fa
07
00
f6
f5
fc
0a
09
02
fe
f4
e7
05
fb
eb
e2
ee
f5
f1
f8
fd
fe
0b
08
05
03
fa
03
01
05
05
02
f9
f7
fa
fd
fc
e4
de
cf
e6
f7
fd
fb
fb
f7
ee
f8
fb
ff
01
06
06
00
fb
fb
fa
fb
fd
f8
f5
f1
07
d0
bc
d6
ed
f9
fc
fd
07
fe
fe
02
fe
f9
04
08
07
02
00
fa
f8
f1
f2
e3
e0
ff
fc
e9
ed
f3
ee
db
f0
fa
07
00
03
00
02
fb
f1
f5
f6
13
07
0a
09
07
06
06
fc
81
f5
00
04
f8
f8
f1
05
f9
03
07
0c
0c
0b
e8
e5
e1
ce
e3
00
fc
00
04
fe
da
e4
ff
09
11
04
03
0a
0c
0a
f4
f3
fe
03
05
09
09
06
07
02
06
0a
f7
02
fd
fe
fd
fa
ff
03
f8
08
fe
ea
ee
fe
fd
00
08
02
fc
f7
01
09
0e
d8
df
f6
01
07
fc
03
09
02
08
06
fa
00
05
04
05
01
00
01
fd
13
fd
fd
00
06
ff
ff
03
fe
fc
00
f3
e6
f7
fd
07
0a
ff
00
00
04
01
05
03
01
ff
fb
fb
fb
fa
03
08
02
02
fa
d7
da
f2
02
0b
07
05
03
0b
08
f1
f1
f7
10
0e
02
f6
f7
06
06
02
fb
fc
fd
f3
08
05
fe
e5
0a
08
07
04
ff
fe
0b
03
03
04
fb
09
03
f9
f0
0d
05
0c
01
03
05
ff
f8
f3
ff
0d
04
03
03
fc
f6
fb
fc
07
08
fc
fe
0b
0a
0a
fc
f2
fc
05
04
f6
08
05
03
fd
fd
02
00
04
00
0b
fe
00
02
f8
f8
0f
fa
f2
00
0c
f4
04
05
00
f2
f9
fe
08
01
f6
02
fe
00
04
ff
00
f8
f4
fc
02
f8
01
08
02
f7
08
05
00
02
f8
03
f9
f6
02
06
07
02
f3
e1
07
05
fe
f9
06
0a
eb
fa
07
00
f6
05
02
03
05
fc
07
06
07
f7
f8
02
02
ff
03
12
00
fb
02
04
00
fc
06
08
04
fe
05
06
05
e2
0f
fc
f5
f5
fa
03
fa
02
02
04
03
f4
00
e9
fb
06
f0
01
fc
fb
fe
03
f1
fa
ec
07
ed
fb
e6
f9
07
01
0e
05
00
0c
fd
07
fc
fd
fc
f4
09
04
02
04
f6
03
d1
ff
02
f8
e6
fd
01
03
fb
ec
f6
f7
fc
f0
f9
fe
ff
ff
04
09
07
05
00
f9
14
07
06
08
f6
f3
fc
f3
ee
09
1f
0c
07
08
f2
d8
ee
01
02
ec
f5
eb
ea
fa
fd
0b
10
03
ff
fc
ee
01
ff
fe
f5
00
01
04
01
fc
03
02
e2
0b
f7
01
fe
ff
02
ed
fb
f1
e9
fd
01
1d
07
0c
09
f2
fa
f8
ff
06
02
05
06
0a
09
fd
fe
01
0a
02
ef
ec
ef
ef
f9
f0
ec
fb
fe
01
03
fe
fb
fa
fd
02
ef
f1
ff
08
05
08
06
00
04
f9
fc
fc
0d
09
eb
e8
f8
f8
00
03
09
06
02
04
fb
f9
f7
07
05
f8
fb
05
12
f8
11
08
f2
e8
06
ee
fd
09
01
f4
ef
f7
05
0c
0a
e8
ef
0e
0f
f4
f5
f6
0a
06
02
e1
fd
02
05
05
f1
fe
04
0b
fe
04
09
ff
fd
06
db
ed
fc
07
1c
ec
00
04
fa
f6
e9
f1
08
0b
fe
f4
f5
fd
02
01
fa
fb
fa
00
04
ea
ea
06
0d
fc
fc
02
05
01
06
fa
f9
09
11
04
0a
08
03
fb
02
05
f2
ef
f9
08
f4
fc
00
00
07
ed
fd
ff
ff
0e
fa
fb
0c
08
06
f4
fb
fc
fb
f8
fb
ef
fc
04
06
dd
ed
0d
10
f8
f6
fc
04
12
0e
fc
fa
ff
f0
f6
f7
f8
f6
f2
ec
0d
03
03
11
f6
09
04
ff
fc
f8
fd
fa
fc
00
00
03
02
09
11
f6
08
07
01
f7
f3
f5
f9
fd
ff
f4
07
04
fe
ff
fa
04
fb
fa
fa
04
0a
05
00
09
0f
fc
f7
f2
f7
ff
03
fe
fb
f2
f5
01
04
f9
05
04
fd
fe
fa
f9
ef
fb
03
01
f8
f3
fe
f7
fd
05
07
ff
fb
f5
fb
07
f9
f6
f5
f9
fe
fa
fb
fa
f7
f4
02
fe
f7
fa
01
01
fe
f7
f3
ee
00
ff
f8
f6
f8
02
f5
fa
f4
ed
fa
fe
09
08
f6
f6
f8
fe
04
07
00
fd
fd
01
f3
09
02
fb
fb
f4
00
fd
fb
02
05
f5
00
fb
f9
fb
06
04
fd
01
05
05
03
01
03
f5
e8
e5
f6
05
05
03
04
00
02
08
fc
da
02
09
1d
fd
f5
ee
e3
df
ed
f8
f0
f8
fc
f8
cf
fa
0c
21
fb
ee
ef
00
08
f5
f5
ff
02
0a
fe
00
11
03
f6
df
f0
03
0a
05
fd
02
0d
0e
f8
fd
fb
04
0b
05
fa
f0
eb
e6
f4
f7
f8
01
08
06
02
03
07
fc
04
e1
e8
f1
fc
04
03
04
0c
fe
ed
f8
fe
05
07
02
d9
e3
f7
fd
fc
f6
f4
fe
02
04
02
fc
03
07
00
f9
f5
f5
ff
06
ed
ef
f4
ff
00
fa
f3
fc
07
0e
e3
d9
03
04
07
f6
fa
0a
fd
04
f0
e0
e1
f2
fa
fd
fe
fb
09
03
f1
01
ff
03
f7
d9
dd
f1
fb
00
ff
06
0a
0b
fd
02
f6
f5
07
1a
ff
fd
fc
fe
f1
fa
ff
06
07
0b
03
fe
00
02
04
e0
ea
01
02
02
f7
fb
00
e4
ee
03
fd
fe
02
01
02
f9
f6
fc
02
01
fd
04
02
ff
ed
e2
fe
f9
01
f5
fd
03
ea
14
f6
de
e6
fe
0c
f0
fd
f4
eb
fd
e7
f7
02
06
05
fc
03
03
03
f2
fb
fd
ff
fe
f8
fa
f5
f1
fa
00
f6
f1
fd
fe
05
f0
f8
f5
f3
0e
01
fc
fc
f0
ed
03
fb
fc
fb
f7
e1
f1
f6
fe
06
f6
fe
05
02
0b
01
f9
fa
04
f6
05
fd
03
07
08
fe
fc
f7
fc
f6
03
02
09
ff
00
f2
fd
02
fe
02
f3
f9
00
fb
fd
04
0c
09
11
f2
ff
fa
ff
fb
e1
ec
e1
f6
01
0d
00
00
fd
03
fe
02
ff
ff
fe
02
00
fd
fd
00
fe
ff
00
fd
01
fe
01
fd
fd
02
fd
02
fd
fe
fe
00
01
01
01
fe
fe
00
01
fe
00
00
fd
ff
fe
ff
fe
00
ff
01
02
fd
02
01
fe
01
ff
00
fd
00
01
ff
fd
01
00
01
fe
00
00
01
01
ff
00
ff
fd
ff
00
00
ff
00
ff
02
ff
ff
01
fe
01
00
01
01
01
00
01
00
01
fd
00
fe
01
fe
fe
01
fe
02
02
fd
02
00
fd
ff
fe
ff
ff
01
ff
fe
02
00
00
01
fe
02
00
01
01
fe
fd
fe
00
fe
ff
00
02
00
fe
ff
fe
00
01
01
fd
00
00
fd
ff
fd
fe
ff
ff
ff
01
02
01
02
02
00
ff
fd
fd
fd
fe
00
fd
fe
fe
ff
fd
fd
f9
f1
f1
fa
04
05
03
02
06
fd
f3
f2
f8
08
eb
f4
fb
f8
00
f2
e2
fa
fc
04
f8
f4
ef
f4
04
ec
f6
f7
fb
00
07
05
fe
fc
02
ea
f7
f9
f9
01
f5
f4
0b
f9
07
e2
e1
f1
f0
fc
f3
f5
fa
fa
02
f0
fc
00
01
04
04
03
06
0b
04
00
02
03
f7
ff
ea
f6
ef
fa
fa
f8
08
ff
fe
01
e6
e3
e6
f6
03
f3
ec
e7
de
fa
05
04
01
02
09
e6
e6
f1
f5
fe
fc
ff
fe
03
07
05
fa
fd
12
0a
09
03
02
02
09
fe
f3
e6
f5
f9
fc
fe
03
0a
0c
fa
fc
fc
ff
04
fc
05
03
ff
03
04
02
01
0a
04
f5
ec
ea
ef
f6
e1
eb
f1
f7
03
f5
f2
f3
fc
08
ff
fa
f7
f6
f7
06
00
03
f6
f4
fa
ff
fb
02
01
fd
02
03
f8
fb
f7
fb
f3
ec
ed
fe
ff
f7
ff
f3
09
f3
fc
00
03
07
03
01
fd
f8
f9
03
0a
f8
fc
08
f0
fa
f7
ec
f7
01
09
f9
f6
06
f7
0d
fc
f9
f9
01
00
fb
f5
fa
08
00
06
05
f9
fd
f9
fa
f8
fa
fc
fd
f7
f1
f9
00
08
fb
07
0d
fd
03
e9
e2
00
fe
04
00
f9
02
fe
fb
f9
ff
0e
fb
07
fa
f1
fc
ff
ff
f5
f5
02
04
fc
fb
ec
01
02
fe
f7
f2
fc
fd
ff
f8
f7
06
08
03
05
fc
fe
fa
ff
fd
f7
04
02
00
02
01
08
0a
fd
fe
fd
02
ff
ff
fd
f9
00
00
07
f4
f1
f6
00
f8
04
fa
04
fe
fb
fa
ff
fe
fc
fc
f9
f9
f3
00
f8
fb
fd
0a
01
fb
fa
00
05
07
03
03
05
f7
01
fb
fa
ff
0c
f8
01
f9
f0
04
04
ff
fb
fe
01
02
fd
fb
fd
08
01
fe
f3
e5
04
06
01
fd
fc
00
e8
e7
ea
f3
02
fe
fc
ff
f8
03
01
04
04
ff
f7
01
fe
f9
f5
01
09
00
05
0d
00
07
fc
fa
fa
04
f0
fd
e9
ec
07
01
ff
ff
fe
0a
04
fc
fc
fe
0d
f6
02
ff
fe
fa
f9
fb
f6
f9
fc
fc
f6
f7
f4
f5
03
fe
fa
f8
02
05
fd
fa
fa
0b
f7
f8
fb
07
00
fd
00
fb
f7
00
04
02
02
08
06
04
03
03
03
05
03
fd
00
fd
03
05
06
fc
ff
e9
00
f9
f8
fa
09
08
fb
ef
fc
f8
ff
04
07
07
f1
f3
fc
fc
09
f5
ed
fc
ff
03
ee
e6
05
08
08
f1
f5
fc
fd
0e
f1
fb
f4
fd
06
06
0a
05
f4
ed
f7
d9
ef
f6
f5
fc
fa
f3
06
0c
20
f1
f0
fd
01
fd
f4
f6
ff
08
f5
f8
03
06
0c
fd
01
0a
06
f9
e3
f5
03
fb
fa
e9
e4
da
d9
e8
00
ef
f9
01
f8
f9
e7
f7
07
0d
07
01
02
02
06
03
03
ff
f5
f8
04
ec
ec
08
0a
ec
f9
01
03
07
02
f6
f9
03
11
00
02
03
02
00
05
04
f8
ec
f4
fd
f3
07
00
ff
f1
00
02
04
0b
fb
fe
00
fe
01
fd
f2
f8
08
f1
08
02
fb
fe
04
fa
de
ed
08
08
f5
f4
f7
ff
08
e5
e4
ec
01
0f
fb
00
01
00
05
ef
ed
f9
fe
17
01
00
06
07
08
fc
00
f3
f1
fb
ee
ea
f9
fb
11
fa
fe
fa
03
0d
fa
ef
ef
ef
fd
fd
fb
05
01
04
d8
d7
e5
f6
07
ff
fc
fb
01
04
f4
ef
f4
fa
01
03
04
08
08
0a
06
03
05
09
00
04
02
08
03
04
ea
f9
0f
19
ed
fe
06
09
04
03
fb
f1
fc
03
0e
dd
ec
f6
f2
0b
0b
07
01
03
08
05
01
00
04
02
ff
00
05
04
06
f7
04
0d
f8
f7
fa
ff
ff
01
06
e1
e6
ec
f1
fe
00
01
11
09
08
fb
03
06
03
09
05
05
0c
06
0c
fd
ff
04
04
fc
db
e7
fb
ec
00
fb
fe
fc
01
ff
ed
ef
f2
00
19
f3
ee
fa
01
01
09
01
f9
fa
f2
13
d8
e6
01
01
00
fa
f4
e8
e2
dd
dc
e7
ed
f7
0d
e0
f1
02
fd
e6
f0
f6
fe
00
f6
f7
fd
04
03
ff
fb
fb
f3
d5
de
f1
f8
01
00
0a
07
fb
fa
ea
0a
0b
07
06
ff
fd
f6
f0
e8
e9
f6
ef
06
03
0c
02
f1
fc
f0
fb
04
eb
ed
e9
eb
f0
e7
ff
fb
00
06
08
04
ff
f6
f9
fe
03
05
04
f4
f8
02
f9
fa
09
09
00
fe
f1
fd
fa
f0
ee
ee
e3
ea
f2
f7
fd
fa
ef
f2
f9
f4
ea
e8
f4
00
01
06
f9
fa
f9
fa
02
f7
f8
ec
fb
03
f4
f8
02
ff
f6
ef
08
01
0d
f8
fd
fe
05
03
10
0a
01
f5
ec
f7
df
e8
00
09
02
fb
f8
f1
f7
fd
fd
01
00
ff
f8
ff
f6
fa
f8
ed
f9
02
04
fc
fb
ec
e7
ed
ef
fe
02
fa
f8
ec
0a
f9
fd
ff
f5
03
03
fe
fa
fd
f1
fb
07
00
01
08
f9
e7
da
e8
fb
ef
09
02
02
04
e0
fd
07
05
f5
fe
05
00
fa
fe
f9
f7
fc
0b
f5
fd
fe
f8
fd
f1
fb
f6
f3
f0
f3
ff
fc
f5
04
0e
f6
09
f9
f3
01
01
ff
fe
f4
ff
fc
fb
fa
fd
0f
f4
04
08
01
03
02
05
ff
fb
f9
fc
fc
fa
f1
fc
05
fc
f8
f8
fd
02
fe
f8
f5
02
ed
00
fe
07
fe
00
04
fa
f1
fb
01
0a
06
09
05
04
f8
f0
05
04
01
ff
fc
f6
fb
f3
0a
07
ff
f4
fe
f6
00
fb
04
fb
fe
03
fa
02
04
04
09
0a
08
00
cd
f9
09
f7
e9
db
dc
ed
f1
d5
d9
e4
f8
06
f4
cf
f7
08
f8
f6
fa
eb
e8
09
03
02
08
00
fa
ef
e9
f0
03
ea
f3
ee
ea
ff
0a
00
e9
e6
08
09
05
03
ff
08
f0
eb
ea
ee
f5
f5
fd
fe
fb
f9
02
00
f6
ef
02
0a
f6
d0
d2
e8
eb
ec
ed
ea
16
01
fe
f5
f6
0d
00
fb
fa
f7
f9
00
fe
fe
fb
00
07
00
fb
f7
06
f9
f9
f6
fb
06
f5
ec
f0
f3
e2
02
02
00
07
0b
ff
fb
f7
fc
f9
eb
fe
fd
f4
f3
dd
da
d1
e5
f4
f7
fc
f6
fa
f6
ff
05
07
fe
fa
fe
fb
f8
f9
f6
04
fc
f5
f8
07
fd
ff
dd
d4
f7
