c4
ec
cd
dd
f7
f1
e3
f7
f1
f3
db
0a
f2
81
a2
d0
ff
f4
df
ff
f8
f8
17
fb
0f
e4
fd
29
00
b0
ca
e0
03
10
fe
f4
f2
df
fc
a6
f3
e6
f6
07
ce
ec
fd
49
f8
f7
12
c5
eb
fb
f1
ed
f2
ba
ed
fb
dc
fb
28
fe
06
ae
1f
06
ef
b3
ed
c1
fd
b7
c1
00
04
f4
bf
ae
d1
21
f6
ce
19
cf
dc
1e
2c
d8
35
30
d4
05
f8
e8
e5
09
df
c4
ee
df
ef
c8
19
d8
fb
f9
35
0f
cb
e9
ee
e0
01
08
fa
f9
f4
e6
f3
be
f8
eb
ef
e7
fd
03
