07
fe
26
39
a6
1a
26
ef
d6
9a
56
68
a7
e5
b4
d7
9b
c4
ed
4f
48
05
da
f9
77
5c
6f
c8
dc
99
18
df
72
b4
c7
5e
3d
68
bc
91
1d
ac
ee
d5
5a
c1
c7
4b
4a
3f
8f
ef
fa
d5
7d
a5
b2
07
44
71
f3
c5
b2
d3
f6
fe
d6
e8
5b
e6
5a
d0
bb
01
31
7b
08
e4
1b
d8
39
c5
bc
c1
5a
ce
ad
00
0f
5a
f4
32
c1
43
1a
f7
ee
23
e9
e5
b2
cf
01
77
f2
1d
09
f7
d4
cc
10
ec
29
e6
d2
58
f3
5e
81
c3
3e
19
45
e8
af
04
42
9e
0e
18
17
29
98
f8
d4
04
d8
04
33
ec
f6
15
20
9e
42
09
d1
5b
f6
fd
aa
a1
e8
1c
61
53
d8
26
82
d2
