ff
eb
f9
fe
fb
06
05
f0
fe
f9
fb
09
09
ed
ed
fd
03
16
11
0d
f0
ef
08
0f
fa
fe
01
00
00
fd
ff
ff
03
fe
f9
e2
ec
01
06
f2
f8
ec
fb
0b
02
ff
08
f2
ff
ec
f4
04
09
f4
f0
07
0d
17
0f
f7
e3
f1
fe
f9
f5
f3
f6
01
02
03
07
06
01
ed
f3
f8
f4
fe
02
07
0a
06
08
fb
f7
01
00
ff
fe
01
02
01
03
01
03
e2
ec
fb
04
eb
06
f7
f0
0e
04
06
06
07
f5
e9
16
2d
23
16
06
f9
01
00
16
0e
fb
01
02
00
13
05
f8
fd
f6
fb
f1
02
f7
fe
f9
f2
fd
fe
f3
ee
ff
02
04
03
02
fd
f7
fa
ee
f2
11
ff
18
f2
fd
00
ff
13
03
00
f9
09
f3
f0
ee
ff
09
0d
ff
08
04
01
0c
08
02
0b
0a
0a
08
07
fe
fe
fe
02
00
f1
fe
fd
04
02
f5
f5
13
16
f0
f2
f0
ff
03
06
fc
01
fe
fd
fd
00
fe
00
01
00
03
fa
fe
0c
15
f2
f6
0e
03
08
eb
fc
f7
ff
e9
fe
f8
0c
03
07
00
fd
00
00
02
0e
06
f6
ff
09
f6
f8
fe
fa
01
fe
0a
0f
fc
0b
ec
02
09
0b
10
f1
08
09
fb
f8
03
15
05
0b
fd
fa
08
fa
03
e2
fe
fa
01
05
03
fe
fd
fd
fe
fe
f7
02
0d
f9
ff
03
ff
18
15
0f
04
10
0a
09
17
05
01
05
00
f7
fe
fa
0d
04
00
0c
16
fa
f9
fd
fc
f8
fe
11
07
12
12
00
ef
e9
b0
c3
ec
f6
03
f9
fe
0e
09
0c
0d
f7
ef
e1
00
20
15
06
08
fc
f8
14
11
f9
fd
02
03
00
01
01
ea
0b
f3
f9
f7
d8
f6
fb
f6
03
f5
06
f4
29
ee
ea
f8
ff
04
05
0c
0f
0d
fc
ca
ed
f5
fc
03
12
d8
e9
e0
e3
f5
01
16
02
ff
f5
f9
f5
07
01
f2
0f
15
10
0f
15
0d
08
05
02
e4
02
01
ff
fe
fe
00
00
04
02
ff
e9
ea
e8
fd
07
fb
ed
e7
10
17
10
14
fc
10
00
23
01
eb
f3
08
e9
ee
f7
04
10
24
07
11
05
00
0c
08
f1
fd
04
ef
ea
e2
13
16
e8
f7
e8
f1
fa
fa
f9
fb
00
ff
fe
fd
ed
ef
d4
34
0e
0d
07
1e
cd
d6
f8
eb
f8
e7
f3
f5
ff
03
f8
0d
19
17
f4
fb
fe
fb
12
29
0b
00
00
00
fc
01
fe
00
fc
02
fb
f7
00
10
0b
1a
13
09
06
f8
11
17
12
0c
0d
17
04
fa
fc
01
ff
01
ff
fe
fe
ee
e3
ec
fd
05
fc
f9
02
e0
fd
f3
f2
ed
fa
00
fd
11
14
07
10
fd
fe
fe
ff
01
0a
03
01
0d
f4
07
17
02
fa
fb
24
01
0a
fb
fe
f7
0f
1b
0c
ff
03
0c
09
03
09
03
f9
07
0a
fb
f7
05
04
09
0c
03
fd
f3
05
26
02
00
fd
02
02
fc
00
f9
15
34
1f
00
0d
06
f3
03
ff
05
05
09
04
0e
f2
03
12
09
16
19
03
09
ef
fa
03
fc
fc
0f
09
11
17
1d
05
08
03
04
02
06
0c
0c
f3
df
0d
0d
0d
f7
d2
1b
06
02
d5
9d
ec
05
15
08
b7
0a
00
03
d0
b1
02
02
ff
02
ff
fc
00
f3
ef
f2
fd
f9
f5
e8
ef
03
0d
13
06
d2
00
07
11
09
e4
de
f0
f4
0f
06
0b
fe
08
e3
b7
06
04
fa
d3
e6
04
00
e8
bb
bd
10
0e
08
ed
c4
0a
ed
d7
d6
b0
0a
fa
0a
02
00
02
00
02
02
00
fa
fd
fb
fb
fc
13
ff
fb
da
be
00
0c
0d
f4
d3
eb
df
e7
e6
b7
fb
db
00
d5
c9
f7
00
fc
f6
e3
0d
05
08
f6
c4
0d
09
08
f4
df
0c
1f
01
e6
df
ef
e5
f1
f7
ed
ff
fe
00
fe
00
08
0f
08
f7
da
18
04
12
e6
b9
00
08
0f
fa
c6
08
07
0c
fc
e1
f5
f8
f9
f2
fe
09
0c
ec
fb
e1
f0
e4
f6
f4
e7
01
01
02
02
fe
fb
02
fe
0c
f6
fa
e4
05
07
eb
11
e9
f0
e7
b9
f2
00
06
00
e9
01
fe
02
fd
fe
fb
01
0f
02
e9
16
02
fd
e4
a6
0e
06
ff
f1
da
07
f4
d9
cf
c8
01
00
03
00
00
f5
02
09
f9
f7
08
07
fa
d2
cb
12
01
01
ec
d4
02
ff
c6
ec
f4
d2
ec
10
17
05
06
04
0a
f9
b6
e1
e7
d9
06
07
06
fd
01
f9
d6
ff
01
02
fe
01
0d
e3
de
fd
e5
ee
04
0b
f2
e7
f4
07
10
0a
c3
01
14
f9
ee
e9
05
f7
d2
d7
c3
01
04
10
06
e9
f7
0a
13
0f
f0
00
ff
fe
04
01
13
0b
06
f9
e3
07
fc
ff
fc
f6
f0
e2
de
f5
df
00
ff
f9
16
11
19
19
0c
f5
05
00
fe
01
fe
00
15
08
fa
ea
fd
fd
01
f7
ea
d2
f2
fc
02
f0
fb
02
01
03
02
fe
f6
f3
f6
f6
ed
fd
00
04
f8
ea
0c
07
01
e8
d9
04
f7
07
1a
1a
0a
fe
fd
f4
04
fc
fa
0e
0b
12
ce
ec
fe
06
0a
01
ff
fe
fe
fd
f8
00
0b
fc
01
07
00
01
f8
ec
2a
1b
f9
d3
d5
dd
eb
df
ea
e7
39
12
fe
f0
dc
f0
f9
f6
f9
f6
05
f7
f7
03
fc
31
1a
fc
d7
dd
e6
fc
02
03
05
f5
ed
ea
d4
d0
04
07
02
00
05
ed
fc
e9
e2
e9
eb
e7
f4
07
01
0f
f8
d4
da
e1
0e
ff
fe
fd
fa
08
10
08
fe
06
1b
27
fa
eb
ff
0a
15
06
0a
0a
03
fe
fd
ff
fe
13
0e
10
fd
05
0a
48
1d
0c
36
f7
06
1d
06
14
f9
f6
f8
02
fa
00
00
ff
00
00
e2
1f
1e
f3
e5
01
f1
d4
ea
df
0e
01
00
fc
fc
ee
f4
20
15
0c
00
01
01
00
01
f3
fb
fa
fd
12
14
08
00
0e
04
03
f6
f1
07
ef
0a
e9
db
e5
e6
f1
07
f2
d6
f3
05
fa
00
03
f0
f1
09
11
04
fd
11
18
07
de
fd
01
03
ff
02
00
19
02
f2
e3
fa
ff
06
0b
04
17
06
0a
04
04
fc
23
19
09
d3
c5
f2
fd
1e
1c
16
f7
fd
06
04
04
03
1b
1a
02
fe
e6
fb
01
0a
11
fa
05
fb
fb
f9
f0
00
fc
f6
03
f5
01
fb
02
ff
f4
0e
09
07
08
fc
fd
0b
12
14
fd
fe
00
ff
01
13
11
0a
f9
ff
f2
09
fd
fa
07
05
0d
05
eb
f7
0b
06
fc
f4
e6
e0
e5
da
ed
ed
04
02
ed
f4
f2
f9
16
fc
04
0b
fe
0e
03
03
fe
12
15
01
f8
04
10
08
00
04
00
f7
de
e0
ee
d4
fe
01
01
fe
ff
05
05
01
02
04
09
03
01
09
06
d4
e9
d8
f0
0f
07
ee
e3
f7
e8
fe
f9
e7
f4
02
0a
02
fc
00
fd
f5
0a
02
09
11
0b
f9
ef
d5
ea
1a
0c
00
f8
fd
11
00
f8
01
00
fe
00
ff
02
fd
07
f3
de
e3
ef
0b
10
f4
06
f2
de
f2
00
ff
08
04
05
f7
f3
f8
05
23
ff
fe
fa
19
0a
fb
04
f2
fc
f3
02
02
04
01
ff
02
02
ff
13
ea
ea
02
f1
fc
13
1d
1e
08
15
ff
fe
f6
fa
01
07
00
0b
ed
01
01
00
01
ff
19
fa
04
fc
00
f0
fb
fa
02
03
ff
02
fb
fe
02
04
05
04
06
03
00
02
02
fe
ff
fa
e6
fa
f7
f9
dc
03
fe
f0
04
00
f4
de
f7
02
0b
15
f7
f6
ff
03
ed
f1
f8
02
e8
17
0a
fc
02
01
f9
f6
00
f6
1b
04
fb
f6
f1
01
01
fe
02
fe
28
13
f6
ea
fb
14
11
06
0d
ee
ea
0d
00
ef
f7
15
e9
fe
02
ec
0b
0d
01
09
04
02
04
f8
f3
f3
19
00
f9
fe
fc
fd
e8
e9
eb
f2
e4
f7
df
f2
da
fe
fb
02
fa
fb
03
03
03
02
ff
f5
f2
dd
d9
b8
0a
08
01
f9
f7
01
ff
01
01
ff
fe
00
fd
f4
01
f4
fd
fb
fc
fc
d1
eb
d3
d1
e8
f6
e6
eb
f0
ff
f3
ff
fd
00
f6
ee
eb
f5
03
fc
ff
00
00
fb
03
ff
00
00
fe
08
f9
f8
f8
f3
f2
fd
ff
00
00
00
ea
f7
fc
f9
02
fd
00
00
01
ff
02
04
02
00
fd
12
0b
fd
f8
ed
f5
fb
09
06
04
ec
02
da
d6
04
e8
f3
f4
04
ff
0f
ff
e4
e9
e8
f6
fd
01
03
03
01
fd
f8
0c
04
ff
fd
04
04
f3
f9
f7
00
fb
07
fb
fa
fe
ff
fb
d8
f4
02
05
f1
0a
08
07
fb
f6
ff
00
02
05
04
04
f3
eb
ea
fd
00
01
ff
fd
ee
00
fb
fc
f6
f1
fb
fe
ff
ff
ff
02
ff
01
ff
ff
00
f4
f4
f1
21
ff
01
fd
f0
07
fd
fc
fe
ff
fe
f9
ef
e6
e9
df
03
01
ff
ff
ff
f2
f8
e9
de
ca
0b
03
fb
f7
f2
10
0f
02
f6
e0
02
02
00
fe
00
01
fd
ff
01
00
e8
ed
f5
fe
00
eb
fd
ff
00
fc
0b
01
ff
11
fe
ff
fc
fe
fc
00
f1
07
fd
ff
1c
fc
02
05
00
ff
d8
ff
ef
f8
e3
fc
f9
02
01
ed
00
ff
ff
01
00
00
fd
ff
ff
fd
ef
f4
e2
e9
df
e5
e9
dc
cc
d7
10
fa
fd
f9
0d
01
fe
fe
ff
ff
f6
f2
f7
e8
f4
df
d3
e3
e3
df
02
f6
e8
ef
09
fc
f4
f9
07
08
f7
0a
01
fe
06
06
04
ee
fe
fe
01
ee
09
fc
f1
04
00
df
f3
12
02
03
01
ff
ff
08
fc
ea
ea
07
07
04
f9
fc
fa
05
df
f5
df
fd
0a
ee
05
0d
0a
fd
fa
e8
ec
e3
f8
ef
04
13
f9
04
10
fc
03
fb
03
07
fc
ff
fd
ee
10
04
ef
f3
05
03
fb
f1
f9
f5
01
fb
dd
e3
03
fe
fe
00
01
01
04
ff
fd
02
0b
f3
f3
0b
05
f9
13
11
ed
0d
02
ea
02
12
08
f7
d2
ef
0d
f8
0a
e2
fa
0c
07
e5
f9
f9
00
06
df
e0
d9
e8
df
0d
f2
ec
ee
fa
02
fa
e7
f5
f8
04
02
00
fd
02
e8
f6
ef
d3
ee
f6
00
09
ed
f9
fe
0b
09
f3
fd
02
ef
f9
06
07
19
0d
f4
fb
09
0e
ef
dd
f2
e9
06
08
ff
fb
fd
03
01
03
fe
fe
0b
fc
fd
08
04
27
eb
f0
04
16
12
0e
f5
f2
01
05
f7
00
f9
f2
ff
ff
02
02
fe
03
f0
fb
eb
f6
10
fe
db
02
05
0e
fa
e1
08
03
05
0a
0a
fd
f3
fd
02
02
02
ff
f2
12
14
f1
ee
fd
08
0e
09
ff
ef
fe
02
fa
f1
03
fb
e5
ef
03
e6
08
fa
0e
ff
01
2e
14
01
0f
f9
e8
00
10
05
ff
dc
e4
fd
fd
ff
02
ff
03
02
f4
f9
d6
f6
fa
0b
05
04
f9
ec
0c
ed
08
ef
fc
e9
cf
0a
0a
07
04
08
0c
11
05
11
f8
e5
f0
00
35
11
f6
f5
e9
f9
fb
08
f9
c8
fd
fa
fe
fd
02
fc
fc
01
fe
fc
00
ff
01
fd
fd
00
fe
01
fb
00
fd
fe
fe
01
fc
ff
02
01
ff
fe
fc
fe
fb
fb
fd
fc
fc
00
fd
fc
ff
01
fd
fb
01
fc
ff
fc
fe
00
fe
00
02
00
00
fb
fd
fd
ff
fd
01
01
01
fc
ff
ff
ff
02
00
fd
fb
fe
fc
fb
ff
fe
00
ff
ff
fd
ff
00
01
00
fe
00
00
02
ff
00
02
ff
02
fd
02
fb
fc
fd
fc
00
ff
fd
00
01
fe
fd
fd
fe
02
01
ff
ff
fd
fb
fb
fe
fc
ff
fe
fe
fc
fd
ff
fd
fc
ff
fe
fd
fc
ff
00
fd
fe
ff
fd
fe
fe
fb
fb
fc
01
ff
01
00
02
ff
fe
fe
fc
fd
00
fd
00
fd
fe
fb
fd
ff
fd
ff
fd
ff
ff
ff
fe
fe
ff
01
fd
ff
02
ff
ff
fe
fb
fe
fe
00
ff
03
00
02
02
01
00
fd
fe
fd
00
fe
fd
02
00
00
00
fd
ff
01
02
fc
ff
fe
fb
ff
ff
fd
02
fd
01
fe
fc
fe
ff
fe
00
fd
fc
fc
01
fc
fe
fc
fc
fc
fe
01
01
00
00
ff
fd
03
fe
ff
02
fe
fe
02
fe
fc
ff
fe
ff
00
00
fc
fe
00
fc
fd
fd
fc
fb
fd
ff
fd
fb
00
fe
fd
fe
fc
fd
fe
ff
03
00
02
ff
ff
05
03
00
fb
fe
03
ff
ff
02
02
00
00
fb
fc
ff
00
fe
01
fc
ff
fe
fd
fe
fe
fd
ff
ff
00
fe
fe
fc
fd
00
fe
ff
fc
fc
01
ff
00
00
02
00
fe
fd
03
02
04
01
00
c9
db
fa
fd
f8
fd
eb
f8
f2
02
05
ec
fc
fe
ff
0e
fb
03
ff
ff
f3
e9
f3
fc
ff
01
02
00
02
fe
e8
e9
e7
f0
f4
e7
e5
eb
f0
12
02
ed
f7
fe
07
e5
f3
fd
ff
03
09
09
0c
04
ef
e8
f5
ff
03
10
da
db
e1
eb
0a
f0
ea
e8
f5
f3
f6
01
f6
fc
0a
f2
f4
f5
fa
f0
03
05
02
ff
eb
fe
00
02
fe
fe
02
05
08
06
04
ce
dd
f7
fc
fe
f4
ee
f6
f0
08
e5
f0
07
04
01
ff
ed
01
02
06
e2
e7
fc
03
07
09
eb
f9
f6
fe
00
ed
ee
f4
e2
e9
ce
e7
24
e9
f4
f4
ee
f6
f9
00
01
01
00
fd
fc
eb
ed
eb
f4
0e
04
fd
17
05
fd
f5
f7
f2
11
e4
e9
fa
fb
01
e7
ee
ec
f6
ed
e6
ec
f7
0f
e7
04
ff
00
ff
fb
00
00
ff
00
03
d8
ef
07
fd
0a
0f
04
03
09
e4
e8
e9
f1
f9
eb
02
f3
f5
ff
02
fe
00
00
fe
fe
f0
ce
df
02
0d
f3
f2
fb
fb
00
e6
e8
f6
01
00
e9
ef
ec
0a
04
fd
02
00
00
00
01
02
f7
f6
f6
f6
05
f3
e9
01
ff
f2
01
06
fc
f5
fa
fe
04
04
04
fc
00
fd
06
f9
ec
ee
0a
10
01
fd
fe
00
fe
fb
d7
e9
fa
f4
03
fe
02
fd
01
fc
eb
fc
15
0a
09
f7
fb
fb
06
05
f7
fa
00
0b
dd
ef
05
06
fc
f2
00
e9
02
0f
f6
fb
f9
02
02
0f
07
e6
f7
08
00
02
03
fc
ed
08
f3
fd
f9
fd
fe
0c
f9
f5
fa
0b
13
08
f3
fb
e6
f1
f1
fc
fe
f6
e5
fa
04
f9
00
01
ff
ff
01
f1
0a
03
06
0c
f1
fa
ff
07
02
f5
ef
f8
f9
ec
f1
c8
df
eb
cc
08
0c
03
fe
fa
d5
f6
fd
fa
f4
ec
f6
01
0b
0f
ea
e9
f9
0f
0a
0e
18
13
12
02
f2
e9
ff
f8
fc
0a
0c
00
f8
f1
fe
fe
00
ff
ff
fe
fe
fb
ff
03
f3
ef
05
e5
ed
f7
05
08
fd
e7
ef
f7
04
e9
ef
e4
00
09
e5
09
cb
c8
d4
ee
f5
d9
de
e8
f7
fc
fe
07
fd
06
0b
f5
fb
fc
0b
0c
fc
06
02
0b
0b
02
fe
01
ff
fe
ff
01
fc
04
06
e1
1f
11
f4
23
fa
0a
14
e3
fb
e5
d6
f2
f1
e1
f6
fd
f9
00
01
16
ff
f8
01
ff
fe
f6
00
10
0a
fe
fe
ff
01
fd
bf
18
ef
ee
05
d6
ed
e6
ef
02
f0
e3
fe
f9
fa
e5
f7
f9
f2
fc
00
01
00
ff
ff
de
f6
f7
fd
09
0d
f6
ef
ea
dd
f1
e3
ee
e2
ec
ea
e0
05
f9
00
ff
ff
02
ff
02
fd
02
fd
f3
cc
e8
de
e8
03
ff
ee
09
0a
03
ff
f7
0b
04
fe
0e
f2
16
0d
f5
ff
02
01
10
f8
fc
1b
05
fa
e5
d3
09
02
f4
02
0b
00
ff
fd
00
fe
ef
04
fb
fa
fe
d9
f9
06
f8
2e
f9
ff
06
16
19
f7
0f
ff
0a
12
ef
e1
03
f9
01
02
cb
e0
ee
e0
ea
0f
0b
0b
1d
12
07
fd
f1
dc
f1
d8
f0
eb
ff
f8
f8
02
f6
f6
fd
01
fa
f2
04
10
01
18
15
12
08
1e
05
e7
0d
01
00
00
03
ff
02
1d
f6
e9
ef
ee
f6
f1
f8
00
f9
07
fc
16
0c
ec
f7
f8
ff
ff
07
07
0a
08
11
f1
f8
f8
0d
11
f7
f2
f7
f5
ed
1c
18
0f
ec
eb
02
fc
f6
01
1e
1c
0f
0e
13
01
04
00
03
09
02
fe
ff
ff
02
fe
ff
02
00
04
02
f6
ee
e7
ff
06
fc
ec
e7
f6
11
fa
04
0e
0c
0e
1c
09
0b
06
12
fb
fa
fe
0c
08
03
06
07
e8
00
08
f3
f7
01
15
04
ff
db
f3
fd
f4
f4
f4
ec
ea
fe
ff
fe
00
01
f9
ed
ec
e2
f4
0a
02
1c
0a
46
f8
04
ff
02
01
ea
e9
eb
f4
ff
02
0e
10
00
f8
02
06
e8
ef
0a
02
01
02
03
0d
fd
ff
01
03
ff
eb
f0
09
0a
07
17
16
04
0d
f3
10
12
0c
07
fd
00
fb
05
0e
06
02
03
fd
03
fe
fe
f4
f1
f9
08
12
02
03
f6
05
f0
ea
df
ef
fb
17
13
0b
0f
06
01
02
00
fe
fe
03
fd
07
f2
f5
19
1d
17
ee
ef
0d
0f
00
fd
fb
07
10
10
ff
f3
02
f7
fd
0a
06
00
07
07
0a
0a
00
02
05
03
fd
0e
15
f1
fe
08
fe
01
01
01
03
18
19
fe
04
0c
03
0a
12
1f
2a
ff
03
10
09
10
05
fa
f1
0b
06
12
10
0a
0c
03
f2
03
ff
f3
11
08
23
11
26
2a
fd
fe
06
10
01
b6
e1
e1
dd
dc
fb
04
ff
fc
07
0a
06
03
01
05
9f
a1
b0
fa
f5
ff
f7
f9
03
06
02
01
02
01
fe
04
0d
f0
e4
cb
f8
f9
04
00
e6
a9
c8
e7
fe
02
d8
eb
fd
ff
00
fe
0f
ea
ed
f0
d9
f0
e5
e6
fa
01
01
fe
01
fa
f7
fe
02
ff
f8
f9
eb
e4
ef
0e
ff
fc
fd
02
ec
d3
e9
fc
fa
00
02
03
03
ff
02
06
01
02
fd
fe
fc
ef
f7
01
09
18
0d
ff
02
01
bc
df
bf
d1
fc
da
ec
ed
ea
02
eb
f5
04
04
08
0a
09
03
fe
09
0b
0f
04
03
01
f5
01
f9
d9
de
f6
ff
f1
e4
ce
ff
05
03
02
05
05
fe
fd
07
ff
e8
e0
f3
e6
04
13
0f
06
05
09
f0
f8
fe
ff
fe
fb
ff
fd
00
eb
00
00
f6
d9
b1
03
02
01
fe
f9
fe
01
ff
01
fe
e4
fe
de
f2
10
fe
01
01
f6
ee
ff
01
02
f9
da
da
de
e8
fe
f0
ff
01
00
ff
02
bb
cc
d2
fe
f3
06
f6
fd
03
fd
fb
e9
f5
ff
ff
ff
00
00
ff
ff
00
00
fe
ff
ff
08
07
04
06
07
e9
f2
f9
fa
e3
f8
f9
ff
f7
fc
fa
fd
01
f3
d9
dd
f7
c5
c2
e9
04
06
03
f9
ff
e5
f3
ff
e5
d5
07
fa
d1
f2
b0
01
01
fe
fd
ff
fe
fe
01
f6
cd
d8
de
d2
f4
0c
b9
c7
d1
04
06
fd
04
06
ff
f5
fd
fe
fe
00
00
da
ea
f5
f9
f7
c5
d7
d6
e8
04
e4
f3
01
ff
05
ff
f5
05
0b
fb
f9
03
00
07
f9
fe
0a
f7
ed
df
fe
03
fd
fe
10
04
06
08
ed
fe
00
00
03
02
01
ff
04
14
fa
15
fc
e0
f3
f3
08
02
01
02
01
02
f6
f2
f8
f3
ce
09
fb
04
02
0a
ef
03
0b
f5
ea
0a
ed
fa
0a
07
f9
f7
0b
fd
16
fe
0a
0f
0c
eb
e7
07
01
fb
fc
02
05
f8
07
15
02
ff
fe
01
00
fd
07
01
08
02
0f
f2
0c
08
e0
fd
fc
fd
09
e8
fa
fc
f3
fb
0d
09
f7
03
f1
e8
07
ff
00
f9
0b
f1
05
fe
06
f3
f3
04
ff
e0
fc
db
f9
f8
d2
f3
fd
fa
0a
eb
0d
fa
ff
01
fe
01
fc
02
01
e1
f6
f8
0a
04
e8
e0
fa
fa
03
0c
08
f3
fc
05
0b
e8
fc
ff
ef
ef
07
f5
09
fe
11
09
02
fe
04
00
fb
ff
00
ff
02
02
ec
07
07
f3
0f
06
09
09
ef
f8
ef
fa
11
f0
f3
f8
05
04
f8
04
fe
02
02
fe
00
06
fa
f8
e9
f9
11
0d
e4
f5
e8
0f
fe
ff
fd
f0
05
02
f4
0c
0b
03
01
00
02
03
05
f7
fd
fb
fe
fd
fd
06
14
0b
01
fb
08
0b
f9
04
f1
06
ef
17
e5
fc
03
f1
17
f5
f8
fe
02
e7
e9
06
0e
09
fe
f7
0c
0e
f4
fe
02
01
fe
fe
02
fc
04
f9
eb
1a
09
08
0e
f4
e9
04
04
fb
03
ed
f9
f1
02
fa
01
05
f7
f5
fc
0b
f8
fb
fd
f9
d4
0d
01
07
fa
f9
fc
fa
f8
15
0f
ee
03
ff
ec
fe
fc
06
04
ff
0b
f6
f3
06
f5
0a
08
0e
e8
10
04
fe
06
01
07
03
02
fd
01
02
02
fa
fe
11
f3
0f
ff
f8
02
f0
f6
07
09
eb
fa
f9
0f
f3
f4
ea
03
0b
19
0a
03
f7
fa
00
0a
14
0f
f9
06
00
f4
f8
04
06
00
0a
ff
01
07
0a
f2
15
13
0d
f8
08
03
03
f8
02
08
fa
02
fe
ff
ff
fe
f8
00
ff
fd
f3
f7
ff
f9
e5
09
06
0b
02
fa
fc
1a
f0
04
0c
f7
0d
f4
0d
18
fc
01
fe
fd
18
24
f2
f9
05
f7
17
04
f0
f0
f8
02
1a
fd
ed
e8
ff
00
fe
f6
fd
fe
04
07
06
05
05
00
f7
df
fb
f8
07
f6
02
f3
11
03
02
fb
f7
f5
eb
fe
fd
ea
04
03
fc
08
ff
12
14
2f
17
18
0c
15
1f
35
16
03
fe
01
fe
ff
02
07
f8
10
10
10
ff
03
07
02
06
1f
03
fe
14
0f
00
02
fe
04
07
02
ff
03
fe
fe
08
04
f1
f9
05
ee
01
01
ff
04
ef
f9
fe
e4
04
0d
ff
f4
f6
fb
ff
fe
01
01
00
03
0d
fd
f7
fd
06
0a
07
f7
09
fe
07
07
f5
1c
0e
00
10
10
1d
fe
d5
fd
fd
e4
0a
10
09
ff
24
04
f1
f4
03
d3
0d
fc
fa
05
0c
ff
ff
fe
fd
02
21
09
12
11
18
09
0e
07
1b
18
08
07
fd
0f
07
fc
eb
06
fb
0b
00
f3
f6
f3
00
eb
05
f8
f1
00
0c
ff
07
1d
12
ec
07
0b
0a
05
f7
f7
f0
fd
f1
0b
fe
f9
00
fa
07
0d
03
f4
0b
00
08
09
0b
fb
02
03
07
f7
ff
02
00
02
03
01
fa
ec
04
09
15
0e
f4
f2
f6
ff
fc
fe
05
fc
f8
02
fe
fe
fc
fb
07
0b
fe
02
fb
0a
f8
07
fb
01
0a
ed
e6
f3
f7
13
ee
e9
06
09
1c
16
f8
06
05
f6
ed
fb
0b
0e
00
00
05
fe
f7
01
01
fe
ff
02
04
01
02
03
03
f8
f7
fd
fe
f9
eb
fc
08
06
03
0a
ff
ea
dc
06
22
10
02
fc
13
ef
de
f9
03
fa
fe
01
fc
07
08
e8
03
02
f6
04
df
eb
06
0d
10
f7
e3
f5
f3
f9
0c
0e
06
09
0a
e1
f7
f5
f2
fb
21
1f
19
fe
1b
ed
f7
07
fc
fe
04
04
fd
f8
fa
0f
ee
03
1a
0f
ed
fe
07
02
11
13
1f
04
04
17
01
fe
00
00
ff
18
0a
0a
fd
ee
06
20
11
04
f4
f6
eb
01
06
0e
ee
f8
05
01
f0
00
01
00
02
fe
d7
ff
0f
03
06
fc
fd
f9
ed
f1
f9
f2
ed
f6
f7
06
e9
ef
1c
11
fe
01
03
01
ff
fa
03
fc
00
04
0d
fd
f4
00
05
09
11
0c
0a
12
02
f9
09
13
02
00
f7
05
0e
0f
14
0a
0a
04
00
fd
06
05
ec
df
eb
00
05
03
0f
fe
01
02
fe
ff
de
ee
0a
19
18
02
0d
1b
0f
fe
fd
03
09
14
01
ee
dd
fb
0a
14
03
f0
f2
18
16
0d
03
fe
01
05
0f
07
0e
fd
ec
f6
02
0c
01
fb
e1
d9
f2
f2
0d
fd
0b
de
fa
f1
0b
05
fd
fa
05
f1
e1
05
e4
c5
16
0c
01
0f
05
00
02
ff
ff
fd
08
d0
fb
0e
fe
1b
1b
03
fb
e6
0a
16
f8
ea
e3
f4
f1
0e
0c
01
fe
ef
e3
a6
d8
e3
16
ef
fb
e2
1b
12
06
fa
05
12
06
f6
02
01
ed
fc
d7
f4
f3
01
ec
f2
0f
0c
f0
de
da
d4
b7
02
fe
02
ff
fe
fd
01
fa
fe
fd
21
0d
fb
04
09
eb
f9
00
02
01
c0
d0
d8
0b
17
df
03
08
e6
d7
10
fc
09
0f
0b
01
12
08
0b
0b
e7
f9
fc
0e
01
fd
01
08
0b
02
0f
fa
e3
09
08
fd
ff
01
04
03
e6
ee
f9
02
fb
ff
1b
0a
d1
e3
08
09
03
01
00
fc
f2
01
fc
f8
fb
eb
f1
01
fd
e4
bb
0a
1d
18
e8
eb
e6
f9
f4
fe
00
02
00
02
e9
fc
db
0e
1c
e6
c9
f4
08
f9
f0
ec
f2
16
0d
01
e7
ec
e4
e6
02
fe
ff
fe
00
0e
03
fe
06
e0
14
08
ef
f6
fe
17
04
f6
f9
0a
13
f7
fb
0b
04
01
ff
ff
fe
ff
ea
ea
e6
e0
e2
fe
10
f3
f8
0d
0d
06
ff
01
12
09
e8
da
06
f6
cd
e8
d7
fd
19
f1
00
d8
02
ec
b7
e3
e5
f3
12
d9
e3
fe
18
11
02
fe
fe
00
02
f2
ce
e9
13
10
f0
ea
dc
d1
e4
1c
fa
c9
bf
c9
e6
e9
e6
1c
15
13
f4
ff
0a
f8
ed
ea
08
f6
df
08
eb
d8
dd
fa
e5
e9
e3
e6
e1
f9
fa
fc
fe
ff
00
ff
01
00
fd
fd
fe
fe
ff
fe
fa
fe
01
fd
fa
fc
fd
fc
fc
fd
00
fd
ff
00
00
00
02
02
fe
01
00
02
fd
fe
fd
fd
fc
fd
fc
f9
ff
fe
00
ff
fd
00
fe
fe
01
fd
fb
fc
fc
fc
00
ff
01
01
00
fd
fc
01
01
01
fc
ff
00
ff
01
00
01
fe
fd
00
00
fe
ff
fe
ff
ff
fd
fd
02
02
02
ff
fd
00
fe
01
ff
fc
00
fc
fc
fd
fe
ff
01
fe
fe
fb
fe
fb
fc
fe
fc
fc
fc
fb
fe
fe
00
fc
fd
f8
fc
fb
fb
fa
02
fe
00
01
01
fe
ff
01
01
ff
00
01
ff
01
fe
ff
00
ff
03
02
00
fe
ff
fe
00
fd
ff
fe
fe
ff
fe
01
fd
ff
03
fc
fe
ff
fc
fc
ff
01
01
01
fd
01
ff
03
ff
fc
01
02
02
01
02
02
00
fe
fe
ff
fd
00
fd
fe
fb
01
fd
fe
00
fd
02
01
ff
fe
00
fd
fb
ff
fd
f9
00
02
fe
ff
ff
fb
ff
fd
fe
fd
01
ff
01
fe
fc
fc
ff
fe
fc
fc
00
ff
fe
ff
01
03
fd
ff
00
fe
01
01
00
03
03
01
02
fd
01
01
fd
fe
fc
ff
ff
00
01
01
fe
ff
ff
fd
fe
fe
ff
fc
fa
00
fc
ff
00
fe
ff
ff
fc
03
ff
01
fc
fc
03
00
00
00
ff
03
fe
04
fc
ff
fb
00
fe
ff
f9
fe
fe
fe
fa
fd
02
fb
ff
fb
00
01
ff
fe
fe
01
fe
01
fe
fd
01
ff
fc
01
fc
fc
ff
fe
00
00
00
fe
ff
fa
fd
fb
00
fb
ff
ff
0c
fb
00
06
06
fb
00
fb
04
ff
07
02
05
fe
fd
02
00
01
00
ff
01
01
fc
01
fe
fd
fd
fc
fa
00
01
00
fc
fe
ff
fb
fb
fd
f6
fb
fb
fe
fd
fd
fe
01
04
03
06
fc
f8
fa
fc
fe
fc
fc
01
fa
fd
fc
fd
fe
0b
01
03
fd
00
00
fa
fb
fe
02
fe
00
fc
fb
fe
00
01
fe
00
07
03
07
04
08
fe
f6
fa
01
fb
fc
fc
f7
00
fb
0b
07
ff
06
fd
fe
05
04
06
fc
ff
ff
01
00
fa
f7
f7
fc
fa
fd
fb
fe
01
ff
fb
00
fe
ff
00
fd
fe
fb
fc
fb
ff
00
00
ff
ff
ff
fc
fb
fd
fc
fa
05
04
06
0a
fb
fc
f9
f9
00
fe
fa
f8
fc
fe
fc
00
fe
00
02
05
03
03
03
fe
0b
09
05
05
07
03
ff
00
ff
fe
ff
0c
fb
fe
02
f8
fb
fd
fa
fa
00
00
fe
f8
f8
fc
05
03
ff
02
00
00
fe
ff
02
00
ff
fc
fa
fe
02
fa
fd
fe
0a
01
fa
f8
fa
03
fc
fe
fa
fa
fa
fb
ff
ff
ff
03
fe
ff
01
fc
fe
fc
fc
fa
fa
f9
f9
06
05
fd
05
f8
05
ff
03
03
06
05
fc
fb
fb
00
fa
00
06
00
04
06
fe
f6
fb
fc
fb
fb
fc
ff
00
fd
02
00
fd
ff
02
fa
fe
02
09
01
04
0a
05
01
fd
05
0c
00
04
01
fe
00
00
fe
02
fd
f5
fd
f6
fb
fa
ff
02
f9
08
fe
0e
fb
07
ff
01
fc
fe
fb
ee
05
0e
f1
ee
fd
fe
03
ef
d4
09
07
03
f0
e4
f0
f2
f5
00
e9
f4
08
f8
db
e0
00
ff
ff
fd
01
f8
03
0b
11
00
db
d1
f2
04
0f
ef
fe
01
00
06
f5
f5
01
01
f7
e5
ff
09
09
06
09
0f
09
ec
e8
e4
cf
eb
ff
04
f9
db
de
fe
01
fa
07
fe
e3
c6
fc
e3
07
0b
04
f5
fb
0b
06
fd
02
01
02
ff
ff
03
06
04
04
01
fb
13
08
e0
f5
00
06
0e
fe
de
ed
fc
f7
fc
e7
08
0c
1e
f9
b3
ea
f7
06
0a
02
f0
f7
f7
e4
ce
07
11
10
01
e0
12
10
12
10
fc
de
02
07
14
12
01
ff
01
00
02
fd
06
09
ff
e5
0c
07
0a
f0
d7
ff
04
14
fa
ef
ef
ef
0e
ef
f4
fa
df
08
fd
ec
ee
0e
08
06
fa
00
05
0f
fd
02
01
fd
02
00
fe
ff
fe
02
f2
e0
e9
f1
e6
e3
ec
f7
f7
fb
05
fb
ef
ef
f6
ea
ef
fe
02
fe
01
ff
fa
fb
0a
04
fb
fe
16
f6
03
05
f1
0c
e7
ee
eb
e3
d5
dd
09
01
01
01
02
fe
fe
03
fa
ff
ee
d7
03
ea
d9
f9
02
04
05
0e
f1
d2
de
f0
fd
0a
fc
d4
f5
06
14
07
fd
00
ff
f6
df
01
f7
f9
04
08
f7
11
05
05
ef
fd
00
00
ff
ff
fc
01
11
10
fa
fe
0b
09
ee
c4
f2
f3
03
fd
f4
f7
0a
0f
10
00
ee
d2
e2
09
00
f9
f7
12
fb
f4
f4
f8
0a
fd
f1
fb
fd
02
fb
f5
fb
f9
fd
fc
fb
03
fa
fe
ff
f8
00
01
fd
ff
fc
ff
00
04
fd
f8
02
ff
00
00
02
01
01
00
fd
02
01
fd
02
01
05
ff
00
ff
00
00
fe
01
fe
fa
00
01
fc
fd
fe
f4
01
fe
00
00
05
fd
ff
01
ff
fc
01
01
fe
fe
01
03
fe
00
02
01
fd
01
fd
f9
f7
fb
fe
fe
fd
00
fa
fb
fd
00
fe
02
00
fe
fe
00
02
04
ff
04
ff
fa
fc
fa
fc
fc
fb
03
01
01
ff
01
00
04
01
ff
fc
fa
fc
00
02
02
00
fe
fe
fc
f6
fd
00
fb
fc
fd
fe
f9
fa
fb
01
ff
ff
01
01
fc
ff
ff
01
fe
02
02
fe
01
01
f9
f8
ff
f8
fe
00
fd
ff
fe
01
03
01
02
00
fe
f7
f4
f6
f8
f3
07
05
08
fe
01
f8
fb
fc
ff
ff
0c
0a
15
0d
07
00
00
01
ff
02
01
01
fe
02
ff
02
02
02
03
01
fc
fd
fd
ff
fe
02
00
08
01
fe
01
02
00
01
02
00
01
03
ff
fe
01
02
01
fd
02
01
f9
f8
fa
f8
fc
fe
fe
fc
03
02
03
00
00
03
02
01
01
fb
fa
fe
fc
00
01
00
00
fc
fd
fc
fc
04
fe
04
02
01
03
01
03
02
ff
fe
fe
fe
fd
00
01
00
ff
00
fc
fb
f9
fa
fa
f7
02
00
02
02
02
fe
fe
fd
fd
00
fe
01
06
03
f8
01
04
03
fe
ff
ff
03
02
fc
01
01
00
ff
ff
04
fe
fc
fc
fc
f4
fc
fc
05
fe
fd
eb
f2
f5
f4
f8
00
fe
fe
02
01
01
fe
fd
fc
fe
ff
00
01
00
fe
00
01
fd
fd
fd
01
fd
00
ff
01
ff
ff
01
fd
fe
fd
fc
fc
fd
fe
fe
fd
00
fe
fe
00
01
02
00
00
fb
fc
00
fd
00
ff
fd
fe
00
fc
fe
fc
fc
02
ff
ff
fd
02
01
fe
02
01
01
00
01
fe
fe
01
fc
fe
02
fd
fd
ff
ff
fc
fc
fb
fd
fe
00
fe
fd
00
fd
01
02
01
fe
00
00
fc
fd
ff
fd
00
00
01
fb
fc
fe
fd
ff
fc
fb
01
fd
01
ff
fe
fb
fb
01
fe
fc
ff
ff
00
fd
01
ff
ff
ff
fc
fd
01
fd
00
fe
ff
00
00
00
00
00
ff
01
fe
01
01
00
fd
fc
ff
fe
fc
fe
ff
ff
ff
01
fc
ff
fc
ff
fd
fd
01
00
ff
01
fd
fe
fd
fd
01
fd
01
03
03
03
00
fe
02
00
00
fe
fe
03
01
00
fd
fd
fd
fc
01
00
01
fe
03
02
02
00
fd
fe
01
fd
ff
fe
fe
ff
00
00
fd
01
ff
00
ff
00
ff
fd
fc
fc
00
ff
fb
fc
fc
ff
01
01
00
fe
01
ff
fe
fd
fd
00
01
fe
fe
fe
fd
fc
ff
02
00
fe
ff
00
fe
fc
fc
fc
00
00
fe
ff
fc
00
fe
fe
ff
00
ff
ff
ff
fe
fd
fa
fb
fd
fb
fb
fe
01
ff
00
02
00
01
00
ff
03
fe
fd
fe
01
00
01
01
fe
01
00
01
ff
fe
00
00
fe
fe
fd
01
fe
00
00
01
01
02
fd
ff
fd
00
fe
00
02
02
00
fd
fe
fe
fc
fd
fd
fb
00
02
ff
fe
fe
fc
fd
fa
fb
fe
fb
fe
fa
fd
03
fa
fd
fe
fa
fe
fc
fc
ff
fe
00
fe
01
02
fd
fa
f9
fc
fd
fc
fd
fd
fd
fa
fe
fd
fb
fe
fe
ff
fe
fd
fc
00
ff
00
fc
ff
ff
fe
fb
ff
fd
fa
fe
00
fd
fc
fc
fd
fe
fe
fe
fa
fc
fe
ff
fd
fd
fc
03
03
fe
f9
00
fa
fe
fa
fd
fb
00
fe
00
fe
00
ff
01
00
02
fe
fd
fd
fe
01
fb
ff
fc
fd
fb
fd
fd
fd
00
01
01
ff
ff
00
fa
fc
fe
fe
00
03
fd
fc
fe
fd
fd
fc
00
fa
fc
fa
fc
fe
fe
fa
fd
fc
fc
fe
f9
fa
fd
02
ff
02
01
fe
00
f9
fc
fc
fc
fa
fe
fc
fc
fe
fe
fc
fa
fe
fa
fa
fe
fc
ff
fe
fd
fd
00
fb
ff
01
00
fc
fe
ff
01
05
07
02
02
02
01
fe
01
00
02
01
fc
fb
fb
03
fe
fe
ff
fa
ff
01
04
02
ff
fd
fa
fb
fe
fe
fe
02
02
01
00
fe
fa
f9
fe
fa
fd
fd
00
fa
fe
fc
fe
fe
fd
fb
04
ff
01
02
03
fe
00
fe
fe
fe
fc
ff
fe
fc
fc
00
fd
ff
00
fb
fb
fc
ff
ff
ff
ff
fb
fc
fe
fe
fb
ff
fd
fd
fb
fc
fc
fc
fa
fc
f8
fa
fa
fb
fa
05
fb
fb
fa
fb
02
ff
fd
00
03
fe
ff
fa
fa
fb
fe
fc
f9
ff
fa
ff
fb
fc
f9
fa
fb
fb
fa
fa
fa
04
02
01
00
fe
fb
00
01
00
fe
fd
fa
fc
fe
fc
fc
fb
fb
fc
fe
f3
f0
06
08
01
f4
0c
f9
03
fa
05
ff
fe
fd
04
ea
f4
f8
f3
f6
dd
f2
01
ee
12
ff
00
fd
02
02
db
db
02
fe
ff
fe
ee
f8
09
04
e2
ee
0c
dc
06
f1
d3
fc
0e
0c
f3
f6
f9
00
28
eb
cb
ff
11
01
03
f8
fc
05
f3
09
f1
00
05
f3
e5
25
0b
f2
e0
14
fa
fd
fc
fc
e5
f4
05
fb
21
fe
fe
ff
fe
fe
02
fe
fd
02
01
fe
d5
00
0c
09
06
0a
fc
fc
0b
f2
b0
09
0a
fe
13
b6
05
0f
fb
01
cb
03
07
0d
df
f3
eb
fd
00
c3
f1
08
d7
ce
da
ef
03
fa
ed
f1
dd
fe
09
02
00
01
00
02
00
e3
fa
04
d4
ff
f7
00
09
ee
fe
05
0b
01
fa
13
f4
d8
01
0f
0e
02
fa
0f
04
11
bd
f6
00
fb
e0
fd
02
fc
f9
05
01
01
ff
fe
ff
0f
d0
0b
02
07
eb
0b
14
05
e6
11
f5
fc
f5
f0
fc
ef
07
fa
fa
00
01
00
03
ff
dc
d8
03
e3
01
09
fd
fd
07
06
07
e2
fe
07
07
17
0c
06
11
05
fe
01
02
fe
00
f6
08
ff
f4
f7
08
ff
fd
09
03
e8
e2
00
f9
f2
ee
e4
04
05
0e
e8
d1
10
0a
00
f3
fd
05
f9
fe
f4
ef
14
0d
04
c0
ed
0d
13
f7
02
ff
ff
fe
00
c3
db
07
fd
17
11
ef
03
f4
e7
fe
d2
f0
01
f7
b2
f1
15
fe
05
14
ff
07
0d
07
00
e5
e9
fe
fb
06
d7
01
f2
e8
e8
fb
11
14
06
fe
fe
fc
ff
f9
fb
fc
ff
fb
fd
fd
fd
00
02
02
fb
fe
02
00
01
fd
00
fc
fd
ff
03
fe
00
fe
fe
00
00
ff
fe
ff
fb
ff
ff
ff
02
fc
fb
fb
fe
ff
01
01
00
fe
fc
fe
ff
fd
fd
fc
00
fd
fe
00
00
fd
ff
01
00
fe
ff
ff
ff
00
fe
fe
fc
01
fd
fd
fd
fc
ff
fe
ff
fb
ff
ff
01
ff
02
fd
ff
00
00
fe
fe
01
01
01
00
ff
fd
fb
fe
00
01
01
02
00
ff
ff
03
ff
00
fc
fc
fb
fc
fd
00
fe
00
fd
fd
fe
fe
ff
fd
fe
ff
fe
ff
ff
00
ff
00
fe
ff
02
fd
01
01
fe
01
ff
00
03
01
00
fa
fe
01
ff
f8
fd
fd
00
fe
fd
01
fd
fd
ff
fc
00
ff
fc
fd
fd
fc
ff
01
01
00
fb
fd
fe
fa
f8
fd
01
00
02
ff
fe
ff
ff
ff
ff
ff
fd
fd
fe
fe
fe
fe
ff
fe
ff
fc
fe
00
00
03
fd
ff
fd
01
fc
02
01
01
01
02
fe
fd
fe
00
02
fd
ff
fd
fe
01
fd
fd
01
00
fb
ff
00
fd
00
02
01
00
01
00
02
fd
01
01
01
fe
fd
00
fd
00
fe
fe
fd
fc
fc
fc
00
ff
01
01
00
fc
01
ff
fd
01
ff
fe
00
00
fc
ff
fc
fd
fd
ff
00
02
02
fd
fd
ff
ff
ff
ff
fe
fe
fc
fe
fe
01
fb
fc
ff
fc
ff
ff
ff
fe
fe
fd
00
01
01
fd
00
fc
ff
ff
fd
01
02
ff
ff
ff
fc
fa
fa
ff
fe
fc
fc
fd
ff
ff
fc
c4
dd
e2
e7
cc
f3
ef
f7
fc
fe
f4
00
05
05
06
f2
f6
ee
db
f4
ef
fd
06
00
fd
01
ff
02
03
fc
09
04
01
ff
0f
bd
db
16
00
00
e4
ff
c8
ec
fb
15
0e
ff
fc
fa
fb
fa
04
f6
db
09
fb
f8
f6
e6
c4
e9
13
ff
fc
b8
fa
02
fc
f4
e8
e3
fe
01
fb
fd
fe
fb
f7
f6
14
04
f4
dd
d2
00
02
03
01
ff
fd
ff
ff
01
fe
08
0b
08
07
fb
e1
f2
f7
03
11
ee
e3
dc
e5
c4
0f
0e
03
07
ef
1d
13
09
03
f8
d7
f2
00
ff
00
f4
1c
09
f4
f6
fd
08
12
fc
06
f1
1d
0d
04
05
ff
01
fd
fd
02
f9
ff
ef
f4
fe
f1
01
0a
00
ff
ec
f9
01
08
10
13
12
05
02
01
d9
fa
06
f9
f4
1c
f5
fd
07
0d
fe
03
02
00
03
ff
02
00
02
01
ec
e9
e2
f8
e3
fb
fd
fc
04
f7
fc
fb
01
01
0b
f7
fc
ff
f5
ee
ff
03
ff
03
fe
f5
08
e9
dd
fa
f4
01
05
07
02
05
0a
06
09
f9
fd
ff
ff
01
f7
01
00
02
01
00
08
04
02
04
0c
af
d7
dc
ee
fa
ed
e6
fd
05
00
f1
06
03
ff
0f
f6
da
e9
ed
e9
ea
ed
f9
ff
fd
d2
de
e8
fb
f5
0d
fc
fc
f7
fa
01
00
01
ff
02
01
00
00
f9
00
ea
fb
f4
ea
fd
d6
ff
dc
d9
f0
18
01
05
0e
e6
00
02
00
ff
fb
16
0e
fc
00
ff
f1
03
01
ee
ee
10
07
ff
f5
e9
00
fb
f7
03
fd
00
f8
f6
ff
f3
f4
fa
fa
f6
f3
02
f7
08
fc
02
f9
f0
00
f2
0a
00
00
01
fe
02
fd
f3
ff
f1
02
f7
f5
02
0a
03
f8
f3
fb
fb
ff
fd
03
fd
02
fe
fc
fa
f7
f8
f9
02
fd
f9
05
fc
f8
f7
09
fc
fb
fe
f4
00
fd
fb
00
fd
fb
00
ef
fb
f2
01
fe
fc
fb
ff
eb
f4
04
fe
01
01
02
fe
01
fe
05
02
01
fd
f3
f6
02
f8
fd
01
fc
00
fa
00
f8
01
f8
00
01
fa
0b
05
f8
f9
f4
fd
04
fe
fa
f9
f0
ff
f6
f6
f0
00
07
ff
01
f8
00
05
fe
f6
f2
01
fb
fc
01
00
fe
ff
fe
f2
f2
fc
e9
f8
fb
f7
00
f6
f5
f6
f9
00
fe
ff
fd
fd
f7
03
f4
fb
f9
fe
00
05
fe
f8
08
00
0b
ff
00
f9
05
04
01
00
01
01
03
fa
fb
00
f8
f6
f9
fa
01
f0
04
f9
f5
02
01
fa
f8
f9
02
f9
fc
02
fd
02
02
00
fa
f4
0a
0d
02
f3
f5
fd
f6
f1
fb
fb
02
00
f4
ff
fb
01
03
01
fe
ff
ff
ff
03
fc
f8
01
00
06
fd
f6
f5
02
01
fe
00
f5
f9
ef
f7
f7
0b
f7
01
f0
fd
02
fd
f4
fc
f8
ef
f9
ed
f7
f4
f8
05
00
f4
ee
04
f1
fc
00
fd
00
03
03
fb
f8
03
03
ff
01
f9
0c
04
01
05
f7
fc
05
fe
f9
f7
ff
07
0e
03
f4
01
04
ff
fa
02
ff
01
fd
07
f6
02
f9
03
f5
f8
f8
03
06
ef
00
09
0c
06
fe
05
0a
08
f3
fb
ef
02
f4
00
0d
fb
22
0e
0d
f0
0f
e0
fc
f6
fd
01
fe
02
01
0a
f8
0e
da
f3
0f
10
0e
00
f2
0a
fd
e2
fd
e9
f4
07
03
09
0f
13
00
ef
f8
05
01
fd
06
00
04
05
0a
08
03
ea
01
05
fd
e4
f6
ea
0c
14
0e
e7
03
f7
ea
d4
e5
f6
d7
d6
03
12
ff
fe
02
01
ff
02
fa
fd
03
06
05
01
01
fa
0e
c2
f7
08
05
0a
14
01
e5
ed
19
04
0b
05
dc
05
0d
06
f8
fe
14
fd
fa
fe
01
fe
ff
f5
e2
fc
1d
fd
05
0c
c3
e2
13
0d
fd
dd
e4
00
03
04
04
04
05
fa
f6
ee
f1
02
dc
ef
0e
d7
cd
e2
0c
12
f6
f0
01
03
09
09
f6
ea
0e
e3
ff
04
fd
f0
bb
12
f9
05
05
fc
ff
fd
fe
01
ff
01
04
f5
f7
03
18
16
f6
cd
da
01
00
fe
fd
be
e3
09
f2
04
ff
f6
ff
01
02
00
03
00
e4
eb
e9
0a
fe
09
04
f6
fe
fb
11
0c
f9
0c
f9
f7
e5
de
de
fd
fe
01
02
01
dc
e8
f5
e9
06
fb
07
09
f6
f0
08
f3
fe
fa
f2
10
0c
03
ea
ea
fe
f0
d3
f0
05
ef
0a
0a
fe
f8
fd
f3
e1
f5
16
0c
0a
e7
d1
f3
fe
00
fe
ff
ff
fb
f9
fa
e3
ef
0b
f9
f5
02
ff
f1
f1
f6
fe
13
ea
d9
df
14
10
01
fa
e7
e4
e9
f6
07
06
0f
fe
fc
f5
fd
bc
ec
f0
da
d5
f9
11
fb
00
03
08
07
f4
f2
fc
fb
06
d5
d0
f9
09
04
f4
e5
04
f1
0c
e0
d4
07
ff
11
03
03
ff
ff
fe
e3
e3
fc
f8
12
03
fd
f4
e8
f6
c9
dd
f2
09
11
ea
08
11
08
01
0b
05
fe
e6
bc
ee
09
0b
03
0b
fe
ef
ed
fe
0d
f7
e1
ea
03
17
d5
de
e3
f7
0a
f4
ea
0e
1d
19
0a
0b
07
04
f8
02
01
02
01
fd
fb
f9
f9
f9
fe
cc
f0
08
0e
09
d6
df
ce
ff
02
ec
fd
0f
06
f0
d8
f3
08
f3
f6
c9
f1
0e
0e
05
f9
ee
00
02
fd
d8
d1
07
03
07
e5
d9
0f
0c
10
fa
e8
f5
f1
13
03
01
00
00
02
da
cf
02
09
0d
ec
ef
00
00
f3
c0
cc
df
fa
05
e6
fe
0e
0a
03
f8
e4
00
ff
00
fd
e5
1a
10
1f
00
06
f9
ef
f5
02
01
fd
00
ff
e3
ef
07
05
eb
f0
e1
11
e8
fd
ef
e3
1b
14
17
fa
f6
fa
02
fe
02
fd
02
00
ff
cf
f0
f1
ff
1a
d4
d1
fa
0f
0f
d2
eb
07
12
0a
fa
e1
02
2a
22
00
02
03
01
01
e8
fa
0b
0f
0b
f3
ef
fb
f7
08
fa
ee
f5
0e
05
f5
f5
eb
ea
e9
ef
f0
0b
06
e6
06
f6
f6
e5
f6
06
06
0e
07
f0
e6
e6
13
fc
0c
02
fd
03
ff
00
d4
e9
0c
0e
13
ec
e2
d6
e1
f2
ea
f2
d5
f5
10
d3
e1
01
fc
04
fb
e1
fe
22
20
f2
00
06
03
fe
f2
d9
03
0c
0f
04
0e
0c
0e
0a
00
fd
01
ff
fe
03
fd
03
00
fc
ff
01
01
fe
02
00
fc
fe
fd
fc
fb
fe
fc
00
01
ff
01
01
ff
03
fd
ff
02
fe
fd
fc
01
fd
ff
fc
ff
fc
fe
00
fe
fe
01
fe
02
fe
fd
fd
fb
00
fe
02
fb
fd
04
01
fe
ff
02
ff
fb
00
03
ff
02
01
fd
fc
fd
ff
ff
00
fe
fd
fd
fe
ff
fb
00
fc
00
00
01
fe
02
ff
01
fe
fe
01
ff
01
fd
fe
fd
fd
fc
02
fe
fc
fd
fe
fd
fd
02
ff
fe
fe
01
00
ff
fd
01
01
01
ff
fe
fd
ff
fe
00
01
00
01
01
fd
00
ff
fd
fd
00
ff
00
fd
fe
fd
02
fe
01
ff
fe
fc
ff
02
fe
ff
00
ff
00
fe
ff
ff
fd
ff
01
ff
01
ff
ff
02
fd
fc
ff
fe
fc
fd
00
02
04
01
ff
06
05
fe
fe
fe
fe
02
02
01
fe
fe
fc
01
02
ff
01
fc
02
02
fc
00
00
fd
01
fe
00
fb
fe
fd
ff
fe
fe
02
01
02
ff
fe
00
fc
fc
fc
02
fc
ff
fe
fb
ff
fc
fc
fd
02
02
ff
01
00
00
03
02
01
02
01
fe
01
02
fc
fc
00
03
00
fe
ff
01
fe
ff
fc
fb
fe
fe
01
00
ff
fd
fe
fd
fe
ff
01
fd
fe
ff
ff
fb
01
01
00
ff
03
00
01
01
01
ff
01
01
01
fd
00
fc
ff
fc
00
ff
02
02
01
ff
ff
fd
00
fc
fd
ff
01
fc
00
ff
fe
00
02
ff
00
fc
fd
ff
ff
fc
fc
00
fe
fe
fe
fc
fc
fc
fc
0f
11
02
f2
f0
0a
0c
09
0b
13
ec
ec
f5
06
e6
fb
2b
17
eb
f5
fa
f5
fe
f8
0c
ff
ff
02
ff
ff
f8
f7
f9
fc
10
05
02
fc
f9
09
dd
dc
ed
e9
f6
f6
f5
02
f6
18
fd
07
0c
0b
fa
f4
16
08
06
0a
f8
f6
f0
f3
00
fc
fc
f7
ff
0d
fb
0e
08
12
15
dc
f0
06
02
0c
f7
fc
07
03
f9
01
02
ff
ff
02
04
01
00
00
05
e4
f4
ed
f7
14
d9
fd
f7
e5
00
13
16
f4
eb
02
05
1d
22
05
fb
c4
d4
e6
e6
14
0c
0a
0c
12
14
eb
f8
fd
05
12
db
f5
fa
05
11
fe
f8
f2
ee
ff
03
0a
09
07
06
dd
e7
f5
f7
0e
16
2b
1c
2f
0a
ce
07
0c
fc
fc
f3
f6
00
f6
08
17
ff
f1
02
13
f8
05
0a
01
14
11
15
16
0f
12
01
01
fe
02
02
fa
0c
f9
e6
05
1b
08
f8
ec
f9
da
f1
06
08
11
e6
ed
f7
f1
f9
01
fe
03
02
ff
d3
fa
09
f5
0d
04
da
f4
f8
fc
f7
f3
f7
fb
ef
dc
ea
00
0f
15
03
02
03
00
fd
da
df
d3
de
04
f5
f7
e9
fb
02
21
10
02
f1
fb
f2
03
06
00
0f
d6
0a
04
01
07
fe
07
07
1d
17
07
10
09
fc
ea
ee
fa
fe
08
0c
02
fe
ff
01
02
d2
04
0c
11
19
ed
fe
06
fc
fe
fe
28
26
fc
fb
cd
f9
f9
00
0f
e7
f0
05
0f
12
0e
f7
09
06
04
04
fc
02
e0
08
f1
fa
00
fd
ed
fc
00
fb
e6
08
f0
0b
fb
ee
06
ea
fc
fd
f5
f1
f3
0c
03
02
fc
01
02
01
ff
fb
fd
fe
02
00
ff
e6
f0
e9
f8
07
f1
f6
d4
eb
00
c5
df
05
fe
fa
03
08
fb
fb
0a
03
fd
02
fe
f2
06
19
d3
0a
10
e5
f5
cf
e4
05
e3
00
e0
e2
0a
f8
10
fe
05
02
e4
e8
d4
07
00
08
f0
f3
ef
e3
ff
fd
00
03
00
04
03
01
fe
f7
f9
01
fb
f7
10
ee
f6
fc
fc
e6
0a
08
f2
00
0b
ed
1a
2b
f1
f0
09
05
ea
e3
0d
f1
01
08
fe
09
f0
e3
04
00
f8
e2
dc
0d
f7
f6
e8
de
d4
01
03
07
03
03
03
05
d4
c6
02
ff
04
f8
fb
2e
0d
d0
dd
e6
ee
f4
e9
fe
03
fe
e8
13
ea
06
03
f9
09
ff
e9
05
ff
06
07
04
06
04
fd
ff
04
01
fd
fe
fb
fa
f1
fd
10
f2
03
fd
0c
04
d3
e2
e2
08
fa
f4
f9
ff
03
04
02
03
ff
00
fe
dc
cb
fc
02
f5
ed
02
06
f5
f1
fa
04
01
fe
ee
f1
db
c5
ee
11
02
02
00
03
02
e3
d5
f4
da
df
f7
fe
e3
e3
10
f7
01
02
17
fc
f2
f5
ef
f5
07
03
00
e6
17
04
e9
16
08
ed
07
08
05
00
f7
f8
06
e4
00
04
07
01
fd
01
00
fe
f0
f7
f9
02
f7
dc
f3
ea
0b
18
cd
e0
eb
02
ff
09
f1
f4
ff
fd
eb
de
cb
e1
19
00
0a
0a
f4
fa
e7
ed
df
0e
01
16
f8
07
fa
ee
fb
04
0a
fb
ee
09
02
f7
f9
e9
f4
f2
f8
03
03
0a
02
fe
fb
00
fc
1d
08
ff
fd
ff
ff
fe
01
fe
1b
0f
16
07
0f
0f
fb
f6
03
04
00
0c
06
05
ee
03
f3
ef
ed
f1
f4
ef
fc
0b
0b
fe
0c
05
03
f9
07
00
00
fe
01
0b
0a
00
fc
01
05
07
fe
f8
dc
fa
ec
ee
f0
f0
ef
e7
f0
00
00
01
ff
fe
01
ff
09
05
02
04
12
e3
fa
fc
04
ff
03
07
02
05
f5
0b
0a
eb
0f
1d
1d
13
fa
f9
07
06
03
fa
04
18
f7
e5
e8
05
fe
fd
13
f9
04
04
ff
fe
f7
fe
01
00
00
f9
fc
01
00
01
00
00
00
e4
e5
e2
fe
fc
00
04
fe
06
17
05
05
04
0c
0c
f8
ff
fc
f9
e9
0c
1a
23
18
1a
f3
15
09
04
04
0f
08
0a
07
01
00
00
01
fe
00
0d
fb
f8
20
15
0b
1a
23
02
10
fa
fe
00
f4
e9
f8
fa
08
08
fd
fe
fe
00
fd
02
05
0f
0e
0a
02
f1
f8
ec
f6
14
06
f3
fa
f9
e6
09
05
f8
f6
f9
01
01
00
00
fe
02
02
f5
f8
ea
10
0a
00
f5
fa
fb
f3
e8
fc
fb
14
0f
09
11
0b
14
06
04
1f
0f
0e
f7
f4
03
0b
f4
ef
e9
e6
ec
06
24
09
fd
fb
02
02
fe
fe
02
25
0a
1a
0b
08
0f
0d
15
0b
01
04
06
01
02
06
04
14
0d
07
0d
08
00
fb
f5
fc
fa
f7
f6
f6
f4
10
02
05
1a
f6
c7
d2
e2
e4
ea
f2
02
02
04
07
fe
00
04
06
00
e8
f7
f2
da
eb
fe
ea
f5
0c
0c
f0
ef
f2
e9
00
ff
00
fe
ff
ff
f9
fc
fa
09
fe
04
fa
fc
01
fb
ef
f6
fd
02
06
19
df
eb
e1
f4
f1
f2
ff
ff
02
fd
00
15
0e
f7
02
fe
ff
01
01
04
00
02
ff
fc
02
02
03
fe
fc
0e
02
04
ff
f5
ca
d2
ea
ee
ee
01
02
01
fe
01
06
0c
0e
04
06
ef
e7
f2
f7
06
f1
06
fd
0c
0c
f7
f9
f8
ff
0d
0a
fe
f7
0f
f4
0f
06
f2
1b
01
f3
01
02
02
01
f6
de
fa
f3
0e
09
05
fe
f9
f4
05
ff
ff
fe
ff
00
02
02
01
04
00
f9
05
fb
fa
03
f6
ef
f8
f8
f9
05
01
0a
f8
f5
03
00
00
06
09
fa
f2
25
0b
e2
ec
03
fc
1c
05
fe
04
04
12
fe
fe
fe
fd
02
0e
d9
f8
fe
01
08
0c
f9
08
08
12
0a
08
05
fa
f9
f7
ff
fe
f6
00
00
00
fe
ff
0d
f5
07
06
13
ff
fb
f4
f2
f0
1b
05
fb
f4
03
0c
06
05
01
fd
02
01
ff
ff
fe
01
0c
0b
f8
fc
05
05
05
ff
fd
f6
ff
0b
04
01
08
04
0d
16
fb
f2
e0
02
16
13
1f
03
fc
fc
0a
fd
16
ff
eb
f1
ee
e7
f1
f4
f7
02
02
02
00
01
00
01
07
14
18
1a
f6
08
f1
f9
06
fc
00
fd
0c
f6
eb
fa
f4
01
0b
03
05
01
fd
0f
e5
e1
e1
e3
13
ec
01
f9
fe
c2
d8
e3
e0
d9
d8
ee
ff
fa
f7
fd
02
05
ff
02
fc
e1
f7
f8
0a
06
02
0a
c4
f0
ff
08
df
e9
e9
02
01
02
01
01
fb
ff
ee
cb
d8
e3
fa
07
0b
fe
0a
07
01
db
05
d5
e7
ed
fb
0b
f3
f9
05
02
fd
ed
e7
fe
fa
18
e4
00
07
00
f2
f1
ff
0e
fd
e7
fb
fe
fb
fc
01
f3
05
0b
d1
c2
08
08
05
fb
f0
ff
02
02
ff
02
f8
ff
fe
f9
00
f9
ef
f5
f7
08
09
12
0d
dd
ee
f4
f9
d0
de
f3
0a
f9
fb
fd
15
f2
e2
f3
04
0b
fc
ff
05
ed
e3
20
15
fe
d1
e8
0e
05
e6
d5
e5
ff
05
fb
ed
ec
ff
01
03
00
ff
13
0c
f8
d2
d3
d0
d1
fd
fa
13
05
03
0f
e9
08
ee
f0
fa
fd
09
f9
fd
02
f8
02
f7
02
d0
ba
e9
fa
f7
fb
f9
03
01
02
01
00
fe
f7
00
fa
d4
f2
0a
02
07
e6
12
f9
fc
fa
d1
c4
04
05
07
e9
fd
02
fe
02
ff
fe
03
0a
0e
c8
d6
03
15
d8
f7
f9
f6
f0
ea
f7
05
e6
ee
fe
e7
c4
00
01
ff
fd
00
0f
0a
0e
09
03
06
00
04
fd
e4
d9
e8
fd
f5
f0
05
07
fc
df
e1
f3
04
01
e8
e6
fe
f8
01
fa
fb
dc
f7
f9
fe
0b
0d
05
dd
ad
ec
00
fe
00
ff
fe
fb
00
01
d9
d8
ff
11
0c
ec
08
02
01
0b
f8
fa
fe
f9
e1
d5
e7
e7
fa
fd
df
c6
dc
f1
e3
f7
0a
f6
0e
0a
d9
f3
fa
05
04
02
fb
f7
fd
fe
01
fe
fc
fe
02
ff
fd
fd
03
04
01
fe
f9
f7
f9
fa
f8
fa
fe
fd
fd
fd
02
ff
fe
02
fd
00
ff
ff
fc
fc
fe
01
ff
01
00
f8
fa
fb
fd
fd
f6
f2
f4
f1
f2
fe
fd
00
01
03
f8
00
fc
f9
f8
02
01
00
ff
ff
01
fd
02
01
01
f6
00
fc
f9
fa
fe
fb
fc
f9
fd
f5
f5
f9
f8
fa
ff
ff
03
00
02
ff
03
fd
01
03
ec
f8
fb
fb
f7
fd
02
fe
ff
00
ff
04
fa
fc
01
fc
fc
ff
ff
f7
ff
fd
fe
ff
fe
f5
fc
ff
fb
fa
fb
f5
fd
f8
ff
fd
fd
fb
fc
00
ff
ff
fc
fd
fd
ff
00
fd
fd
01
f4
eb
f4
f6
02
03
06
00
fd
fb
fc
00
ff
ff
ff
f5
f4
f9
f8
f6
01
fc
00
ff
00
f9
fa
fe
f2
03
02
ff
02
ff
ff
00
fe
01
02
01
02
f9
fd
fa
f6
00
fb
00
fe
fb
ff
fe
fd
fa
fc
f6
f8
fb
fa
fb
00
00
00
01
01
ff
fb
ff
fe
01
ff
ff
ff
fb
fc
05
00
fa
f6
f5
02
01
fe
fe
00
01
01
fe
00
00
fa
03
fe
fd
fb
04
fe
00
fe
fd
f1
fb
fc
f8
f9
fe
fe
fe
fd
ff
fd
fc
01
03
00
f7
fd
fc
fb
fb
f8
fe
f7
f9
f7
fe
f4
f7
f3
fb
fe
03
fd
fd
02
00
fe
ff
fc
03
fc
fd
00
01
fa
fe
01
01
00
fd
fc
05
04
fe
02
00
ff
fc
ff
fb
f2
fb
f4
f3
f4
01
f9
fd
fc
f3
e8
ef
ef
f4
f2
f1
f7
fb
fb
ff
ff
fd
02
ff
f9
00
fe
fe
00
fb
fd
f8
fc
f6
fb
f9
fe
00
fe
00
fd
fe
ff
02
fe
fd
01
01
ff
01
01
fd
fe
00
fe
fa
fa
f8
fd
f9
fa
f8
fd
f8
f9
fb
fe
fc
00
01
f5
f8
02
ff
fe
00
fe
fe
01
03
02
00
00
ff
00
f6
fa
fe
fb
f7
00
fe
ff
fc
fc
fa
fe
01
fc
00
01
01
00
fe
fe
00
ff
ff
fe
ff
ee
f3
fe
fa
fa
f8
04
ff
ff
ff
fe
06
01
01
03
fd
fe
fc
fd
fb
fd
ff
ff
ff
fb
fe
fb
ff
fb
fc
fb
f7
ff
fb
fe
fd
02
01
ff
01
01
01
02
fe
02
ff
fd
00
ff
00
fa
f1
fe
fe
ff
ff
ff
02
fd
f5
fe
01
03
01
ff
f2
f8
fa
fb
f8
fd
00
01
02
03
fc
fe
02
fd
04
03
01
fe
02
03
ff
02
ff
fe
02
0c
fb
fc
fb
fc
07
fd
fe
fd
fe
fd
fd
fe
fe
ff
fe
f7
fa
fb
fd
fe
fd
ff
01
01
01
00
01
fe
ff
fb
ff
02
ff
fe
fc
f8
00
fd
f7
00
fe
fd
00
fe
02
01
00
02
ff
f5
fc
fd
fb
fb
ff
01
fd
01
ff
fb
fa
ff
fc
f9
00
00
01
01
fd
fe
fe
01
fe
fe
01
01
02
00
fc
fc
fa
ff
00
fb
fc
ee
f9
f9
fc
fd
02
02
01
01
02
fe
01
ff
01
02
f5
f9
f7
f8
ff
ff
00
00
01
ff
02
02
fd
00
01
00
fd
ff
00
f7
f7
f9
f7
f7
04
f3
f9
fc
fb
ee
f1
f4
fb
f7
cd
e0
f3
f3
e7
ff
0b
09
03
06
01
02
04
05
03
f8
f8
ff
e4
c7
f0
f6
f8
f7
f9
fd
02
fe
01
fe
fa
f5
fb
fe
04
fb
f7
fb
fa
fb
f7
f5
f2
f4
d4
f8
ea
e7
e7
f3
f2
f3
ef
ee
f0
eb
06
fb
ff
07
ff
fd
f8
fb
01
02
fd
fb
fe
06
f4
03
02
05
06
ff
fb
00
01
05
ec
e9
d1
f3
03
02
02
02
01
01
01
02
01
fe
00
05
06
05
fa
f6
f8
fc
05
07
0a
d0
dc
ee
fa
01
e9
f4
eb
f1
01
0b
00
f4
ea
ec
d5
de
e5
f3
f9
0d
fe
f0
ff
fd
f4
fc
00
0a
fc
fc
f6
02
fa
04
fc
fe
fe
00
fc
e7
e5
01
11
fa
08
15
12
19
19
fd
01
fe
05
07
07
00
e7
d5
db
00
fe
04
02
06
fa
f8
fe
fb
f6
fc
ff
ff
01
01
02
fd
01
01
01
e9
f2
0a
01
09
0b
06
03
00
fe
fc
f8
02
04
fb
f5
f9
f2
fb
ed
fe
ff
fd
fd
ff
ef
f9
00
f1
d8
06
07
07
00
ff
08
0b
06
fc
f3
ff
fb
fc
fe
00
02
01
fe
ff
00
ef
e5
f3
02
0d
fa
00
03
00
06
f9
f6
09
fd
f6
f9
f8
f9
00
fc
e7
00
10
f9
0b
f9
ff
fc
02
ff
ea
e2
f7
f8
10
fa
f7
f8
08
e6
ff
01
01
02
ff
f9
f9
fa
01
fd
f6
f5
e5
ef
f7
f0
02
f4
f5
e0
13
0d
0f
12
05
fe
fe
00
fe
05
fd
e9
e6
f0
04
f5
f3
eb
f5
f1
ed
ed
e5
f0
01
fe
01
03
f6
e8
f6
02
0b
fe
f4
eb
f6
0e
fb
ff
11
26
0d
0a
0e
09
0c
11
f1
01
02
ff
fd
01
fd
22
fd
12
fa
0d
03
f4
fd
0b
0f
04
ec
e2
f0
11
0c
fe
f0
ea
07
f6
ef
05
10
0e
19
0e
fe
1a
f6
0a
ff
08
0a
0a
01
24
06
ea
0c
06
09
0c
01
fb
0e
19
e3
ec
01
e8
e8
02
0e
00
fe
fd
00
ff
00
00
03
02
07
04
fd
ed
ea
fa
0a
ee
fc
fe
fa
0d
1a
31
ff
f3
0e
0d
28
0d
10
fd
04
08
fd
f9
17
e1
ff
0a
fa
06
f0
f5
06
fa
0a
1a
f8
fd
fb
09
fc
ff
09
ff
02
07
06
04
04
03
ed
ef
fb
f2
00
02
1a
05
fe
2a
ed
f8
f9
03
0b
00
ff
f4
ec
04
12
09
1a
f9
15
fa
02
0b
ff
0b
07
0a
0a
04
0a
fe
fe
02
01
00
0f
0b
ff
eb
05
17
3d
17
f5
03
13
0b
e9
ec
03
05
01
fe
08
00
fe
01
00
fe
fe
0f
f8
0b
02
11
f1
f6
f9
f2
f2
0e
f8
eb
f2
f2
08
17
f7
f3
0c
01
00
fe
fe
03
f4
04
00
f8
ee
ef
05
fc
ee
05
ee
01
04
fa
01
1e
e8
17
07
08
ff
cd
0f
09
06
05
06
03
fe
07
f4
ef
e7
e9
da
00
f9
0b
f9
04
ff
ff
ff
01
00
25
dc
10
03
0f
13
07
0f
0c
1d
09
0d
0a
1d
1b
f8
01
0e
e9
0b
0f
1b
e0
f9
0d
16
1c
f2
ef
06
0a
1b
04
f1
f0
da
e7
f1
ee
e5
ec
d1
e5
13
f5
dd
ed
f2
08
f8
ed
0a
bb
ba
c9
f0
f8
f5
0b
f9
f9
fe
12
03
de
02
ff
ff
ff
fe
ee
05
08
09
fd
e4
e8
f9
00
00
f8
f4
00
08
f2
08
0e
0a
f5
e9
02
01
ff
f7
ec
f2
10
f5
fc
fe
e9
f0
00
08
05
f1
ef
04
04
06
f7
01
f6
0e
ee
e9
ff
03
00
03
0e
09
00
ef
da
ff
ff
ff
fe
fe
ff
00
fb
fa
fd
ed
f1
f3
1b
f4
f8
f6
f6
ee
0a
f3
f9
f6
f7
e4
05
1f
fd
0b
2a
0e
fe
0d
05
49
c5
db
ea
0c
f9
00
00
08
fd
ed
f9
02
0a
02
03
f4
fc
04
fd
fe
06
02
04
04
05
f5
01
09
fe
fa
df
19
01
cc
cb
d9
e8
e1
ed
0a
ff
0d
ff
0f
ec
f5
09
11
02
02
f0
0a
0d
03
e1
f6
fd
fa
f6
ff
fe
01
00
fe
02
d5
07
11
02
e3
ee
0f
02
11
04
eb
ff
03
04
09
f2
f8
fd
fe
f7
03
00
ff
ff
01
ec
f0
ee
ed
0a
fb
ef
1e
fd
f7
fc
fc
d2
05
ee
f5
f4
0a
08
0d
fe
01
fe
ff
00
0a
00
22
fd
03
ee
fe
f9
0d
0d
bd
d6
eb
16
fe
f4
fe
0b
0d
f1
fa
09
0a
f9
f4
e0
f0
df
0c
ff
14
0b
0c
eb
ee
f8
07
0d
fc
e4
ff
01
02
ff
02
e7
08
0f
00
ef
e0
ea
f1
f7
0f
d8
eb
e3
eb
03
e4
11
13
0d
f2
ec
e8
03
04
0d
09
fb
0b
dd
ec
d2
ef
f7
02
ed
1a
14
fe
eb
ec
f8
fb
f7
f8
f6
04
f9
f8
f6
00
fd
fd
fd
02
f0
07
02
02
01
07
f5
07
03
f2
09
fe
01
fe
ff
ff
00
01
07
f2
10
f7
04
02
f3
00
0d
fe
f4
f9
02
f8
ee
ea
f4
f0
01
02
01
06
06
03
00
04
03
0f
f4
08
03
fd
fe
fb
11
04
ff
fa
08
fa
07
f8
04
0b
0b
0a
07
04
07
ed
f9
f1
fd
01
fe
01
02
01
03
0b
05
02
04
ea
ec
ea
e7
f6
f7
05
04
04
16
17
2b
20
1d
21
0c
06
fe
ff
04
0c
0a
0a
f2
04
05
ed
f8
f6
f4
06
f2
fb
f2
04
fb
11
02
fe
06
f8
08
02
f5
ff
02
01
02
ff
00
fc
ec
f6
e9
e5
0f
0f
0b
07
ff
f4
0a
06
0b
12
ec
e9
e2
e9
f9
20
0e
03
13
08
fe
0e
01
04
22
17
20
08
01
05
02
ff
fd
ff
01
19
f3
06
fc
1a
1e
0a
0e
00
1a
0b
11
09
05
07
0f
0d
06
01
05
00
02
fe
00
01
12
07
23
0f
19
fc
0a
09
fa
fa
fd
e6
ec
ed
ec
f8
10
05
05
08
fe
fe
00
fe
00
f9
08
fb
04
06
f6
0e
0f
05
f5
04
ff
f9
f9
fa
16
07
02
03
17
00
e1
f8
f8
fd
0d
fc
05
f8
00
02
fa
00
fe
f2
02
02
ff
f0
0e
02
fe
01
00
01
0f
16
04
0c
21
10
03
22
0e
08
0e
08
14
11
21
05
0e
04
f3
18
f9
14
06
05
02
03
f9
ec
f9
ee
20
f9
0c
eb
14
e2
e2
e1
db
ed
e1
03
00
f5
f0
fc
ff
03
01
01
07
ec
f7
09
fc
f4
f8
ff
fa
fb
fc
fe
15
15
fe
ff
fe
02
ff
ff
0d
0c
fb
04
0a
ff
05
ff
f8
fa
f4
ea
0a
fc
fc
e2
fa
f8
ed
f9
01
00
fd
fc
fc
0a
01
fa
fb
0c
04
00
fd
fa
fe
0b
0c
f8
fe
06
f9
fb
ff
fb
07
f0
ed
e8
e8
f8
06
ff
fa
ff
00
01
fd
02
00
fe
fa
f7
04
01
02
ed
e1
ec
f6
fa
0d
f5
f0
ee
f2
10
02
0a
1a
1a
f3
00
08
14
fc
00
ff
f9
01
0e
eb
e5
f4
05
fe
09
ff
e2
04
09
09
03
f0
fc
07
01
01
f8
01
fd
03
03
ff
02
fe
02
f8
e9
f6
fc
f4
e4
f8
10
02
06
f0
05
ff
02
dc
f4
f5
df
f8
20
0e
02
17
23
14
07
fc
0a
03
05
0b
0a
0a
ff
01
ff
01
ff
ff
f4
fe
11
1b
03
e1
e4
08
12
f5
ec
e6
e1
e2
f4
f6
e7
11
fe
f2
ff
fe
01
01
ff
fe
f8
f9
0c
1e
fd
f3
fe
00
0e
eb
ff
f6
fa
f8
f3
e2
de
e0
e7
00
00
ff
fe
01
fc
e9
f1
f0
ef
0e
00
f0
e0
f5
e7
f3
f7
20
08
0a
06
f7
06
00
01
05
f5
e4
0a
fb
03
01
01
1f
f8
fa
f6
e7
ec
11
03
ed
07
00
01
fe
fe
fe
02
08
0a
fe
fd
fb
00
fd
0e
07
14
02
ee
fc
fe
f9
17
09
ef
1c
01
f6
ef
e1
e6
ec
ec
f6
03
f6
ea
fb
fa
18
05
17
06
fa
f6
fe
f3
ed
fe
07
fb
d4
05
fb
fc
fe
f7
fe
01
fc
f3
e5
fe
04
03
0d
06
fa
0d
f7
f9
0c
00
01
fe
02
02
0d
06
f7
06
10
ff
fc
02
f7
f3
f9
09
0c
fb
ee
fd
f1
06
03
f8
fa
fe
fc
06
09
17
09
05
ec
e3
f0
f1
eb
ed
f6
f2
f5
fd
1d
fe
0a
03
0f
fc
e9
fd
f0
04
0e
0f
f9
ff
01
05
07
02
02
ff
fe
03
02
02
fc
fa
03
fe
08
0c
02
e3
0c
03
04
f4
ed
fc
04
14
1c
06
1b
22
14
18
01
0f
02
14
12
fd
f7
fd
03
f3
ec
e7
04
f7
fc
f5
f3
04
01
fc
00
00
fb
ef
fa
f5
0b
09
0c
0d
0b
f0
ff
f5
ed
e8
1e
18
13
00
f9
ff
04
0b
ee
e4
04
fb
05
f8
e9
f8
f5
f9
0a
fd
02
09
01
0b
11
11
07
11
0b
00
fd
00
03
01
01
0e
07
16
03
f0
16
03
12
01
11
fb
f6
fa
07
18
f8
02
03
fc
f1
ff
03
02
02
ff
fb
ff
0d
f8
01
03
00
06
ff
fe
04
fd
00
01
f6
f7
dc
fc
0a
0b
00
02
02
01
02
f2
fd
08
0a
08
05
f5
e5
02
fd
fe
06
09
00
f8
02
fe
00
06
0a
03
ff
fa
f2
02
0a
05
12
fc
eb
fa
08
08
ff
00
f8
15
ea
f9
fe
ff
02
02
ff
00
f9
07
ff
03
16
fb
01
0e
fc
f7
f3
fc
08
fa
12
ee
0a
00
04
fc
fd
d9
fe
12
06
08
fb
0d
01
f1
fd
06
1e
00
f4
ee
f9
01
0c
06
02
ff
01
01
00
fd
fd
fe
01
fd
fd
ff
00
02
02
02
00
00
01
01
ff
ff
fe
fd
01
fe
01
02
fe
00
01
01
fe
ff
01
ff
ff
00
fe
00
fe
00
00
fe
fd
fc
ff
fe
fd
fe
01
ff
ff
ff
ff
00
fc
ff
fc
fe
00
01
fe
ff
00
ff
fe
fe
02
ff
00
02
01
ff
fd
02
01
00
00
ff
fe
01
02
fd
00
01
00
02
ff
fe
ff
01
01
fe
fe
fd
00
ff
fe
ff
fd
ff
fc
ff
02
fd
ff
fe
ff
00
ff
fc
ff
fd
01
fe
fe
fe
fe
00
01
00
fd
ff
ff
01
ff
01
fd
01
fd
fd
00
01
fc
fc
fe
ff
00
00
02
02
fd
01
ff
01
fe
ff
01
00
00
fe
01
fd
ff
fc
00
00
fd
fd
02
fe
fd
00
ff
fd
fe
00
01
ff
fd
02
fe
02
01
00
00
ff
fe
00
ff
fd
ff
00
fe
00
fd
ff
fe
02
fe
fe
fe
01
fe
01
00
00
ff
fd
ff
fe
00
02
fc
fe
ff
ff
01
00
01
fc
02
fd
fe
fe
02
02
fd
00
ff
ff
01
fe
ff
ff
ff
01
fd
fe
02
fe
fe
fe
02
00
02
00
01
ff
00
fd
ff
01
ff
01
00
00
ff
ff
fc
fe
fc
fe
fe
02
00
fc
fe
fe
ff
fd
fe
01
ff
00
ff
fd
fd
fd
00
02
ff
fc
ff
01
00
ff
01
fe
ff
00
ff
00
ff
ff
00
fd
ff
ff
fe
00
fc
fd
ff
01
ff
fc
fd
fe
00
00
00
fc
fd
00
ff
fe
fd
01
00
01
00
ff
fe
fe
fe
fd
fd
fd
fe
ef
ed
fa
0f
fd
fc
01
d8
ff
fa
fe
04
f7
dd
bc
e3
ec
0f
0e
00
02
ff
06
fc
00
fe
fe
00
02
fd
f3
ed
0e
fa
04
06
f3
f6
fa
ef
c2
06
10
0a
12
06
fb
f8
ee
15
11
0a
0a
0a
00
09
f9
d8
f3
ea
ec
db
e4
e5
dc
c8
e1
f5
eb
04
e5
fe
e0
f7
de
f5
e2
03
f4
0a
09
05
06
0a
ff
03
01
02
00
01
04
02
fd
01
04
01
06
02
fa
f4
10
f1
f7
ee
fb
fc
f3
dc
16
fc
10
1d
f3
f4
0b
03
f5
c8
d2
f6
02
01
f6
fc
ec
fb
04
06
02
f7
ec
f9
f0
ee
08
07
fc
02
fb
06
05
06
01
04
e5
ee
ff
0d
06
03
f3
ff
05
d4
f7
0f
ff
eb
e0
0d
01
f9
e5
f0
fc
f0
fe
ff
08
15
fa
fb
01
f7
fa
07
fd
fb
f4
00
ff
02
01
04
e9
f8
05
0b
10
ff
05
d4
f9
0e
e3
e2
01
fa
fc
ea
d9
fa
05
06
fd
01
02
02
00
ff
d9
e2
02
08
fd
ff
00
08
06
ff
ff
05
f9
dc
b8
cf
df
ed
f7
02
ff
02
fe
ff
d9
f2
f6
f3
d0
dc
ed
e3
d1
02
e7
05
0a
f9
00
12
0c
f7
12
09
f4
01
fd
07
07
fd
fb
fa
f0
fe
0d
04
01
09
07
04
e2
03
0e
fd
fe
00
00
01
01
19
0b
19
10
f7
e2
e0
f5
09
0b
dc
c2
d6
04
0a
f4
de
df
fd
e7
ce
cf
e1
f1
0d
15
00
fd
f1
e8
d9
eb
c8
0a
0a
0f
0c
08
06
0a
ed
06
06
0c
01
0a
ff
f6
f3
f5
00
fc
00
ff
03
00
09
fb
e4
db
fc
eb
ec
09
06
ff
fe
fe
01
fe
04
fb
00
00
e0
f0
0d
05
f8
cc
05
f3
01
f6
f9
e7
07
07
07
ed
f6
e4
06
ee
ed
0d
07
fc
01
f7
f0
0c
05
eb
c6
e0
fc
09
10
cc
33
fc
f5
f8
ef
fb
f5
06
e5
f8
f6
d3
da
f9
0a
01
00
02
03
02
07
f7
01
fe
01
fb
ff
ff
04
fe
f2
07
f7
0f
0b
ed
12
07
05
0c
f1
08
11
eb
05
ea
f3
fb
f5
f0
06
02
f7
02
fc
10
f1
f9
10
07
fe
f4
0e
fa
fc
0d
01
03
d5
d9
01
06
03
05
03
05
f3
fd
01
fc
02
f6
ee
f7
17
f6
f8
ed
07
fe
ef
06
07
08
ea
f6
ee
0a
0b
eb
08
03
15
14
02
02
0a
09
ff
04
fd
04
02
01
02
0a
02
00
00
f3
1c
e9
da
0d
f1
fd
00
0d
e7
2a
06
01
e6
eb
f4
00
00
00
ff
ff
06
f8
e4
eb
e1
f8
03
09
00
00
e0
03
05
fc
01
dc
e7
e3
e4
d4
fd
02
02
00
01
dc
f2
fa
1e
2f
ea
0a
03
ef
cf
26
03
f5
f5
06
03
00
04
0a
e7
09
12
f9
fb
ea
fe
16
05
fa
f4
e2
07
06
03
0f
0a
fa
f6
04
01
02
fe
00
fe
01
02
f6
10
fe
dd
14
01
0d
01
f3
f6
02
f9
e5
de
08
f8
ec
f6
e6
e5
f3
e4
d5
d5
e7
fc
08
03
f7
0b
f0
f2
06
ef
f5
de
cb
e7
02
f2
f4
fb
0b
05
05
03
fb
ef
fb
fc
f3
fb
ff
06
12
0b
05
09
13
f9
f4
f8
05
0e
02
02
fe
ff
01
1d
1c
e6
05
0d
e9
07
ff
ec
eb
1f
02
07
0c
f6
ff
fa
fa
02
fd
07
fc
07
0b
fe
f7
04
00
ea
00
e7
06
f5
ee
f3
05
0d
fe
f8
f8
18
19
06
fb
06
0b
0a
fe
f5
01
11
05
01
0d
12
fe
01
fe
01
01
04
03
02
03
03
f8
fa
f8
04
0c
d9
e7
f8
e7
ea
fa
02
00
0a
02
f9
06
fe
f3
f7
03
ff
fd
09
15
14
f6
f9
fc
07
02
dd
d6
f3
f5
26
1b
0b
f1
fd
01
05
e5
eb
ec
00
ff
01
fe
ff
fa
d0
ee
f2
f4
0d
0d
00
03
05
eb
00
03
fa
fd
f9
f7
fb
fd
f8
0a
11
ea
fe
09
25
0d
07
fb
0c
0f
0b
04
fd
09
fd
ff
fd
fd
ff
fb
fc
fa
05
fe
13
00
ec
fd
22
14
0b
fb
f9
0e
fe
03
00
08
fe
ff
ff
fe
fe
02
17
1c
23
05
0b
0d
f4
fc
03
0c
fb
f7
f1
fe
06
1b
12
0b
03
01
fd
fd
02
fe
00
e8
ff
15
ef
fa
f7
fd
fc
eb
f5
22
01
f4
04
05
1e
24
f7
03
18
fe
05
fc
f7
f6
1f
13
0f
09
01
00
fe
03
ee
04
1f
f3
d2
fd
17
ff
ff
ff
fd
01
23
3c
11
0e
04
1d
11
08
06
1e
18
1b
0d
03
0f
fc
f3
03
0f
00
23
1e
15
00
fa
ff
fa
03
f2
e6
12
13
19
05
11
0b
fe
ec
03
07
e6
ff
09
06
eb
fe
02
03
fe
ee
08
f9
fa
fb
15
0b
0a
fd
03
eb
fc
13
df
05
f0
fe
00
00
fe
fe
f6
0c
fb
fe
ff
e3
01
f7
fa
fd
09
04
00
f8
f4
d6
fd
07
04
eb
f6
f6
ea
f4
08
07
fa
00
ec
f9
d7
05
06
f9
ef
d3
fc
fb
e8
fa
f5
ff
03
08
f1
f2
ed
03
d4
f8
f6
f2
eb
ff
0c
02
01
fe
ff
03
fb
ff
fd
03
ff
ec
fc
04
ff
f3
fa
f3
ee
0f
00
e9
f8
06
0e
04
03
ee
0c
ff
fb
f3
ea
f1
01
ec
fd
f9
fd
fa
f0
04
02
d5
01
00
f3
f6
ca
f2
01
fd
08
e5
ec
ff
fd
01
fe
fd
01
0a
08
f0
f9
f4
00
f3
f9
ed
1c
00
f4
f6
0a
fc
ea
07
07
06
ee
fb
03
05
03
04
01
11
e6
13
fd
09
ff
fb
06
0c
02
ff
01
03
01
0d
05
0d
fa
00
07
00
f0
16
f9
f6
05
fc
ea
fd
04
00
f0
fb
f0
ff
02
02
01
00
0b
03
f1
08
fe
ff
0d
fd
fb
05
e3
06
06
03
f3
e8
fa
ca
d6
f0
ff
ff
ff
ff
01
ee
f1
02
0a
19
c5
00
06
fa
e4
07
f6
02
08
15
fc
01
0d
12
0c
ea
f8
fb
f9
ef
0d
19
03
01
fd
fd
e7
0c
02
fd
ff
0a
e3
0b
f1
fe
02
00
fe
00
ea
01
f0
13
0a
0e
06
01
03
ff
06
04
02
fe
fa
ee
07
fc
11
00
f8
f5
ce
d3
f3
e3
ee
03
fd
ec
00
fc
00
1c
03
f0
fb
f7
fe
04
d8
e6
fd
09
09
ed
ed
f9
0a
15
f3
e1
f8
04
01
e9
de
f6
f0
f1
fb
dd
e6
f2
f8
ff
00
03
fd
02
ef
ee
f8
ee
00
00
06
0a
04
fd
e9
c6
05
fd
fd
e9
03
07
0f
16
0d
0a
02
f6
e5
d3
f7
ff
fe
18
05
08
0c
07
06
04
08
0e
0c
f6
c5
c0
e4
11
14
04
0f
11
fa
d5
10
0f
0f
0a
05
00
01
ff
01
ff
02
02
00
fd
03
d3
e7
09
03
03
e4
da
e0
fe
23
e7
e2
09
03
0e
eb
ce
09
f9
ee
ef
f9
0b
07
0e
fc
f2
ef
08
09
fc
d7
dd
d7
d2
01
0b
02
de
ca
07
0a
0b
fb
ec
fd
fd
fb
f6
f5
01
f1
f7
eb
e8
03
e5
ff
06
f5
f5
ef
fd
0c
24
d9
e9
03
14
1a
f6
fe
02
09
f1
f0
db
f7
ff
03
02
f8
fe
f3
f8
02
ff
ff
ff
03
00
d8
01
fe
03
e5
f1
01
0f
d4
fe
0b
05
f2
d9
f4
f4
03
0c
ed
00
fe
fe
01
01
ec
db
ef
ed
f0
dd
ce
f5
f7
00
cf
d7
03
0d
05
0a
0e
0c
07
e7
fe
03
00
00
00
ff
03
08
1a
23
fe
00
06
02
03
f8
e6
f5
0f
10
f4
ff
ff
f2
f3
fa
e9
0c
fb
fe
f8
f8
f0
02
14
fc
f7
12
04
00
f2
d3
e2
f3
e7
02
01
ff
00
01
04
ee
e2
f1
ff
f2
f2
d5
f5
c3
e9
fe
f0
0e
0f
f4
dc
f1
f2
10
09
0e
12
04
e2
fb
ff
14
12
0b
f5
ea
00
17
f6
0b
0f
11
12
0a
ee
f9
f8
0f
fe
f0
00
01
05
00
ec
f9
f3
ef
d8
17
13
23
0a
14
00
fd
f5
fc
03
00
ff
fe
02
ff
ee
f6
f5
fa
03
cd
f2
f0
e3
f1
ee
16
07
ff
03
f7
03
02
fd
f6
f1
f0
d1
df
f1
01
10
04
f6
fb
d7
f2
f1
09
fb
e1
01
0e
fb
f5
01
15
1b
0e
03
f5
0d
0f
08
0a
10
02
fc
03
00
02
00
00
fe
02
ff
01
01
fc
f8
f5
f9
eb
f7
f5
00
ff
0a
06
f8
0a
0b
0e
14
06
14
1a
28
05
ff
08
08
fd
00
f3
00
0d
04
03
07
0e
f3
f8
ff
fb
f5
fb
f8
fb
09
e1
eb
ed
f0
ea
0a
07
08
08
07
04
eb
f4
f8
fc
0c
10
23
02
0b
e8
ef
fe
fa
ec
f6
fc
fb
fa
f7
e4
00
fd
06
13
07
e9
00
05
11
03
06
09
1a
11
fe
02
01
fe
fe
fb
fc
09
01
ed
ea
0f
08
0b
0b
ef
0a
10
04
13
f9
05
17
fe
01
02
fe
fe
02
01
ef
f3
21
03
f7
f2
08
f7
01
00
f2
fa
f4
fa
f3
f2
0c
11
f6
07
00
02
ff
fd
00
0d
06
0d
0c
f6
e1
f6
0b
09
09
f8
1c
ff
f1
05
f3
f8
e8
f7
0f
0c
04
fc
f2
0e
fe
19
17
1d
0f
ed
f6
fa
0e
10
06
f3
ee
fb
03
02
01
fd
01
00
03
00
fa
f3
03
06
fb
1b
06
13
05
ff
2c
14
06
0c
01
f5
00
fd
ee
0a
0c
e6
f9
f3
05
11
07
fe
ff
f5
10
09
11
1e
0c
08
08
fe
eb
f2
f6
09
fa
e6
f6
f3
fe
01
f4
e3
f6
00
fb
f3
ee
ff
ee
0e
e7
0a
03
e9
07
03
ff
02
00
00
f9
fb
0a
02
fa
f4
f1
fb
f9
fd
e9
ff
fd
e8
08
fb
f5
01
06
09
08
04
03
ec
df
ed
fa
05
0a
08
f3
e6
f8
fb
fe
02
00
02
ff
04
ec
f5
ed
ff
ff
fa
fe
0e
15
0d
07
08
06
f5
f5
03
00
01
01
02
00
fe
ff
00
03
f0
f1
01
04
fd
d4
eb
d4
ee
15
29
fb
06
02
ef
1d
fc
1a
15
00
e8
f1
f6
f9
0a
06
fa
00
02
01
e1
04
05
01
e9
df
03
07
09
f2
f7
fa
07
fa
fb
03
04
01
02
01
eb
fc
08
00
da
11
15
fe
0f
f7
d3
c8
ed
da
10
f3
f4
fd
06
0a
03
02
04
02
03
fe
0f
0f
12
0f
07
00
f7
e1
0c
00
fe
ff
00
fe
30
f2
10
02
fc
0a
06
08
01
0b
f3
f6
07
06
fe
f5
f4
f9
f9
f1
ff
01
fd
fe
03
f1
dc
07
f1
00
ee
fa
d8
01
00
ef
e4
fa
06
f8
f8
15
11
0d
08
fe
01
ff
01
01
f6
04
ff
08
11
f0
dd
f0
fa
04
0f
f6
f0
0b
f9
0b
0b
1b
0b
05
0e
fe
11
ff
f0
ef
f3
f5
f7
0e
01
07
ff
ff
f4
dc
0b
11
07
ee
00
fe
fe
00
ff
f1
fd
14
01
02
00
00
ee
02
f4
f6
f6
da
f2
fe
f7
04
0d
ea
16
0e
12
0c
08
00
01
fa
fa
14
07
1d
07
0e
0d
0b
05
07
04
f9
02
f9
04
01
f6
ea
ff
06
04
fc
fb
ea
f8
f3
01
07
01
f9
00
fd
06
e7
9a
f1
d5
dd
ff
ff
00
02
01
ee
e7
01
ff
e8
f9
f8
05
01
dc
f3
09
07
ef
e5
fe
08
03
09
0a
16
0e
0a
f3
c9
e5
03
05
02
08
fb
fc
fa
f1
e0
16
f1
e2
f9
fc
0d
16
05
f3
10
f5
17
fb
00
fc
15
13
09
fa
e9
ff
02
ff
ff
ff
04
01
00
fe
01
f7
04
02
01
02
dc
f6
02
10
10
07
0c
e8
e7
c7
e4
03
06
fc
03
ea
f9
fc
08
0e
fd
f9
de
d5
ce
fc
f7
09
ea
e9
da
e2
fa
15
f1
05
01
05
e2
d7
08
05
04
01
02
07
00
01
f3
e4
e1
02
04
fb
21
cd
d6
e9
05
13
fb
03
05
0b
0c
fc
05
fb
00
0e
09
f7
1e
0d
ee
04
ff
01
f7
00
fd
00
fe
02
fe
f9
04
de
db
c9
f0
f4
15
06
1b
f5
fc
05
01
ff
fc
03
ff
00
02
fd
02
ff
00
02
d6
ee
00
01
fc
e3
eb
f1
f6
01
f9
fd
ff
05
03
02
fb
00
02
ff
ff
fe
fd
ff
00
ff
fd
fa
0a
10
1d
01
db
e2
ce
fc
03
e8
dc
09
07
fb
0a
04
ec
13
0b
11
ff
d8
f3
ff
f4
f9
fd
09
05
05
04
e7
ec
da
0f
0a
05
ff
01
00
01
fe
f8
02
15
2c
03
eb
06
06
f7
1d
f1
ed
ec
d8
f3
09
1e
0d
f4
eb
06
00
04
fe
fe
f4
fe
07
09
0b
eb
fa
00
f7
f3
0f
0b
02
fe
fc
eb
f2
ff
09
f3
d3
ec
ed
ee
e7
da
f2
fe
fc
f2
f3
de
27
02
0a
e9
04
02
f7
03
ff
fe
00
02
01
db
f6
0f
10
0c
e8
cf
d1
04
f3
d8
fb
fe
19
07
00
01
00
09
f9
ef
ea
08
07
19
ef
01
fa
02
e4
d7
d0
da
fe
0e
c1
e4
0a
ff
06
cf
cc
e1
f4
ee
a1
a8
ff
09
00
05
01
f1
05
e9
02
02
01
02
ff
02
ff
fa
fd
fb
f0
f8
03
0b
f8
d3
e4
ee
f7
fb
05
02
0e
10
e3
fd
e2
ed
07
f4
fe
09
08
fd
e5
e7
f8
01
fe
fe
cf
ed
f7
f6
ff
9c
d5
f2
e5
ee
d9
ef
fb
14
f5
fb
fb
ff
01
03
da
e3
f3
0c
fc
e2
07
f7
fe
fe
d4
f6
f5
e4
fd
f8
fb
fe
ff
ee
ed
f0
0a
00
f5
d4
f7
0d
fd
0b
01
00
f4
fb
05
fe
fe
ff
02
00
f2
02
17
0e
03
ee
09
18
1a
0a
ce
a7
f9
04
ff
ee
f5
04
02
03
00
02
ff
ff
fe
c1
b4
05
13
02
f0
fe
00
06
fb
f6
ed
04
0f
fe
b4
b3
e3
08
00
ff
fd
02
01
01
0a
03
fc
15
f6
c8
ea
12
ef
19
e4
f2
07
0c
ea
eb
da
fb
ff
02
f9
05
16
12
de
e9
00
f9
f1
ef
08
02
03
09
f1
cd
00
08
0d
02
fe
ff
ff
fe
fe
d6
be
f6
0c
fa
ee
fb
0c
06
10
dc
f1
fa
ff
06
e3
13
1b
eb
f6
b2
a3
c2
0d
fd
08
f1
f2
01
02
e5
bc
ed
02
1f
13
1f
10
f7
f9
e4
e8
ec
d6
d6
fa
f3
f5
f0
db
fc
04
f0
db
d0
06
fa
fe
ec
e7
f5
ff
fb
eb
c5
00
00
03
00
ff
f7
f0
05
fd
f6
00
07
ed
01
10
03
03
03
f8
c2
1c
06
ee
d8
04
00
01
03
0d
0a
f3
db
e3
bc
ee
f1
f5
fd
01
06
fa
ea
02
00
ff
f2
fd
f2
e6
d5
05
e5
f8
f9
ed
f2
fe
03
07
04
02
03
ff
ff
fe
f6
00
05
fd
f9
0f
fa
c5
aa
d4
f4
06
09
fa
d4
f7
22
0a
de
eb
f2
ef
f4
d2
c8
26
0e
f1
d4
ed
05
fa
ea
f2
cd
dc
07
0f
03
e6
c9
09
0d
02
f1
e6
f5
07
08
07
01
03
02
07
02
fe
08
08
04
e9
f0
fd
e8
d8
b3
fc
04
00
ee
ed
15
00
e6
c4
f0
f1
00
08
0e
f9
f9
0e
fd
fc
ed
f9
fc
f7
ff
01
fd
01
02
fe
02
dd
ea
f8
ec
e1
e4
e0
fc
fb
e6
0a
19
06
f6
ec
f9
f4
f9
f9
de
00
00
ff
01
00
fc
f8
06
03
dc
04
02
11
03
ea
12
ff
e8
c8
bf
fb
f7
e0
fb
04
01
fe
00
01
00
00
04
00
f2
dd
f8
f9
dc
f6
f5
f4
fe
ed
e5
d5
f4
f6
fe
05
fe
d5
d8
fd
0c
05
03
04
f9
f7
e1
0f
03
ef
0b
15
ff
18
04
ff
e0
ff
02
ff
fe
00
04
ec
fb
ff
eb
07
07
06
00
c6
0d
ff
fe
f5
e3
bb
f1
0b
02
fd
fe
ea
f4
02
08
1d
fd
e6
d3
de
08
0d
0d
fc
f4
ff
04
04
01
fd
f0
f4
fa
fa
f9
fe
fc
fb
01
f9
ff
02
fe
ff
01
fc
f7
f8
f8
fd
fe
00
fc
fe
fb
fe
fe
ff
00
fe
ff
ff
00
02
01
ff
fd
ff
01
00
fb
fc
fb
ff
fd
f7
fa
f9
fd
fa
01
01
fd
ff
fe
fa
ff
fc
fe
fb
01
ff
ff
01
fe
00
02
00
fe
00
fa
fe
fb
fc
f7
fa
ff
00
fd
fe
00
01
fd
fe
ff
01
ff
ff
fe
01
fe
fe
01
00
00
f4
fb
fb
fe
fd
fb
00
02
ff
fe
00
fe
01
01
fd
fb
fa
fc
fb
fa
fc
02
fe
ff
ff
f9
fd
fd
fa
fa
fe
fb
ff
fb
fd
fe
fc
01
ff
fe
00
ff
02
02
fd
02
02
01
02
00
fc
f5
fb
f8
fb
01
04
fe
ff
fb
fc
02
fe
fe
fe
f7
f7
fc
fc
f8
fd
fe
01
01
ff
fe
ff
ff
fc
fe
02
02
01
ff
00
01
fe
ff
00
02
07
fc
00
ff
00
03
fe
01
01
02
ff
00
fc
fd
fd
fe
f9
fe
fb
fb
00
fd
fe
00
fe
01
00
ff
fe
01
fb
00
00
fe
fe
fe
fe
01
fc
fc
fb
fe
00
00
fd
00
01
03
01
00
fa
fc
fe
fb
fc
fc
ff
fe
fe
01
ff
f9
ff
fe
fa
00
00
02
01
00
01
02
00
fe
00
fd
fd
fd
fe
ff
ff
02
fe
fe
fd
fa
fa
f8
fc
f6
ff
00
fe
fe
02
00
01
01
ff
03
01
f9
fb
fd
f8
fc
fe
fe
fc
00
01
fd
fe
02
02
00
fe
00
02
02
fa
fa
fa
fd
fc
07
fb
fb
ff
fb
f0
f7
f7
f7
fa
f5
fc
fa
0a
01
10
21
f8
00
fe
f9
f5
e1
00
00
11
0a
fb
03
2c
00
13
f3
ed
0d
fe
ff
01
01
fe
e7
0c
0c
15
02
ef
ee
ec
f9
15
2a
05
f6
f9
12
06
ff
00
05
04
00
ff
f6
f7
f7
00
0b
08
09
fe
f7
f0
f0
f7
0d
0e
ff
fb
02
0a
06
19
01
ff
02
04
0a
14
07
fd
09
0b
09
06
f7
00
fe
00
02
ff
13
01
09
06
08
f5
fa
fe
05
05
d3
f3
fb
f2
fa
f1
f1
08
09
ec
00
eb
06
1e
fa
f9
01
03
03
0b
0a
07
f7
f9
ff
e2
01
fe
00
ea
e0
08
01
0e
07
ec
ee
01
04
f9
05
01
02
02
05
e7
f5
fa
fe
e2
08
15
fb
ff
09
c4
c2
df
de
14
ff
fe
fd
01
01
00
06
02
09
0b
f7
1e
0c
0f
22
1a
0c
ff
fe
08
fc
00
fd
fe
ff
02
e8
0a
09
f8
03
0c
0a
0b
0b
fd
12
03
0a
02
f3
fb
04
f7
f9
ff
ff
02
01
ff
00
03
18
0f
fe
f7
fc
db
04
03
f9
fb
f6
04
f7
f1
ff
fe
04
08
00
01
ff
fd
01
0a
12
fc
fa
fd
18
04
f5
f9
0b
00
05
fd
04
ed
fc
05
12
14
0f
ec
ec
0c
0c
ee
0f
0b
f1
f9
05
f5
fa
00
09
ef
e1
0d
0a
12
f5
02
02
03
03
fd
e1
14
15
1f
fc
1e
1f
0d
fe
0d
0a
fa
08
f4
0f
e9
fc
11
fb
19
ea
fe
02
ff
13
0b
08
f6
06
fe
15
24
07
06
0f
05
02
05
f0
f8
f1
08
10
0c
f5
09
fd
fb
f1
f3
09
0a
01
e6
ef
df
08
01
f4
e7
fa
13
07
d3
ed
ff
00
01
02
ff
06
04
0a
f1
fd
12
fb
f0
fb
00
f3
04
04
f1
e6
da
f7
05
fb
ff
05
f9
fa
01
00
0f
10
f8
05
e2
06
e6
f4
01
03
ec
ed
ea
fc
13
13
0f
07
fa
f0
f5
e1
f6
0b
10
fa
f4
08
08
01
00
00
fe
01
02
08
fe
fe
00
01
02
05
07
fe
ec
02
0a
0e
06
fd
f5
f5
eb
0a
f8
1a
19
0b
0e
f1
ed
d9
bb
e2
e9
f9
f9
fd
fc
eb
e5
05
04
00
e5
e2
fc
01
0d
0a
06
fb
fe
04
01
07
04
07
08
09
e6
08
04
fa
e8
0d
16
09
ef
03
0f
00
08
00
f5
e2
f4
0e
02
f6
e4
d9
e7
0c
09
f2
08
02
f1
f7
0e
0b
f0
fd
fb
03
ff
ff
00
00
0a
16
1e
0a
e5
12
fc
10
02
f8
0d
f0
fc
04
0f
ef
f9
00
fd
e9
fe
02
00
00
02
e1
f8
0e
ff
f2
01
0b
07
f9
ed
fa
f8
e9
ed
f9
f3
ee
f0
0e
17
00
02
fe
01
ff
0b
07
02
fc
01
f2
e7
f0
05
0e
0f
0c
0c
02
e9
01
d0
e9
fe
00
f8
fd
02
16
0f
13
1b
20
f4
d9
fd
15
02
07
09
08
17
fc
ee
f1
fe
ff
fe
01
00
f7
e8
ec
f2
fc
00
fe
07
ff
fe
eb
03
0f
ff
e5
e2
f0
fe
0e
0b
f6
e9
e3
0b
18
e8
00
14
08
17
fb
06
1f
06
ea
e5
ec
09
09
04
fd
02
fa
fd
fd
01
fb
fa
fe
f9
f8
fb
f7
fa
fe
fd
00
04
04
04
ff
ff
00
00
00
00
02
00
00
02
fc
fa
ff
f7
fb
fb
fd
ff
fe
fe
01
04
02
02
01
fe
ff
fd
fc
fd
fb
f9
fe
fc
f9
ff
fe
fd
ff
f9
fe
fd
fb
fc
fb
00
fc
f9
fc
fd
f9
fc
f7
fa
f9
fe
fc
fe
fc
ff
fd
ff
fe
fb
fd
01
02
02
00
00
02
03
03
fd
fd
00
fc
fc
fe
fe
f9
fc
fc
fb
fa
fc
01
ff
fd
01
03
fa
fe
ff
ff
fe
01
fb
00
fb
ff
fa
fb
fb
fb
f9
f9
fa
f9
fd
fb
fe
fc
fb
fa
f9
fc
fe
fd
fb
ff
03
01
ff
01
f9
fe
fb
ff
fd
fc
fe
fd
fb
fa
fc
fd
f9
fe
fc
fb
ff
fa
fb
f8
fc
fe
fd
fd
fc
ff
02
02
02
fd
05
0b
0b
02
00
00
01
fe
01
ff
02
fb
ff
00
fc
07
03
01
07
05
ff
fe
ff
fd
fd
00
03
03
03
02
03
fe
fe
00
fe
fb
fa
fe
ff
ff
f9
fc
f9
fb
fe
fa
fa
fc
fc
fd
fd
fa
fd
fd
fc
02
02
fe
fe
02
fd
fc
ff
fe
01
00
fc
fb
fa
fa
fe
fd
fb
fe
ff
f8
fc
fa
f9
fb
fb
fa
f8
fc
fa
fb
fb
f7
fa
ff
fd
fc
f8
fa
fc
fe
02
00
00
02
02
00
00
ff
02
fb
fe
fd
f9
ff
fe
ff
05
02
01
ff
fd
00
02
01
04
fd
fe
f9
ff
fc
fa
fd
fc
fa
00
00
fe
fa
fe
fd
00
03
03
fe
01
01
02
00
00
fa
eb
e7
0f
fb
fc
03
f6
05
fb
f9
fc
f2
01
f2
19
05
0a
0f
09
08
00
ff
ef
14
fe
ff
fd
ff
ff
f8
ee
05
07
fd
05
06
f4
0b
fe
01
05
02
03
fd
02
02
0f
ea
eb
0c
0a
11
d0
d9
02
f1
ff
10
00
f8
f9
fb
03
00
01
f3
fe
10
0c
0d
12
ef
07
f9
ef
f1
0f
0f
07
02
25
f3
cf
f0
00
02
ff
fd
02
03
01
fa
05
0b
09
0d
f8
0e
f8
02
02
f9
ff
0c
0a
ff
df
08
01
13
00
0e
04
09
1d
03
ed
22
14
fd
fe
03
03
f3
ed
fa
fc
e6
e9
e8
cf
fc
11
fe
ff
e6
04
fc
fd
07
08
06
07
04
f6
fb
01
f1
f2
10
f5
f3
f9
ed
ff
f9
02
0d
f4
00
fd
e3
0c
f5
05
f9
01
19
0d
eb
f4
06
f5
fd
09
0b
0d
fa
07
00
00
ff
00
00
f6
15
09
fb
fe
07
04
05
fd
00
f2
fc
0e
12
08
f6
02
0a
00
00
ff
ff
fe
00
00
0b
0b
06
f7
fd
01
0c
f3
fa
f3
09
0a
df
fa
ee
00
05
04
18
11
ff
fe
02
01
02
22
f7
ed
fa
08
e8
f1
f6
12
10
0c
0a
f5
07
f5
0d
f5
fb
0d
06
fe
e9
08
df
f2
1c
0b
fb
f8
f5
fa
e5
0f
ff
fb
ee
00
05
f7
08
02
02
fe
03
fe
03
ef
0f
0c
f9
1c
19
07
0d
0b
04
06
05
f8
05
ee
d9
eb
fa
f3
02
fd
01
19
11
07
03
fe
00
fc
0f
10
08
f7
f0
01
fc
ed
f5
20
eb
f5
f8
01
04
fc
01
02
01
01
ff
00
00
01
fa
fb
f9
fd
fb
fb
f6
f5
00
f7
fe
00
ff
03
fe
01
ff
fa
00
fb
fb
ff
00
fc
01
ff
f2
f5
f8
f9
fb
f6
f1
ef
f2
fc
fc
f9
f8
f9
f5
f5
f8
fc
02
01
ff
01
ff
02
00
00
01
00
fe
05
f1
fc
fc
fc
ff
00
00
01
00
ff
f6
f6
f8
f2
f0
00
ff
fd
fe
00
01
fe
02
00
ff
f3
f7
f8
fa
01
fb
03
ff
00
00
00
02
04
fe
fd
fd
fe
00
03
ff
00
02
fc
00
04
fc
00
fe
fe
f9
fc
f8
01
fc
f9
ff
fd
fe
01
ff
00
ff
fd
fc
fe
01
01
02
02
01
f7
ee
fc
f8
f4
05
02
fc
f6
fa
00
04
00
01
fe
e7
f3
f5
f7
fe
fd
fc
01
01
fe
f5
f4
f6
f3
f3
00
fb
02
02
07
01
01
00
ff
02
07
ef
f9
f1
f2
ff
ff
fe
fc
01
02
01
01
fe
02
f9
f2
f9
f7
f7
ff
fe
fe
00
02
fe
ff
fc
fc
fd
fd
fd
fc
fc
fb
00
ff
fd
fc
fd
00
ff
01
fe
00
ff
02
01
fd
01
fd
01
fe
fb
fb
fe
fe
00
ff
02
fc
00
01
01
ff
fb
ff
fc
ff
ff
03
ff
04
04
02
f9
01
04
00
ff
f9
f7
f9
f9
f6
fd
ee
fc
fa
f8
00
00
fe
ff
ff
fe
fd
01
fd
00
fc
f4
fc
f5
fa
00
02
fd
00
01
00
00
02
00
00
00
fe
00
ff
01
f2
f5
ed
f4
f7
01
f0
fc
f6
f4
eb
ed
f1
f2
f1
fe
fd
fb
fd
fb
ff
fc
00
fd
fe
fb
ff
fc
fc
fa
00
01
00
00
03
00
fe
fe
fd
fc
00
02
fe
ff
01
fb
fe
fc
fb
fd
fb
fa
ff
fe
fb
ff
ff
fc
fc
00
ff
fd
fc
fc
fb
02
ff
02
01
02
fd
fb
fc
fa
fe
fc
fb
f8
f8
f9
fe
fd
fc
fb
fc
fd
00
fc
fe
f8
ff
fb
fc
fc
f9
00
fe
02
02
fe
fe
00
ff
02
02
fe
01
ff
ff
02
00
fb
fe
fd
fb
fb
fc
fe
ff
fe
fd
fc
fe
fb
fd
fe
01
fd
fd
01
fa
fe
fd
fa
fb
01
fe
fd
fc
ff
fc
fe
ff
fb
fe
f9
f9
fd
f9
fa
fc
fe
fd
02
01
fd
01
02
01
ff
fe
fb
fe
fc
fc
fb
fd
fb
fb
fc
fe
fc
fb
00
fd
fe
fb
fe
fd
fc
f6
f6
f7
f6
f9
00
01
00
fe
fe
ff
02
02
02
ff
02
fe
fe
fe
03
fd
00
ff
fb
00
fb
fe
fd
fe
fe
fd
ff
fb
fe
fe
fb
02
fb
00
fc
ff
01
01
00
fd
ff
fb
fc
fc
f8
00
fd
fd
fc
fd
ff
f9
fe
fd
fb
ff
fb
ff
fe
fb
ff
fd
03
02
00
f9
fa
f9
fc
fa
fb
fc
fd
ff
fe
fb
fe
ff
ff
ff
ff
fc
01
fe
fc
00
01
01
02
02
fb
fe
fb
ff
fd
ff
00
00
02
00
04
f9
01
00
fd
fe
01
00
01
01
fd
ff
00
fe
fc
fb
05
fa
fe
00
fe
00
fc
00
01
ff
fc
ff
fb
fe
ff
fc
fd
fd
fe
ff
fd
ff
ff
fb
fc
fd
fb
01
00
00
ff
01
fe
00
e2
f4
fd
f5
05
12
0c
f1
e7
0a
00
06
10
f9
eb
0d
07
03
01
fd
f3
f0
03
07
f7
02
fd
ff
01
ff
f9
f5
08
02
fb
09
01
0a
09
06
ef
00
07
09
fa
fb
ee
1d
f5
10
ee
fb
08
fb
fb
fb
0c
05
ec
09
0b
03
03
fe
ff
0d
01
03
fb
f8
1a
23
01
eb
0e
03
f2
f9
f6
f8
fc
09
f9
fd
03
02
01
fd
ff
01
ff
00
03
04
f7
fb
ea
f9
e9
09
03
fd
f6
07
f5
c8
ef
12
f8
05
18
1a
0e
fd
ea
0c
e8
15
f5
fb
f9
f7
de
e6
0a
e9
ff
06
fc
fe
ee
f9
00
f4
ef
01
f6
00
fb
f9
00
03
01
ff
00
dd
fa
08
02
f6
08
0d
0f
f5
e9
00
01
f7
fc
ee
00
f6
13
e8
0b
fd
04
03
f5
f9
c4
00
01
fc
fa
fb
fb
f6
f5
ff
ff
fe
ff
ff
02
f8
e7
fd
09
08
00
0d
0e
0a
0c
f1
f0
fd
fe
f6
fc
f8
0c
f7
fd
01
ff
01
fd
01
f8
08
06
03
06
06
02
fd
0d
e0
02
e8
01
fa
fe
06
fa
f5
f1
f9
ff
01
00
ff
03
0c
0c
02
11
fb
09
01
08
fc
01
ea
ec
1d
ef
0c
f8
02
0f
0b
fb
e7
f2
04
f6
ed
10
ff
f6
ec
11
d2
02
f9
f3
d7
e7
fe
0a
00
00
01
00
01
fe
00
da
f8
0c
fa
ff
14
f0
ff
10
08
f9
e3
f5
09
1a
f9
f5
03
ef
e8
05
f4
f6
f5
ef
f4
f3
0f
f3
eb
ff
eb
f9
03
09
f7
fc
e8
fa
ff
fc
ff
01
01
ff
fc
fb
fc
fd
fd
fa
00
fd
ff
fd
01
ff
fd
01
01
00
fb
fb
fd
00
00
01
02
00
00
ff
fc
01
00
ff
02
fe
fc
fd
02
fd
fe
fc
fe
01
fc
fc
01
ff
00
00
01
ff
01
ff
fe
fd
ff
00
fd
fd
00
fd
01
ff
00
fc
01
fb
fc
fd
ff
ff
ff
fb
fe
fc
ff
fe
fc
fd
00
ff
fe
fd
01
02
02
01
01
0a
01
fc
fe
01
fe
fd
fe
00
01
fc
fd
ff
ff
fc
ff
01
00
03
02
00
fe
fd
fc
01
ff
00
00
00
fb
fc
fb
fc
fc
01
00
fd
fe
00
fd
ff
fd
fe
fd
00
fd
ff
fd
ff
01
fe
00
fe
01
fe
01
fc
fe
fe
fd
fc
ff
fe
fc
fc
fe
ff
fe
ff
fc
ff
fe
00
00
ff
00
ff
fc
00
01
02
02
02
04
03
fe
00
ff
00
01
02
01
ff
fe
01
02
01
fc
00
fe
06
01
fa
03
06
ff
ff
ff
00
ff
fe
fb
ff
ff
01
fd
fe
00
00
fe
fb
fe
fc
fe
fe
ff
fe
fe
fc
ff
00
fe
fe
00
fb
00
00
fc
00
fe
01
00
fd
03
ff
00
ff
fc
00
fc
02
00
02
00
02
fd
fe
01
fe
ff
ff
fd
00
fd
fe
ff
ff
fd
01
fb
ff
fa
fc
00
fd
fe
ff
fc
f9
fa
ff
ff
fd
02
02
fd
02
ff
00
fe
fe
00
fd
ff
fc
01
fb
01
ff
fe
01
fd
00
01
fe
02
fe
ff
fb
fc
fe
01
fc
fe
fb
ff
fc
fd
fd
fb
ff
ff
fb
00
ff
02
01
fe
ff
fe
dd
ef
f7
ff
ce
03
fc
f3
f7
ea
05
01
f9
fe
e0
e2
dd
ef
fa
06
ff
fd
f4
f4
10
fd
00
fd
00
fd
c9
e5
eb
fe
07
db
e4
05
10
06
e2
e3
f2
01
0d
ee
01
03
f7
f6
f0
fd
fb
00
03
ee
fc
03
de
e3
e3
ed
03
04
02
da
dd
fb
05
1b
eb
f6
f0
e6
e7
ef
ff
f8
03
0d
0d
0a
02
08
07
00
00
02
fe
00
fd
04
fe
fb
01
e3
ee
f4
0c
e5
14
0a
02
f9
e7
f0
05
fa
05
e0
f2
f8
fe
f9
f4
e5
fe
03
f5
fa
0b
06
05
fa
ed
0e
ff
f5
f7
12
eb
f1
f0
f8
0a
dc
ef
fc
fb
09
02
00
01
03
03
01
fc
fb
05
1a
fe
f7
e3
ff
ff
10
0b
03
f7
df
f3
05
fc
ee
ed
eb
ea
f8
01
18
e6
f3
fe
f8
0e
f7
f9
fc
05
ff
03
ff
01
fe
03
f2
f9
fc
e9
fb
fe
ef
e0
fe
13
e4
01
02
04
02
ef
f1
01
fc
07
00
01
fe
02
ff
e7
e2
f0
02
12
fa
01
f8
08
0a
de
f0
f4
07
e6
f9
ff
fe
10
18
fe
03
01
00
02
17
09
04
03
fb
e7
ea
fa
f2
fe
f9
fc
f7
ee
0c
de
f7
00
0e
01
dc
11
fd
f6
0c
0e
f6
ec
f5
cf
d3
fa
fc
04
0a
ec
f8
ed
f0
1a
fe
03
02
fe
ff
b1
f0
02
fc
fb
fc
f3
f7
fc
0b
e7
dc
f0
0b
07
18
16
fa
09
0a
fd
f3
fe
16
17
ed
f1
01
f7
fd
f1
ef
d9
fb
09
18
0f
0c
0a
01
f6
fb
f8
fe
f9
ff
ff
01
ff
fe
ff
ff
01
02
00
fa
f9
fe
f7
f9
00
ff
ff
ff
ff
ff
ff
00
00
00
fc
ff
ff
fe
01
fe
fc
fd
fd
fe
fa
fc
fc
f8
fa
fa
fd
f9
fc
fa
ff
00
ff
00
fd
fc
fd
fb
fd
fe
01
ff
fd
01
00
ff
02
01
02
01
fb
fe
fd
f8
f9
ff
ff
fe
01
02
00
fc
fc
fd
fc
00
00
02
01
02
02
02
03
fe
fe
fa
fe
fd
f9
f8
fd
ff
ff
01
fd
01
01
ff
00
fe
fb
fb
ff
fb
fd
ff
fe
00
fe
fd
f8
ff
00
ff
fe
01
fc
01
00
ff
fe
fd
fd
02
01
ff
01
01
01
01
fd
02
01
00
02
fd
fa
fe
fa
fb
01
00
03
01
01
fe
01
04
00
ff
f7
fb
f9
fb
f6
ff
01
00
ff
03
ff
fe
fb
fc
ff
00
00
fe
00
ff
ff
fd
fd
00
01
01
fd
fb
fc
00
fd
fe
00
01
fd
00
fe
ff
01
02
fd
ff
fd
f9
f8
01
02
ff
fe
ff
fd
fd
02
00
01
ff
ff
00
ff
fd
fd
fc
fb
fa
fa
fc
00
00
ff
03
fe
01
00
02
fe
fe
00
01
fe
ff
ff
ff
fd
02
03
fa
fa
ff
ff
fc
02
fd
02
00
ff
fe
01
ff
02
02
fc
fc
01
fe
fc
01
01
fc
fd
fb
fc
fc
fc
fc
fe
01
01
01
fd
fe
ff
fd
ff
00
00
fe
f7
fc
fa
f8
00
00
fc
fd
00
ff
01
fd
fe
fe
01
00
02
01
ff
ff
fe
f9
fb
fd
ff
fd
fe
fe
fa
f6
f9
fc
fb
f8
f1
f4
f9
f7
e6
f4
09
08
fa
f9
e3
f6
02
04
09
fc
fe
05
f0
ef
e0
f8
03
0a
03
01
00
00
01
fe
12
13
0d
f7
fd
df
f4
fc
ee
ef
14
02
dc
e4
d5
11
0b
00
00
f1
e8
e3
ce
d3
dd
13
08
fb
e6
e1
ed
04
f5
eb
f0
f8
14
02
f8
fc
f6
f5
07
f8
f6
07
fa
00
fa
fc
1c
06
ee
d7
d0
01
01
ff
00
fe
ff
02
03
08
00
00
fd
ff
06
fa
dc
ec
f1
fe
18
13
f6
e0
ef
d6
17
0a
0b
05
ea
07
04
00
01
fa
cd
f5
f9
06
06
0a
fd
fa
f1
fd
1c
11
ff
f5
e2
07
f3
ed
ea
eb
ff
00
00
fd
fa
02
fc
fb
ff
f1
0b
06
09
fb
02
ca
f2
04
06
0f
08
08
03
02
01
01
10
ff
f3
ff
1c
09
fb
f9
05
04
fe
fc
fe
fc
ff
fd
ff
02
ff
19
f6
ec
05
e0
00
fe
13
fb
ff
08
fe
fe
f0
f4
00
fb
fb
fe
ea
ff
ff
00
fe
01
19
f6
f5
ee
d7
df
f4
f9
0c
04
06
02
fc
00
fd
f4
03
09
02
04
00
02
01
01
02
fc
fd
01
04
14
c2
f9
f3
e4
f6
ea
e0
ed
ff
f7
09
06
fe
fb
fb
26
01
f0
09
e8
d8
fb
fd
03
07
fc
f2
f4
e6
f1
1a
00
0a
f1
f0
01
00
02
01
02
11
0a
fc
fb
ff
05
f5
f5
f7
e2
f8
f5
e7
e5
d4
1d
05
15
08
ed
fd
08
07
04
01
15
13
08
00
f2
f6
0f
f7
f9
e6
16
05
fa
f1
e7
f9
fe
f8
f6
04
f5
f1
f1
02
f6
e6
f7
f8
f9
05
13
1f
0e
f9
07
e1
fd
f7
ff
02
02
03
01
fe
00
ee
f4
02
fa
08
ff
fc
ef
fa
f8
0d
12
fb
06
05
f8
fe
fb
f9
f2
e9
f1
f4
17
00
fc
fa
f4
fe
0b
f5
f3
e9
e6
f1
07
06
f2
fe
e8
f7
f2
02
00
fd
34
f4
f2
fa
00
f1
f6
f8
01
f3
ff
01
ff
00
fd
01
02
02
00
08
f0
f6
f9
05
06
fc
0c
f8
ef
f7
0c
03
05
ef
0d
00
fb
fa
03
13
f7
fc
fd
fc
01
f0
fa
02
f8
f7
f3
06
02
e8
02
f7
f6
fe
eb
f5
f1
e8
ee
f6
ef
02
01
03
ff
02
e9
fa
fa
ff
03
48
08
1a
13
14
ef
f9
ee
ef
f6
f2
f9
fa
ed
f8
f6
fd
fd
fb
f9
f7
ea
05
fc
08
0e
05
02
03
0c
ff
04
fc
02
00
04
00
f8
fc
05
04
f6
01
0c
07
3d
fd
f4
fe
f1
01
07
01
04
00
01
00
fe
01
ff
01
12
01
f9
fc
ed
f0
f9
fc
fc
eb
f9
fa
03
02
59
02
f1
fa
fa
ff
02
01
00
01
08
fb
f9
f3
ed
06
02
e6
ed
01
0d
fa
fc
02
08
fe
f8
ec
f4
f4
06
05
f9
f8
e9
ff
02
f8
00
0a
0e
01
fd
fa
0a
fb
f6
05
ff
08
01
fe
fd
ff
fd
1c
f4
f8
fd
ee
fa
fe
09
01
0d
12
0d
fc
05
07
06
09
e4
ff
e0
33
0a
fb
f9
f0
04
fe
02
ee
00
12
f1
00
05
07
0a
f8
f7
ff
f7
ee
f7
f0
ef
fb
f8
fe
01
fc
fc
0b
00
01
fe
08
f7
e7
eb
ef
e1
f8
dc
e8
fe
13
00
fe
fe
02
fe
02
cf
e6
0e
09
13
04
fd
04
fd
f5
da
ca
00
e0
b1
d6
fd
09
14
ff
06
12
09
cc
dc
de
f6
fa
20
20
10
fd
f9
ff
12
03
f5
03
0e
0a
11
03
f4
f6
fc
f3
f8
ee
f5
07
06
0e
0b
f9
01
01
01
fd
02
f8
f6
f9
fb
fd
cf
df
fb
08
10
1a
0e
ff
f3
f4
df
e0
ed
f8
0d
04
de
fb
f9
1a
ed
e6
04
08
19
01
03
f6
fc
03
1d
f9
ee
ea
dd
1d
fd
e4
ea
d2
0b
f9
eb
fc
f0
02
fd
00
fd
fe
0c
fb
f4
f2
e8
08
0c
0e
e3
00
16
0a
04
05
0e
dc
e5
00
0b
13
14
08
f8
1a
04
e3
b5
d5
fe
fa
fc
03
08
fc
fb
00
fe
fe
fd
02
f3
ce
eb
f6
14
fc
fa
ed
05
02
f9
fa
f3
df
fa
02
f9
fb
f2
fd
01
fd
fe
01
fe
fc
f3
da
d0
f1
f8
f5
02
fe
fc
d3
dd
f5
00
09
07
ff
03
07
f9
fe
fe
01
00
fe
13
13
0b
07
05
0f
03
f2
f6
05
fd
0a
0c
e6
fd
03
db
e5
08
f0
fe
dd
f2
f6
07
07
0c
13
12
12
ca
e1
f9
f2
08
ff
c6
d0
f6
ee
02
ff
01
02
00
f3
ce
dc
e4
da
00
f5
00
fc
f8
fe
ee
e9
f0
ed
09
f7
00
fc
14
0a
02
03
13
07
c8
de
05
08
0d
f5
f1
df
d9
eb
04
02
12
12
01
e3
ff
fe
02
02
0c
ff
fb
fe
f8
d2
f1
fc
01
0c
0e
fa
18
07
ee
ff
ec
01
0b
07
03
01
01
fe
01
f1
fb
f2
f7
ed
dd
ea
eb
fe
e7
f0
07
12
05
11
f4
fc
01
02
f8
ed
e1
da
d0
cd
ef
0b
06
fd
06
e7
f4
f4
08
e2
ef
f6
00
28
f5
24
ff
11
05
01
13
12
f8
f4
d5
16
06
fa
e8
d2
02
ff
fd
01
03
03
01
fb
fa
ff
de
fb
fe
08
11
f5
ef
09
fd
ee
f2
09
ff
ec
e6
db
06
0d
ed
02
f4
02
fc
fb
fc
fa
f6
fe
0d
04
fb
ea
e4
df
dd
e8
eb
d8
e9
f6
de
f2
e6
d7
bc
00
fb
fd
fd
00
03
ef
03
f8
04
21
01
f2
0f
0b
e8
e8
ed
0e
fb
f5
fb
02
01
f7
fe
07
fd
fe
03
f9
04
f6
fb
cf
fa
fd
06
fd
fe
fd
01
00
03
01
fe
0a
03
ef
dc
12
05
06
fc
f4
0a
04
da
cd
d4
0d
ff
00
00
fc
02
00
fe
02
02
00
06
14
06
01
db
f8
00
00
0a
e2
fb
ff
00
13
34
11
ea
02
f2
01
01
fe
02
ff
12
03
02
07
00
0f
fe
03
fe
e0
0c
09
ef
f9
18
e7
f9
fd
f2
eb
f3
0f
05
e1
e7
07
fc
02
12
f8
f1
04
09
f7
ed
f7
03
ff
ef
f3
fd
ff
00
ff
fe
07
0c
f4
00
c2
0a
07
fd
f8
f2
fb
fc
0f
12
f1
17
0e
eb
de
f6
30
28
fe
0b
f5
f8
f1
07
01
f4
14
08
fe
08
f6
0e
12
fb
03
ee
de
b2
9a
c8
dd
04
05
fc
e5
bf
fa
00
fd
00
fc
06
0b
17
0f
fd
fa
02
06
e9
f4
01
fd
ff
fd
ff
fb
ec
f5
e8
e1
f7
0e
0a
00
f0
0a
0a
0d
fc
0f
eb
f0
fd
fc
ee
e8
09
04
f6
f6
19
12
0d
01
e3
ef
08
fd
f9
f0
f7
00
fc
e4
e7
03
04
f4
f1
db
f5
de
ca
cb
d9
ec
f6
00
fd
02
03
ff
01
02
ff
fd
fa
f2
fb
ff
dc
db
f9
f6
e6
fb
fe
00
00
06
01
f3
e9
ed
02
f7
15
28
10
12
e7
f8
fc
02
f0
05
01
f9
06
07
f9
fc
f8
ea
f9
ec
05
eb
e8
e9
f8
19
00
e7
ec
00
06
03
04
00
06
07
fe
f5
fb
f1
f9
fd
11
20
05
04
04
06
00
e6
f8
02
02
f5
ee
04
ff
fb
ef
f6
e5
e2
cb
ef
03
f5
f2
ea
fe
03
01
02
00
01
08
0f
0d
14
f5
13
06
0e
08
ed
14
f7
e8
d6
d9
06
04
04
04
f3
ff
ff
02
ff
fe
fb
03
05
fb
e9
f6
f2
fb
00
ee
e8
f1
04
f4
ea
f9
f9
e3
d4
d2
fe
ff
01
fe
ff
05
09
0b
0a
0e
f8
e5
c4
b5
d9
04
ef
ea
f9
07
f9
0d
ff
f6
ee
02
16
07
fd
da
0b
fc
f8
e2
d7
fc
f6
fc
03
f9
fd
ff
df
c3
d0
fe
fd
03
ff
02
ea
01
ff
db
d0
05
13
0f
12
11
01
06
16
1d
14
0b
f0
ee
e5
01
fa
fd
e1
d9
dc
d6
f8
11
07
ef
04
06
15
17
fb
ed
f3
00
ff
07
00
01
fd
f8
ed
12
13
03
02
10
01
fe
e5
f7
e9
19
03
09
17
12
f1
f0
f6
fe
0b
01
03
fd
fe
ff
17
09
f0
f7
00
18
1d
01
ff
01
11
00
fd
0b
11
06
f3
01
08
fc
0a
f3
f6
f5
ff
f9
00
10
08
0c
0d
0d
04
f1
fb
08
0e
ff
fc
04
0e
14
27
15
0f
0d
fc
02
03
1a
f3
e2
df
eb
02
02
00
02
ff
01
01
fe
fd
fd
fd
f8
f5
f4
f9
ff
01
f7
0a
ff
fc
08
0b
12
05
1c
32
16
06
0a
fa
0f
0c
f9
f5
08
fc
f3
ee
f9
fe
ea
e4
f9
f8
02
0f
f4
e8
f8
03
19
03
f6
f3
f2
06
04
01
03
05
f1
e0
e0
e7
fb
01
0a
27
21
09
05
fd
12
1b
fb
fc
f6
f4
fd
f5
10
0b
fc
1d
2c
01
fb
ff
06
18
23
18
0f
1e
16
fd
fe
ff
ff
fd
11
05
f9
02
04
17
01
fa
0c
18
03
f7
08
0d
22
03
0c
05
04
09
ff
ff
ff
ff
00
0f
17
0b
10
ff
0e
fb
f8
fb
fd
04
f9
fb
fc
fb
04
02
00
06
21
02
fd
fe
02
01
fc
07
fc
0c
0f
02
0f
00
ef
0a
03
04
06
05
13
13
13
fc
07
03
02
fd
ed
f3
0a
21
20
09
10
2f
ed
f3
02
07
0b
fe
f4
f3
03
1a
00
02
fd
02
00
04
09
00
0c
17
16
1c
12
00
06
14
fa
09
14
0b
f6
f2
f5
fb
05
09
03
01
04
14
13
f9
ff
12
0c
19
15
03
08
fe
ea
eb
e2
fd
f5
e9
f4
07
04
f2
06
ff
f8
ec
01
fe
f1
02
fd
fb
f8
06
f3
07
d9
f7
f0
e6
05
fe
ff
01
fe
03
ff
fb
09
00
fb
fb
f8
09
0a
fc
ef
05
0a
f4
02
e7
ef
fb
02
00
de
fe
f3
ee
fb
01
fb
02
f6
e5
eb
00
0b
fd
f7
f8
f6
01
00
1f
0d
04
ea
ef
f8
00
1a
02
f6
fb
0a
00
fd
06
09
03
ff
03
02
01
fd
ff
f8
fc
fb
01
ef
f9
02
ff
fa
ee
09
f2
12
16
e7
0d
0e
f8
0d
eb
07
0c
dd
fa
f3
fb
fe
fa
f3
05
ee
f3
f3
f7
ea
f1
04
d8
02
f5
05
01
ec
1b
fe
03
fb
eb
0c
04
03
ff
02
00
ed
f8
e0
fc
f1
0b
f5
00
0c
0b
ee
f8
00
0a
0a
e8
f4
02
04
d4
fe
01
11
15
05
0d
08
f4
04
0a
00
fd
f0
ff
f7
00
00
fb
fc
02
f2
13
02
e8
05
f7
0b
04
01
ee
04
03
fb
f8
02
fa
f6
fc
00
ef
00
fe
02
02
fe
0d
0d
f1
fb
e9
f3
f3
09
fe
ff
ec
f2
06
fe
fc
0f
06
12
07
01
01
00
ff
fd
00
f8
f0
fb
0c
24
f4
08
01
04
fc
02
ff
02
f0
09
09
0f
07
01
01
f1
0d
0b
ff
02
18
03
f3
02
02
06
10
0e
00
13
05
01
0d
e9
ee
fd
fe
fe
fd
02
0a
17
f8
04
fb
f9
f7
ec
04
00
ed
04
f2
0c
f1
f0
0a
f6
0b
04
0d
17
19
0a
08
ee
ea
0c
00
e3
e7
00
fc
03
fb
02
fc
e8
f6
f7
ea
e0
eb
02
fb
03
04
fd
ff
06
f0
f9
e5
fd
01
11
02
12
0b
09
03
03
02
fb
09
fe
00
fe
02
00
08
09
05
fc
f5
ed
f5
03
02
06
0c
05
01
05
eb
fe
fd
f6
03
03
01
fa
f2
03
fc
f2
eb
ff
05
00
e6
f6
02
f0
00
0f
00
07
05
f7
f8
0b
fc
02
03
0b
0e
12
08
07
fc
fe
05
05
f5
00
fd
01
ff
fd
06
08
0a
04
01
f3
e6
f0
00
05
ed
ea
f9
fa
05
09
ed
0a
ff
0e
ff
f7
fe
0a
03
fe
f0
fd
03
09
17
06
09
08
06
f4
ed
f4
f7
fe
fc
f5
f0
fb
0a
ef
f2
f4
e5
f2
01
06
05
06
08
ef
ec
f9
fa
f3
00
f3
07
08
07
f7
f7
ee
f2
06
fd
f0
f0
02
01
f5
02
06
f9
f9
fe
fa
0f
01
05
0b
05
04
04
04
fe
ff
01
fe
fd
10
fc
13
00
01
1e
04
0b
f7
ea
08
0b
14
01
03
16
0a
0d
09
01
fe
ff
fe
00
ff
0e
00
0b
07
01
ff
fb
e6
f0
f8
04
ef
e7
fc
00
01
11
06
10
12
01
01
fe
fe
03
ff
0a
02
fc
04
fa
04
05
f4
f7
0d
0a
e9
fc
ff
fe
fc
f2
e6
01
f7
ec
0c
04
05
03
f9
f9
04
12
04
fc
fa
f9
f6
0c
f4
0a
ff
f7
00
fe
02
00
01
05
10
08
01
21
10
04
11
10
0a
1a
16
0e
0e
0a
f2
07
19
ff
0f
08
11
0b
0b
1a
0a
fd
f1
fb
07
1b
08
12
14
0a
fd
fb
fd
f6
f7
dc
e7
ec
f2
e3
f7
fb
00
08
f2
f2
f4
da
f4
fe
04
ff
f1
e5
00
95
a8
0a
f4
f1
03
00
fd
ff
01
f5
e1
c7
00
12
ea
fd
f7
fe
15
06
fe
18
02
e6
fd
ff
fc
ff
06
0d
06
03
eb
d9
ea
fd
fe
05
0f
e4
09
05
01
ee
f4
f6
da
fb
02
d8
06
ff
02
f8
00
f8
fa
fe
f8
09
09
03
fe
eb
fe
00
02
00
ff
01
05
02
09
08
fe
ff
05
04
09
e0
f6
10
07
fe
02
03
d0
d4
d3
00
f4
e8
f6
07
fd
03
fd
04
0e
00
f9
e4
0f
d4
f5
f4
fa
eb
dc
da
ee
12
26
e9
fa
fb
fa
f1
dd
fd
00
fc
fc
ff
06
05
0b
03
ed
22
0d
14
0e
00
cb
de
fe
03
03
fa
fe
00
04
0c
f9
fe
f3
fa
15
fe
e7
ef
06
ea
00
fc
ff
fe
f3
01
00
ff
fe
01
09
e5
f5
f5
ed
04
ea
c7
f8
15
fd
f7
f5
ed
f3
03
fc
f7
fa
f9
ff
fe
02
03
ff
e9
f7
04
f7
ee
f4
fd
f0
db
ee
fd
fb
05
03
0a
ff
fd
f1
fd
f3
ff
fe
fe
ff
02
fc
03
00
04
06
fb
f9
fe
01
1b
f5
fb
ea
0e
d8
03
f2
f5
07
f2
02
f6
f8
ea
d9
fd
f9
03
fa
f0
03
f9
03
f5
e9
ea
de
f5
06
0e
fe
fe
01
00
02
10
13
0c
f9
ea
0c
f6
fe
08
07
fa
fd
f8
17
fb
f3
00
f2
ee
f3
00
fe
fe
f9
f8
ff
fc
fd
04
08
05
00
02
16
09
06
06
00
00
fd
f9
ff
f8
f6
e0
fa
fd
f8
ef
f1
e8
f4
fc
f0
f4
ed
0c
ee
fa
14
f4
fa
f2
f2
fc
02
02
fe
01
01
fb
f7
ec
06
f9
00
fe
dc
be
f4
ec
eb
fa
fb
01
ff
04
f7
fb
ed
00
e9
cd
e6
ff
0a
03
ee
00
ed
f9
fe
e7
e1
03
07
fb
05
f6
fb
f0
f4
ec
01
f3
04
02
ec
00
07
0b
f1
ef
f6
e5
ff
01
03
02
00
01
03
04
fd
fe
fe
f7
f5
f6
fd
fb
00
05
f6
e3
15
0b
0b
fc
fb
02
1d
25
03
ee
0a
08
ff
f7
e9
fb
02
05
05
02
10
09
06
00
fb
f5
f9
ff
03
07
f7
d9
c1
06
fa
05
04
07
04
03
0a
ed
f8
f9
03
f8
fb
0a
12
fa
eb
ec
ec
ef
e3
fa
00
fb
ff
ec
fa
e8
e0
08
0c
f8
e8
f4
00
0b
00
04
03
03
fd
00
00
00
00
fe
09
f8
ee
e2
f2
f8
f0
fd
07
01
f6
05
e1
fd
09
f7
fd
fc
ff
01
ff
fe
00
00
ff
f5
e2
f0
fc
f3
ef
f1
f7
fa
fe
f1
fd
f8
02
20
f6
fb
fc
e9
03
02
fe
01
00
02
1c
19
0c
02
d2
01
01
f0
e6
f3
06
ff
09
15
0b
0a
ec
cf
f5
15
0a
f0
ec
f5
04
ed
02
0a
04
00
00
ff
f1
f3
12
fb
f9
f2
00
0a
ff
01
00
00
03
06
fc
d8
0a
09
f1
08
f3
f5
0a
e1
f8
fb
06
07
15
01
ea
fc
04
f7
fa
f8
e6
01
fd
0f
02
fd
ff
f2
eb
f0
f4
ef
10
f9
00
fa
df
e8
ee
00
fb
e5
01
fe
03
f5
05
03
f3
f7
f4
06
05
03
29
f6
ff
f2
03
2a
fe
ed
02
00
fe
ff
fe
05
0d
0b
0b
0d
fe
09
fa
f3
fa
fd
fa
01
1e
f0
f3
f4
fb
fe
01
f1
f3
f5
fb
ff
09
0d
03
04
08
0a
f9
f1
e5
f3
f9
0c
07
fd
f7
02
04
03
02
0d
e7
01
19
0d
05
08
f5
f9
08
04
fd
02
02
00
fe
0d
0a
03
ff
fa
04
04
01
fe
fc
09
ff
eb
02
05
0c
fd
fd
02
01
0c
0b
0a
00
0d
0b
0b
0a
1d
12
05
fe
00
00
f0
fe
f2
f5
00
fd
fe
f4
f0
f8
01
fa
e9
f5
f8
f6
00
00
03
01
02
00
f6
dd
f3
ef
06
fd
06
fe
fd
08
01
f7
01
ff
f3
fd
fc
fa
fe
f8
ff
fd
f9
f8
fa
0f
0c
11
05
10
13
14
17
0a
fd
00
ff
fc
00
fb
02
0b
1e
0b
03
04
08
30
0e
f7
fe
15
03
ff
06
04
ff
02
fa
ff
ff
00
03
02
07
05
f7
1a
18
06
f5
f4
fb
f9
f7
01
f9
f9
f4
f1
0f
17
1a
05
01
02
fe
01
fe
02
fc
f6
f0
fc
02
ff
f7
fc
f6
04
ff
fe
fd
f6
05
fe
05
0a
0d
fe
07
e8
02
06
03
22
00
fd
fb
fa
03
14
0a
06
ff
00
03
08
fb
02
02
00
01
ff
0b
04
fd
12
13
11
05
13
10
15
01
05
05
17
fb
fa
e6
f2
04
08
fb
0b
13
12
00
ff
01
05
04
12
f9
fe
02
18
12
f0
fc
fc
08
07
fc
ff
fe
fa
fc
fc
fe
00
fa
f9
02
02
01
01
fd
fc
f8
01
fb
fd
00
ff
ff
01
fc
00
ff
01
01
03
fc
fd
ff
fd
02
fc
00
00
fe
01
f9
fd
ff
fe
f9
ff
fc
00
fc
fa
00
01
ff
01
fd
fe
fd
fc
fe
ff
fd
fe
00
01
00
fe
fd
ff
00
03
fd
00
fc
f7
f7
fe
fd
fe
01
00
fe
fc
ff
01
fe
02
fe
02
01
ff
02
01
02
01
02
fe
fc
fe
fe
fd
01
ff
ff
fc
fd
02
00
04
02
00
ff
fe
fc
fe
fd
fe
fd
fd
00
fe
fb
fb
fc
fa
fd
fc
fe
fd
ff
fd
fe
01
ff
fd
00
01
00
fc
fc
00
01
fe
fe
00
00
fc
fd
fe
fa
fb
00
fe
ff
fe
fe
02
ff
ff
fc
fd
ff
00
fb
fc
f8
00
01
fc
fe
fd
fd
ff
00
fc
fc
02
fd
ff
ff
00
ff
ff
00
01
01
00
fd
fd
ff
00
fd
00
02
00
02
fe
fc
fe
ff
01
fc
fe
00
fb
fb
fe
01
fe
00
fe
00
02
fd
02
01
fe
ff
fd
fe
02
fe
fb
fd
fa
f8
00
fc
fe
ff
00
00
02
00
fe
03
00
00
fc
fb
fd
01
ff
01
00
fe
fb
00
fe
fc
fe
ff
01
ff
fe
02
02
ff
fd
00
01
fc
ff
00
fc
fd
01
00
fe
01
fc
ff
00
fc
fa
fb
01
ff
01
02
00
01
01
00
00
fe
fc
f9
fc
fd
f9
00
fc
01
02
fe
ff
fe
01
fe
00
ff
fe
01
02
00
fc
fd
fc
fc
fb
fd
f8
ff
fe
ff
f2
f8
fc
fc
fc
e6
fc
02
f9
fc
e6
f2
f1
fe
f8
0b
ec
fe
fe
07
15
18
08
fb
f6
17
09
e6
f8
00
ff
00
fe
00
03
0b
0b
04
ed
f9
ff
01
09
f7
f2
2a
14
05
02
e5
f7
ef
01
05
01
07
03
fb
fb
e5
fa
f7
fc
f6
fb
f9
00
01
ee
f0
05
10
0f
fd
ff
e8
eb
f7
0a
f2
09
0c
07
07
03
f7
fe
fa
f4
ec
fd
ff
01
03
ff
0f
03
09
02
01
ec
ee
fc
00
08
bb
ef
03
07
fa
ff
09
0d
f6
0c
f4
01
16
ff
05
ff
f9
03
05
0e
2c
1d
fa
f8
f6
e1
f3
ee
e5
e4
09
1f
12
ed
f0
ff
06
00
e1
ff
06
02
02
01
03
df
f5
f0
fb
fb
00
fb
fc
0e
f2
da
ed
f0
0a
0c
ec
f0
fe
07
02
1a
11
fb
f4
f9
26
20
fa
01
21
04
f5
12
02
fd
ff
02
03
ff
01
01
fd
fe
ec
f5
0e
f8
05
f1
eb
01
02
fb
f6
02
0b
0c
09
0a
ed
02
01
00
02
01
e5
12
16
f8
e4
0d
f3
01
fd
0a
ee
ee
fe
fd
03
04
11
08
0f
03
fe
ff
ff
fe
fd
e7
fc
f8
04
01
eb
f3
ef
f0
f1
15
13
ef
f6
0f
0d
0d
07
f6
ed
ef
fb
06
e8
fc
04
fc
f3
fe
04
01
fd
05
f2
f9
01
0e
ff
f8
fc
00
00
01
02
02
ff
22
10
04
06
02
12
04
10
f7
0a
26
17
0c
f8
ed
f4
f2
01
08
19
22
16
0d
06
fb
fc
0a
02
00
0a
17
13
0f
ff
f6
f9
fd
ff
f2
ff
fd
f2
ea
f7
f7
fa
fa
f8
ed
f4
02
f8
fb
00
f6
0a
10
fc
f6
f7
ff
f9
e7
ea
fe
fe
01
01
03
03
fb
f9
f4
02
fd
f3
e1
e1
f4
f5
16
01
01
ea
1a
07
ff
00
f2
f0
0c
df
e5
ea
0b
03
f1
ee
e2
fa
f0
e9
da
10
01
10
f9
ee
1f
f2
f3
06
f4
f3
f0
f9
01
18
1a
f7
eb
d2
c2
c4
02
00
01
fe
01
fc
00
00
04
03
04
02
fe
f7
fe
dc
e6
06
05
0e
13
02
dc
0d
03
0b
0d
01
00
f9
09
05
01
01
0c
fa
f8
f4
f8
e9
ee
e7
ee
02
09
fa
fc
ed
05
25
f9
d6
de
c2
0e
08
06
08
04
04
e9
fe
fc
fe
eb
fa
fb
fb
fd
f7
ce
e7
fe
00
fd
0d
07
fe
fe
02
12
15
0f
12
17
fa
fc
e5
fc
0b
02
0b
08
08
fe
00
02
01
03
fd
0f
0a
e1
0f
0b
04
15
f3
f8
fd
f5
f9
fd
11
19
0a
0b
06
02
f6
02
00
01
00
fd
03
ff
0f
01
fb
ff
05
03
02
05
0b
06
fc
fa
05
07
f3
0e
06
26
01
ff
01
01
00
d7
e4
f2
f5
fa
06
fb
f6
fd
f4
ff
10
fe
08
f2
04
fb
ec
e5
09
03
fd
e5
0a
0e
f4
fb
07
05
09
14
f8
e7
f9
cd
fc
fe
e9
ed
0b
00
01
ff
02
ff
04
fa
04
0b
0f
0f
04
0b
f6
e8
1c
0b
02
00
f9
0a
d9
03
19
0d
05
f7
0a
0b
27
16
10
05
f7
e1
f9
0e
0d
f0
08
08
fd
ed
d5
c9
01
0a
f6
03
fe
06
00
f9
03
0f
0b
f3
f8
02
f3
07
02
f2
fe
ff
e9
05
02
f5
eb
fd
ff
01
fe
00
fa
0a
0a
05
10
f8
08
13
03
0a
0a
fe
f0
f1
e8
fb
f3
e6
d0
e9
f9
f9
08
09
08
0a
ff
fd
09
05
f4
06
0c
02
01
f2
19
04
f4
fe
0c
ff
f4
18
0d
0a
22
1c
0c
03
fc
e6
06
0e
0b
ff
03
01
02
01
fc
03
09
00
fe
10
07
f8
f3
f0
fd
f8
0d
0f
13
ef
01
1e
1f
02
0d
0a
03
00
f3
12
01
fc
ef
e5
0d
fd
f1
fa
0a
f3
da
09
05
05
f7
f4
fa
f7
f9
e4
07
02
fd
fe
03
01
fd
00
fd
fe
d7
f7
f8
05
0f
fb
07
fc
07
08
03
02
06
fe
f8
fe
e9
e6
fa
06
13
0f
03
06
03
fe
10
f7
09
1d
0f
19
f9
03
00
03
ff
ff
03
10
0c
0a
10
f2
0d
05
17
08
eb
07
18
13
02
f6
07
02
f1
f7
f8
fe
02
01
01
fe
08
f9
13
1a
07
03
f9
fb
00
f0
fc
e1
dc
f3
ff
f7
2a
15
10
07
ff
02
03
00
ff
f5
f9
03
f8
07
ef
f8
08
09
03
0d
02
03
08
07
07
03
07
0f
08
08
db
fa
18
fa
15
fc
02
04
17
07
10
04
07
ff
01
e8
09
f5
06
01
02
00
00
fe
f9
05
05
0a
0f
0d
03
f6
02
0a
02
12
18
fb
03
e3
e3
10
f5
03
fc
26
18
08
02
f1
02
f3
d6
f0
01
07
0c
20
09
fb
eb
08
09
ff
0e
e8
eb
f6
e8
04
06
fd
0e
04
fe
02
f9
f9
07
15
fb
f9
fe
ff
08
f7
f7
00
10
00
02
ff
01
00
20
18
eb
fe
0b
0b
14
11
f6
da
0a
03
fe
f5
f7
02
db
dd
f3
e4
05
f4
e4
c8
d4
11
08
f6
01
f5
05
10
0f
07
fb
05
0e
09
f1
f2
ff
05
03
14
1c
04
f3
e0
f4
14
10
f5
e0
e6
f1
02
00
fd
03
01
01
04
07
04
02
0b
eb
e3
f3
07
07
0a
00
00
f5
0c
ef
db
ed
f4
18
00
0c
f0
12
03
f1
e1
d9
df
0c
0a
05
06
11
13
ee
f6
08
13
17
08
f8
01
12
0a
0a
04
f8
05
00
fe
ff
00
fc
fb
f7
f2
fa
03
15
1e
fc
fc
24
07
0a
01
04
fa
fc
dc
ec
f4
ed
fe
02
01
ef
f2
19
e7
e3
0d
26
04
06
07
02
07
00
01
01
01
fe
f3
f5
ee
fc
fe
e7
e4
e8
fc
f5
07
f4
de
ff
1a
09
fd
f6
f3
f5
fd
00
00
02
01
11
fd
f7
f5
f1
fd
f4
f2
f7
04
0b
ef
e9
03
09
08
01
f8
f2
02
03
02
fe
01
00
0c
09
06
01
f3
01
12
13
04
f3
09
0f
fb
00
14
1b
0a
e9
f6
f7
1b
03
e3
e9
02
ff
08
0c
15
f6
13
bb
d3
e4
e8
ff
da
e6
10
1d
01
fe
00
03
fd
2c
10
e5
f4
21
10
0e
fb
fd
f0
14
0f
05
f6
f1
13
ef
dc
08
1d
06
02
fa
f9
01
0b
e0
e7
ec
f0
17
00
ff
f9
e9
f9
ca
e3
e4
ea
ec
e6
f0
03
fc
16
10
fc
0b
0c
f3
f5
f6
11
fc
03
0d
1a
0b
08
fc
04
04
f4
fd
03
02
01
01
02
13
03
01
11
07
f1
fd
ff
03
07
08
08
f7
fd
f9
fa
f6
fb
01
fd
eb
ec
f0
fd
10
fd
f2
13
13
05
02
05
fb
04
0e
10
05
f3
0d
12
0d
1a
0b
fd
05
12
0a
00
08
12
03
00
01
ed
ef
fe
ff
00
00
fd
fb
fc
fd
fd
fe
f9
ee
fb
06
fe
fd
0b
03
f5
0b
1d
ff
f5
fb
01
00
fd
02
1f
0b
03
02
fd
ff
01
12
0d
04
03
fd
ea
e4
fb
f5
01
07
fb
14
0f
07
f8
fa
f6
fd
00
00
03
06
06
0b
f7
f8
ed
e7
f4
0f
10
1d
2c
0c
f6
06
06
04
09
fb
f7
f5
f9
fa
07
06
01
0e
00
f8
fe
0e
12
26
16
0c
0a
0a
06
fe
00
00
fc
00
01
f5
08
f8
fb
10
0e
00
0f
11
12
08
02
10
09
0b
0e
07
03
fe
ff
00
fe
02
ff
0c
fe
09
04
06
0a
eb
fa
13
11
07
fe
f7
02
fc
13
0d
fe
07
0d
00
fe
ff
fe
01
09
16
0f
fb
f9
0c
01
f9
fc
0e
1b
0f
0d
04
fc
f5
fe
13
0e
04
e7
e9
f4
04
06
0c
11
04
09
11
ea
e7
ec
01
05
f8
f7
04
fd
f7
02
ff
fe
ff
00
fb
02
18
14
1b
20
11
15
03
ff
02
09
0a
01
15
fe
fb
f9
fc
03
11
08
fc
09
18
06
03
f8
0c
0c
12
0f
10
14
29
00
fb
01
f3
ea
08
06
0b
07
fc
04
02
fa
f2
e0
06
f5
f2
07
fd
07
f7
18
07
09
f2
03
f1
f0
fa
00
fe
03
fe
01
f6
0e
0d
08
07
06
01
02
02
00
e1
16
03
ff
09
f4
f0
f0
f6
ec
fb
fb
00
09
14
04
f4
f5
ed
e1
09
05
06
02
06
09
02
05
fb
f4
0b
05
fa
01
dd
f9
f4
fa
05
04
f3
f2
ec
f9
03
fe
ff
01
01
00
12
08
09
09
0f
f5
f9
f9
f3
e4
f9
0b
05
f6
f4
ff
03
03
07
16
03
08
14
1e
ff
0c
0e
fc
fd
e0
f9
fa
e0
ec
ee
e9
05
fe
f8
0a
fb
f8
fd
02
0c
04
05
04
07
0c
03
03
02
01
02
f8
fc
f4
f7
05
fa
f1
f5
12
0d
fd
fb
fb
0c
0c
0a
05
02
ff
ef
16
14
fe
06
00
e9
09
fd
fd
0c
19
07
01
03
01
00
01
ff
fd
01
17
fc
0e
16
12
e7
fa
fa
0a
fc
f4
f7
00
00
fd
f7
fd
07
ff
03
ff
01
ff
ff
fe
ed
04
04
0a
00
fc
10
eb
02
23
07
01
ff
fb
e3
fe
fa
f5
f8
f8
ff
00
ff
00
fe
e8
e9
f9
e8
ee
0f
04
00
f8
eb
fc
fa
ea
f7
f6
f3
0d
0a
03
17
ee
f2
09
f2
17
16
13
ff
ee
ea
ed
e5
f2
fc
0a
ed
06
ed
f9
fc
00
00
01
00
00
f0
03
00
f8
0a
19
16
14
13
fa
0a
13
0f
02
ff
f6
10
10
08
14
00
f9
f8
f6
fe
f6
e8
db
e2
e2
13
f8
0a
03
11
d8
d8
d1
e6
fa
01
ff
00
ff
fe
fd
ff
ff
fd
fb
ff
f9
fc
f8
f7
f6
fb
00
fc
fa
f7
fe
00
f9
f9
fe
01
ff
00
00
fb
fc
fc
ff
00
00
fc
fa
ff
fb
f4
fa
fa
fc
fb
05
fb
fb
f8
fc
fa
f7
fb
ff
fb
ff
03
03
03
fe
fe
fb
fa
fe
01
00
ff
fc
00
01
fe
ff
fe
01
fb
fc
ff
fe
fd
01
f7
f8
fb
fd
f4
fe
ff
fe
01
01
fe
fe
fe
01
02
ff
f6
ff
ff
fd
fc
00
fa
fd
00
f9
fb
fd
02
ff
00
00
06
02
fb
04
f4
ff
fb
f8
fb
fc
f5
f9
fa
f5
ff
05
fb
f8
fd
fd
fc
fb
fe
fb
fb
fe
fb
fe
02
fe
01
02
02
f4
f9
04
fe
f8
fb
fc
fb
fe
f5
f7
fd
fc
fd
ff
02
fc
01
fd
fa
ff
fd
fe
fe
fe
eb
fb
06
f9
fa
ff
00
00
03
04
02
01
01
fd
00
f5
f6
06
fd
f7
fc
00
03
01
fe
fc
00
fd
ff
fd
f6
f9
fb
fb
f9
02
01
01
ff
fd
ff
ff
fb
fc
fd
fc
fb
f9
ff
f5
04
f7
f7
f9
fa
fd
fd
f9
00
ff
fe
02
02
00
02
00
07
00
fd
fb
01
01
fa
ff
01
fe
f9
ff
01
fd
fc
fe
fa
fe
fe
fa
f9
fd
fd
fd
f9
fa
f5
fd
ff
f8
f6
fb
ef
f2
f3
f8
fe
fc
fb
fe
ff
fe
fe
ff
fd
fe
ff
ff
fd
f8
f6
fa
fb
f7
02
ff
fd
fc
fe
fe
fe
02
fc
fe
01
fe
fd
ff
01
02
fa
fc
f8
f5
f7
f0
fe
ff
fa
f2
f8
fd
f9
ec
e0
f2
c4
08
05
0c
01
d9
f3
05
02
09
fd
e5
08
d9
fe
03
0a
f5
fe
ef
01
08
f0
03
00
00
ff
00
0a
e9
10
06
ff
16
01
ff
03
00
dc
fb
04
07
f4
f2
ed
d8
fb
10
12
0b
03
f8
16
ff
f7
e0
fb
09
0f
f1
f7
07
fe
fb
ec
fe
09
f7
06
dd
d2
f0
f4
10
f0
fd
fc
00
00
fd
f8
fe
0f
ff
01
03
02
03
fb
00
02
fe
f9
f7
dd
d8
07
04
04
05
fd
09
fb
a3
ea
f4
15
ff
14
fa
f5
f3
f1
f9
de
f2
f5
f3
fc
fb
e9
f6
0e
da
0f
00
02
00
e9
01
03
fb
e7
04
e8
05
ff
fd
09
06
01
03
07
cc
ff
04
04
fb
05
e6
fa
f0
ef
0f
05
f1
f3
ee
ee
da
d5
09
09
fd
eb
0a
fa
e0
d4
0a
15
03
f9
ff
fa
f5
fb
00
00
00
02
ff
01
ee
e1
00
07
11
f9
f7
fd
09
0e
21
ea
01
fc
f7
ed
04
05
f8
00
03
02
ff
03
ff
da
f4
00
0d
0d
07
f8
fa
ed
03
fd
df
e4
fc
fa
fd
f4
f1
f4
fa
02
00
00
00
00
df
ef
ee
fc
fb
eb
d1
ea
07
09
eb
f7
fc
f6
01
0d
f6
14
1d
00
02
f9
f0
0a
fd
07
fe
ed
01
0e
f5
15
e8
01
fb
ee
05
05
05
03
01
fd
ff
00
fd
fa
ee
10
06
f7
e7
f4
00
0e
0f
c5
ed
f4
03
10
e8
d6
07
ff
de
f9
f3
f5
fb
fa
f2
02
de
fc
ff
e9
f4
ff
07
18
ec
f6
db
d7
f6
c2
db
ed
e5
ff
ee
fb
ea
da
06
0e
0a
06
0d
13
d3
de
f5
02
e7
f7
ee
0b
22
17
03
00
00
03
fe
fb
e4
ef
13
06
fd
fb
f6
f4
fb
f3
ea
09
0d
f9
9f
ce
fc
0e
10
0b
08
03
f8
e7
a0
e0
06
fe
11
02
f6
f3
fa
05
f4
e0
e5
fb
0d
db
ee
f4
f3
10
d2
ce
06
13
fc
08
04
fb
f7
eb
02
00
fe
03
02
f8
fc
02
03
fe
df
e5
07
12
1d
19
1a
f7
ee
ea
d1
be
ec
eb
0c
cf
c6
f6
fd
12
dc
db
f8
17
12
f0
f8
f5
f6
f8
13
05
f7
0d
e3
04
f5
f6
0f
f1
fd
fd
f1
09
0b
ff
fc
fa
fe
01
10
06
f3
02
e5
0b
01
02
f2
01
0b
16
05
05
12
cd
df
00
09
0f
fa
fa
ef
0f
02
ed
e8
0a
26
f3
fe
f6
00
03
f8
ff
00
ff
fe
fe
fa
e1
e5
f7
1b
cd
e6
e0
16
ec
c7
de
04
0a
f7
f6
f2
05
08
fb
ff
ff
01
02
03
f0
f1
ea
0b
17
08
f6
fe
0e
13
f0
d5
fb
07
11
c5
d5
f4
05
01
fe
01
02
ff
ff
0f
04
f3
df
d0
f4
ea
bf
d1
02
ea
01
d3
fc
19
fe
ee
e8
f2
01
1b
f9
01
eb
0a
09
f9
ea
dd
f8
ed
fd
0c
fd
ff
0c
f4
03
1c
fc
00
03
01
01
fe
fc
dc
f7
01
e9
ee
fa
eb
0b
16
ef
f6
d7
17
f6
01
0a
fe
0e
17
d3
e0
f9
0c
06
b9
be
f2
0b
ff
e5
f6
e1
13
30
02
04
ff
fd
de
f4
fe
ff
eb
dc
f8
f7
06
05
de
fc
03
0a
f1
e9
da
f5
eb
07
06
f2
ee
ec
05
04
00
03
fe
00
01
12
19
de
fc
fb
04
02
06
f2
f0
e1
c0
00
ff
02
11
08
f4
e8
fc
10
f4
e9
ea
fa
23
ff
de
04
da
fd
04
0a
f8
f5
f5
0b
12
f2
ef
e1
f7
06
17
e6
10
09
eb
f3
09
07
e6
e7
f5
f6
00
03
02
01
02
fb
f8
fa
fa
f9
09
06
fc
eb
df
ee
08
06
f0
ef
10
fe
ec
dc
19
1f
1d
03
ef
ef
19
17
00
ef
06
d5
ec
f4
dc
cc
09
f2
10
0a
05
18
08
f8
06
10
05
00
ee
fb
fb
07
08
04
04
03
09
ea
f9
08
09
ef
e3
f7
fe
0a
e3
f4
f6
e0
ea
03
08
02
f4
e6
05
11
f0
f4
08
11
ec
ec
05
0f
fe
ff
03
ff
f6
02
01
02
03
02
f8
f1
b9
f0
e5
dd
f7
e9
f9
f9
14
0b
df
fc
13
f0
ef
f8
fd
f9
ff
ff
00
ff
fd
0a
f6
e6
fd
f9
f7
05
0a
ff
06
04
06
fc
ea
fb
0c
10
09
f0
fe
ff
00
ff
01
02
00
02
0b
fd
e7
ee
f6
0a
f6
e0
ec
e2
fd
d6
da
13
0d
de
f3
08
03
f8
d0
f9
06
e4
fb
00
f7
ea
01
f2
e4
e0
01
15
e4
fb
09
0d
00
01
ff
00
ff
25
1d
c7
f4
10
f1
ff
ef
f5
1c
d5
da
cb
e2
f7
0a
f2
dc
05
0c
0c
0f
05
ec
ff
0f
19
f6
e2
fd
f6
f3
eb
e6
e5
04
df
eb
e3
dc
dd
ef
01
fd
00
f5
fe
fd
0f
0e
f7
03
04
00
fe
14
03
06
00
03
df
fb
f1
fa
f3
fe
01
02
ff
01
fb
09
07
fe
20
f9
0c
09
08
0a
1d
f0
ff
f2
e7
0e
0b
ff
f1
ea
fb
04
02
f9
e8
1b
0e
fa
07
fa
f3
08
0d
01
02
e6
07
0d
f5
06
01
0a
03
03
07
0a
11
0e
0e
0a
09
ee
ee
e2
d7
00
fd
00
03
fe
04
04
ff
fe
00
09
06
fd
f0
f9
df
f1
0d
12
0a
09
f5
f5
09
08
13
18
fd
f7
00
12
08
fd
f4
fa
f2
d8
eb
f1
f1
f6
fb
04
0a
f9
fa
16
fe
ed
ec
f7
13
fa
f5
07
02
04
03
01
03
eb
e9
fd
fd
ef
13
ff
15
03
0a
e6
f8
05
0a
06
08
07
ff
f3
ef
fa
0f
06
f9
18
fd
02
ee
ec
0f
07
05
0a
02
09
03
01
02
ff
01
1d
15
ff
0f
0a
11
1f
06
12
24
08
0a
01
fb
01
08
f9
06
02
fe
01
ff
02
ff
fd
2d
0a
07
ed
e5
ed
05
03
fd
03
05
0d
ff
f2
f5
fe
10
09
0a
09
03
01
ff
02
ff
fe
f3
fd
06
09
e6
f1
0f
fb
12
0d
ea
09
f1
00
f5
05
07
eb
ff
1a
01
02
04
09
e2
ea
01
05
03
f5
f9
fe
0c
0f
fd
03
f6
f9
f3
ff
00
fe
ff
ff
fe
12
0a
f4
08
20
02
fa
10
02
25
00
ee
e1
f9
20
fb
11
1c
ff
ee
10
0a
08
06
08
11
05
f7
ff
0d
ff
ec
ee
f8
0d
ef
ef
f7
f3
03
11
fd
e6
df
f8
07
fc
ff
ec
fb
08
fd
13
0d
d4
c7
d4
bf
b6
08
0b
02
e6
f6
01
01
00
fe
01
06
f8
fe
02
15
e7
f4
f9
07
0f
e7
e2
df
c7
c2
23
16
fa
ca
cf
e8
e7
fb
14
17
0c
0f
f4
ea
f9
e9
f7
00
0b
13
f5
f6
03
0d
16
ff
11
01
ec
c9
f0
02
0d
0c
12
f5
f6
02
11
12
fe
fe
ff
fe
ff
f9
fa
fb
fe
fa
10
17
f7
dc
f9
f5
00
18
18
fe
0d
20
fe
fd
e5
0a
0c
04
f8
dd
34
1e
fa
d2
d5
e7
fc
01
03
ea
0d
06
0e
09
0f
ff
f0
ff
0e
1a
02
f0
03
0e
18
fc
fb
fb
fe
ff
fe
fb
01
fa
06
ec
16
f1
1e
f9
fb
fe
13
15
fc
1d
16
00
d1
d8
13
20
fe
01
1d
15
08
0c
fa
14
fd
ec
f9
f8
ee
ff
ff
fe
ff
02
12
1a
f4
f1
e3
08
ea
f3
d9
db
fb
06
0d
07
0c
f3
dc
ed
e6
ce
01
01
fd
01
fe
f5
ea
f3
f2
db
fe
0e
fe
f7
0a
16
19
f8
c9
e7
e5
f8
10
1e
21
01
01
ff
01
00
04
07
09
0c
f8
eb
ef
fe
10
16
ee
16
e4
22
0c
ff
eb
ff
0a
17
0a
1b
f1
07
0c
e8
fc
fe
e2
e6
ff
08
fd
fc
0a
13
08
0a
fc
10
fe
02
fe
01
ff
f9
fc
09
07
0e
ea
c8
f8
e9
c6
e6
b8
fa
e7
bd
24
11
00
fb
0e
de
f6
0d
17
1e
1f
1b
07
db
cd
02
eb
fb
ef
d6
fc
fe
06
0b
11
09
f2
18
17
f1
f3
f0
07
0e
e4
f0
d8
02
fa
ad
e9
12
ea
e9
c8
ff
0a
f2
e8
d1
02
fe
03
03
02
f5
0b
18
09
03
06
06
02
05
07
00
0a
05
d9
d3
f3
d6
08
09
f3
10
0e
0a
05
07
dd
ed
03
02
f7
06
05
02
0b
0e
db
e6
e5
f5
17
e2
ea
11
12
d2
db
ed
f5
f6
fd
0a
0a
02
05
02
00
fe
00
02
fe
f4
f9
fa
fd
fb
0d
e2
0b
05
e7
cd
a4
d1
03
c8
e0
00
00
e1
0a
c9
f3
f8
bb
f0
c9
ed
c7
d3
0c
ef
dc
00
0c
c4
ee
01
05
f5
e9
ed
f6
f6
f8
ff
11
0b
0b
00
0c
06
01
04
06
04
ff
08
0e
f8
e9
d6
f5
ff
f7
c6
e3
a7
8e
e2
e6
f1
e9
0a
13
f9
0c
fa
f2
05
12
f9
1a
06
fc
f1
f5
01
fa
e5
f6
ff
00
fd
01
00
c4
fd
1b
e7
ff
b3
0b
0f
e1
ce
c8
ea
f8
f0
ec
f6
ff
06
cf
d8
03
ff
00
00
01
e0
f4
fa
06
de
1a
ea
ee
fa
b6
15
df
f5
f5
dd
d3
c5
c4
f8
06
01
fe
02
fd
00
c4
cc
b0
bb
df
bd
e4
d4
00
fd
f1
d5
0d
10
b5
ef
fc
0d
02
08
fd
f9
04
fc
ed
f5
e6
fc
0a
d0
0f
03
fc
fd
fb
f2
0c
0c
fb
d5
fe
01
ff
01
01
f6
fa
06
00
fa
df
ff
10
dd
e5
e0
02
f0
e9
bc
f4
fb
07
fc
fa
d8
d2
d2
fa
11
ea
d4
0d
10
f9
d6
0d
1d
e2
d9
00
01
fd
00
00
ed
f3
fe
f8
e2
fc
fe
02
03
f1
fc
03
fa
fa
fd
06
f8
fa
f6
09
fe
e5
f7
f3
f6
02
fe
00
fe
02
1b
10
05
fd
0e
01
01
00
f8
0c
07
fc
f3
06
03
04
ec
ef
ef
f7
02
fc
fb
09
09
ff
ff
14
1c
01
01
fe
00
fe
03
0f
0d
0a
e9
02
07
0f
04
07
f7
08
02
00
fc
f4
f7
f5
fa
01
03
01
03
00
02
ff
0c
07
04
02
04
ed
f4
f8
f7
ff
f9
05
05
06
f0
10
0a
fc
06
14
18
0f
1b
06
05
17
06
09
07
0f
f8
fc
ea
ff
07
f9
02
01
02
11
0e
03
f6
fe
00
ff
fd
fc
f1
01
00
01
02
00
ff
f5
ed
f2
f1
ff
05
02
fd
0b
fe
f3
05
02
04
11
ed
f1
f6
ec
f4
14
0c
00
09
10
fa
07
0e
01
25
00
fa
fe
04
09
00
fe
02
00
03
0e
06
06
fd
15
12
ff
fe
02
0b
0f
0a
f5
f6
fa
fd
f9
fd
fa
fe
01
fe
fe
02
fe
16
0d
fa
07
fc
04
00
f9
fe
14
11
01
fc
f9
e0
07
08
05
fa
05
02
00
ff
02
00
fe
0b
04
fe
ea
08
08
03
f6
01
fc
fd
00
0a
0a
2b
0f
0a
fb
10
0c
fb
fe
07
06
05
ff
fa
fe
05
eb
e8
ed
f9
f4
fc
fa
fe
f1
fb
00
00
01
fe
03
13
0c
0c
04
0d
ff
04
fc
05
fa
09
fe
02
f9
fe
f6
0c
00
ff
0d
0a
07
0a
fe
03
09
fd
fc
0c
e9
1f
07
04
05
15
d7
dd
e3
ea
ef
f9
fb
f3
00
00
db
f4
f9
03
ff
e2
04
09
13
1d
01
fa
0c
04
de
fc
fa
ea
f0
f9
01
01
fe
01
01
f5
f7
ef
ed
ce
03
09
16
13
09
06
0b
0b
00
ef
09
09
f5
01
10
0d
0b
11
0a
f9
02
01
ea
07
13
0a
15
12
13
00
dc
f4
fc
09
f8
de
ec
dd
f2
00
c6
eb
ea
e2
d7
0a
02
fa
f6
db
fd
01
fd
01
00
00
05
01
fe
f8
f6
08
fd
0d
18
c4
fa
16
11
16
ff
08
f5
f7
f3
09
0a
fd
1a
1c
12
11
fc
08
12
da
ed
f3
fd
f2
e0
d6
e9
f7
e1
11
12
f9
ee
e6
0a
18
0e
02
f5
00
02
02
ff
01
f5
ee
fc
fe
ef
e5
f9
f6
13
0b
d7
f5
12
11
14
fb
08
fd
02
0d
06
08
e7
fe
f3
e2
d8
ed
00
d2
fb
f0
fe
fb
fd
00
00
fc
03
03
f8
00
f5
f5
f1
f8
f7
f7
07
e0
df
02
d6
ec
d6
f8
fa
02
08
fe
fd
01
fd
02
ff
e9
fc
04
04
e8
ef
02
ff
0d
1c
01
0d
fd
00
14
d3
e7
e5
e5
e5
02
03
01
02
01
ed
f9
01
fb
fb
d1
f7
08
fc
ee
eb
03
e7
01
f8
03
ed
f5
f8
ec
f0
00
f2
eb
f3
d3
07
0a
fd
ff
f3
f7
eb
05
11
e5
e4
ee
fb
cb
03
ff
02
fe
ff
ed
ef
e6
da
c2
ea
02
f0
02
eb
00
f0
05
02
e5
f8
ed
f4
f7
d3
c4
de
f8
ed
e9
0f
12
f2
f4
00
e9
ee
f9
01
ed
fd
f9
f7
ed
e1
01
fa
07
da
cd
02
01
f9
ea
00
ff
f3
e6
dc
de
1b
fb
d3
f9
08
08
f8
ff
06
fe
ff
02
03
fe
00
fd
f4
0b
07
06
00
08
07
05
05
24
09
e5
f9
fa
f6
e4
f8
fb
fd
e5
f3
1a
19
0e
0a
fb
f0
dd
01
08
0e
05
01
04
11
06
d1
e8
03
11
05
09
cb
e2
0f
1a
e5
f3
0b
d0
d8
16
1a
14
fe
02
02
01
fe
0e
06
fe
f9
f7
04
ef
f7
d7
fc
03
ff
f4
e6
eb
1f
0f
fc
0f
25
14
0c
e2
e5
18
fa
f6
fc
ee
06
0a
fd
f7
e3
f3
e8
e8
0e
00
00
04
0b
f7
ff
00
fc
00
0b
10
fe
ff
02
01
00
03
e0
e7
04
03
06
0e
0a
f1
c9
f7
ff
f2
e7
d4
e5
f6
ea
04
f6
fd
f0
e6
f4
13
16
09
20
0d
fe
fa
0b
11
01
06
01
ff
fd
fe
01
fe
11
0a
f3
e2
ff
22
0d
06
f4
0c
05
08
c5
f9
ff
15
05
ea
f4
fb
ff
00
fe
fd
ff
36
05
fb
e7
e9
f8
f9
e2
fc
f1
fd
f2
f2
e7
fb
1c
0e
b4
df
ea
fe
02
fe
01
03
ea
e3
03
00
0a
12
0c
1d
ec
fa
06
03
f1
f8
0a
fe
f8
0f
1a
0b
04
f2
17
18
0e
fc
f7
00
01
0a
e3
fa
20
05
01
06
ff
0b
f6
f9
01
02
02
01
03
03
e3
05
09
02
14
1c
ee
e5
0a
1c
10
f2
d0
f8
fb
f2
09
09
01
21
12
f6
e8
f2
e9
e3
09
03
07
19
11
e8
d7
fc
d2
dc
15
17
0f
f7
06
f9
05
f4
fa
03
f5
fb
00
f0
fd
fa
fa
0b
0e
07
0c
08
01
f5
f7
fb
f7
fe
03
01
03
01
fe
f6
fb
fe
fd
05
0a
05
11
01
fb
09
f1
ec
ee
f3
fc
fd
08
08
00
fa
f5
fb
f5
fb
fa
00
15
06
10
07
fc
f9
fd
fe
02
01
01
fe
07
07
11
0b
ef
fa
ff
f7
05
14
0a
ec
f7
0f
00
06
02
03
ff
01
fe
0d
14
11
00
06
e9
f7
f3
01
fe
f7
05
0c
0f
12
04
17
08
14
0e
07
12
0b
1d
17
f6
04
03
15
0a
fd
03
01
f7
06
f5
f4
0c
04
fd
f4
f4
1c
06
fe
fb
f9
f9
f0
f6
09
09
08
05
05
eb
ef
f2
f6
f1
08
15
09
0a
16
f5
ff
0a
05
0d
f7
00
fe
0a
06
02
fe
09
08
03
f5
ff
10
07
0b
0b
09
0c
09
0c
fd
fe
00
01
01
03
0d
08
01
f8
11
0a
10
00
0c
f9
f9
18
04
02
04
00
f9
fc
fd
03
fe
00
03
02
fd
fa
f2
f8
f9
f9
05
fc
05
06
fa
01
f3
04
fb
14
0a
09
15
10
ff
02
ff
00
03
fc
03
11
04
02
05
02
fa
fc
f7
02
08
07
ef
f3
fb
00
0c
18
17
f1
02
00
fb
fa
f8
fc
f9
03
06
f6
f8
04
02
fa
f7
04
0d
06
02
fe
fe
00
fd
01
f4
fc
0d
0d
0b
07
ff
16
fb
07
0e
0a
25
ff
16
f3
f2
10
05
fc
12
0a
fd
14
09
f8
06
00
14
10
0c
00
0b
07
04
ef
f6
08
09
05
fe
01
ff
fd
fb
01
00
fe
ff
02
fd
fa
ff
00
00
00
03
fd
00
02
fd
fe
00
fe
00
00
fe
01
fe
fe
00
ff
fc
f9
fa
fb
fd
fc
fc
fc
02
fd
ff
00
fd
fe
00
fd
fd
00
00
ff
ff
fb
fb
fd
fd
ff
fe
03
ff
fd
00
fd
fe
fe
fa
ff
01
ff
fb
00
fd
01
02
fb
ff
fd
fe
01
04
ff
02
ff
f8
00
00
01
02
fe
ff
01
00
fe
02
fb
fa
ff
ff
00
fe
fb
fc
fa
fc
fc
03
fc
fc
f9
ff
fe
fe
02
04
fc
fe
fb
01
03
01
fd
fc
fe
00
fe
fe
00
00
fd
fd
fb
00
00
ff
fd
fe
fd
ff
fa
fe
fe
00
fd
03
ff
fa
fc
fb
f8
fd
fc
fc
ff
00
fc
fc
fc
ff
01
fa
fc
ff
00
00
f9
fc
fe
fa
fc
00
00
00
03
01
fd
fe
fd
00
00
fd
fe
fe
fe
03
fd
ff
00
fd
fb
fe
01
fe
ff
fd
fd
02
ff
ff
fd
02
fe
01
01
00
02
ff
fe
02
ff
00
fd
01
fc
fc
ff
fd
fb
fb
ff
fa
fb
ff
01
00
ff
fc
00
ff
ff
fe
02
01
01
02
fb
ff
01
ff
01
fb
fd
fe
ff
fa
02
fd
fd
fe
fe
00
ff
fb
f9
f9
ff
ff
ff
fc
fc
fd
fd
fe
fd
fc
fd
fe
fe
00
fc
fd
fe
03
05
00
02
fe
02
02
fd
ff
fc
ff
fc
fb
02
03
fe
fd
fd
02
01
ff
00
fd
fa
fb
fc
fd
f6
fd
01
02
fd
fd
00
fd
fd
01
02
00
03
fd
fe
ff
ff
fe
fc
fd
00
00
0a
f9
f7
e7
fc
f7
f9
f8
f1
e1
e7
09
00
f7
e8
ff
04
ef
fa
0f
f2
07
f7
ee
fe
02
02
fe
01
fc
f5
03
00
09
f6
fb
00
06
08
f1
ef
fc
ee
09
fa
e2
f8
f2
0b
0a
05
0b
0c
fd
15
fc
09
13
f6
fc
ff
05
0b
0c
ea
f5
02
02
0b
f4
f7
fe
fd
f5
eb
f0
04
09
0f
00
fe
02
fe
ed
fe
00
01
fe
01
f7
06
03
05
08
06
fb
fb
01
0a
f6
0d
12
0b
f3
08
0e
02
03
09
18
13
0a
fd
0a
0d
03
f6
06
13
02
f0
f4
fb
f5
ff
f0
fd
01
09
f6
f7
ff
08
0d
ff
ff
05
09
03
00
03
01
01
03
fb
f6
01
00
03
e0
fa
08
f0
0b
d4
db
fe
fd
fd
f8
fc
f5
dd
ff
07
f6
01
fa
10
f6
fd
ff
f8
f3
fb
00
06
03
01
fe
fe
02
02
00
19
fc
03
f0
f9
1f
f1
0b
f1
0a
f6
f2
04
0a
0a
ff
f1
fd
f4
01
00
ff
00
00
fd
16
00
17
16
18
e3
ef
fe
f3
f6
f4
f9
ef
f6
f9
e9
f6
09
0a
12
01
01
00
01
ff
ff
10
03
10
f1
ec
f8
05
0e
0a
05
fe
f5
01
fc
fb
f6
f9
01
05
0e
f0
04
f6
00
e2
de
fa
ec
02
f5
f8
f3
e8
d7
fb
ef
ff
fd
f9
ff
ff
fd
fe
fe
ff
f4
06
02
02
12
f4
09
fc
13
fc
dd
18
06
fb
f2
f9
fe
fb
04
ec
f9
09
03
11
08
0c
0c
f1
00
16
e3
06
f1
ee
f9
f9
f7
fa
d4
fb
03
f7
e4
0d
ed
02
fd
fd
0d
0d
0a
02
f7
0d
f2
eb
d2
fa
0b
e9
f8
fb
eb
f4
fd
01
fe
01
fe
f5
e8
f8
f9
0d
15
06
fd
02
10
f6
f4
f4
e2
ea
f9
05
ed
f4
13
fb
f8
fb
00
e3
03
04
d4
f4
0b
0d
06
05
00
03
08
fb
f2
fd
0e
dd
f7
06
e4
08
07
fd
00
00
eb
e7
e7
ed
f5
e0
01
00
02
02
00
04
f7
fc
fb
fd
00
03
f4
fb
13
1b
10
0b
00
f5
17
1b
de
f6
18
0c
14
fe
eb
14
fa
01
ef
ff
0b
f1
f1
e3
e7
0a
02
fe
f9
f3
da
fe
04
05
00
ef
0a
ff
fe
04
05
fe
fa
fc
fc
fe
0a
06
fd
f3
dd
1f
06
f1
ea
1b
14
07
05
05
f8
fd
08
fe
01
15
ff
00
f9
f0
fd
ea
07
f4
ed
48
f7
05
08
fb
fb
fe
ff
02
01
04
fe
00
d1
fe
15
e7
e6
f0
ee
09
03
fd
03
05
f6
f8
ed
f6
02
fd
01
02
ff
01
00
fb
f9
f9
fa
dd
fd
08
02
f4
10
fc
0a
fc
eb
16
fc
f9
fb
fe
e9
01
fd
01
02
ff
12
0b
09
01
fb
fe
ff
f4
03
0e
e3
f8
ec
e3
0a
e9
e4
ed
fd
0c
e9
f7
e3
f5
0f
f1
03
05
05
0b
05
06
eb
f1
10
f7
f7
f4
f5
26
02
fd
02
ff
01
e2
f2
fb
f4
28
ff
04
fd
fd
22
02
03
c7
e6
09
07
01
ef
16
02
ff
f9
f6
fc
f7
fb
0b
00
da
09
f6
f8
fb
fa
e8
f7
f3
f2
fd
e7
e1
fb
f4
ef
06
f5
f1
03
f8
fb
04
fa
00
f0
0e
00
01
00
08
01
e4
e9
e2
fe
00
fe
01
fd
fe
fd
fa
f6
eb
d9
05
fe
05
f6
f7
ff
f5
f2
04
1b
0f
08
07
fe
02
09
0c
04
f8
fe
ed
09
09
f8
0c
00
fa
00
00
f3
eb
fc
fe
10
c2
e0
f6
04
12
f7
02
03
01
fd
f6
e9
0d
03
03
f9
c0
02
fe
ff
03
00
ff
ff
02
00
fe
f8
01
f1
ff
0a
eb
fd
f7
01
ee
0a
0a
e0
fc
04
f0
15
f9
ff
0d
01
04
fb
09
0a
05
f9
f3
ef
06
fa
fb
ef
f7
05
f6
14
e0
e7
fe
f9
e8
f4
dd
05
fc
fe
01
03
02
e9
e2
f7
fc
f1
08
fd
17
07
f6
f2
f8
fe
0e
fd
fd
07
fd
03
0a
ff
f8
ea
d2
09
ff
fd
e7
e6
0f
07
fe
02
06
12
fc
fc
01
ff
00
0a
18
e6
06
0f
f8
04
f2
f5
1a
02
00
fd
f8
e6
fe
f8
ff
04
05
01
00
00
01
00
f4
18
fc
0d
02
00
fe
fa
ed
08
fa
04
ff
f6
08
16
e9
f8
02
00
00
01
ff
fe
fe
fd
fc
0c
f9
e4
0d
01
11
fa
f2
09
f6
04
e9
d6
07
0a
f1
d4
05
0a
07
fe
07
0f
fc
fa
01
fa
06
16
0d
fe
07
00
fc
f7
d9
f5
07
01
00
00
01
01
0c
11
fa
e0
f7
0b
0d
fa
06
0d
fb
fb
f0
01
05
00
08
de
23
12
19
fc
f9
fb
09
03
10
06
f8
06
13
14
10
0a
07
10
0a
05
06
d7
ed
ff
12
fa
d9
e5
02
05
fd
d3
01
f4
ff
e2
81
f5
08
0f
07
bc
0d
0c
02
db
bd
01
ff
01
fd
00
08
f9
fc
e7
f3
be
e7
f9
ef
fb
0e
0e
0a
02
e1
06
ee
0d
0d
ed
dd
d1
f2
19
27
e8
fe
0e
e1
c5
c9
fe
08
f6
f4
f2
06
10
dc
c2
d5
0a
0d
00
bc
07
06
e7
ce
9c
cf
e3
0e
14
16
fc
ff
ff
fe
00
fd
fb
fd
fb
fe
16
14
00
d3
c0
e0
0c
08
03
e2
04
e4
0a
e7
dc
e7
ec
fb
e9
d7
1d
07
14
f3
e7
f2
01
07
fd
c0
ff
f7
01
04
f7
05
01
dc
eb
f9
f8
f2
ef
f9
fd
fb
fd
fb
f9
fb
04
07
0b
04
ee
e0
e9
0d
ec
a9
e5
07
11
f9
bf
fa
ff
11
f7
d9
f4
e1
dd
fa
fa
08
01
f0
00
f4
ee
ee
f0
e9
f2
fe
03
00
ff
fe
08
03
05
06
f7
0d
f4
0e
0c
f7
1c
0d
e9
d7
ad
f9
00
08
02
f7
00
01
02
fe
02
f1
09
0f
05
fc
0d
06
eb
ed
b5
14
0c
03
05
d3
e6
f8
f4
b9
b6
fe
00
ff
02
fe
de
00
0f
0a
f7
c0
09
0e
fd
cb
05
ff
fe
ed
d4
ea
d2
ee
f3
fc
cd
cd
16
09
1c
f1
f9
fd
f8
ba
fb
f5
0a
fb
11
21
05
fa
fa
ef
fd
01
02
ff
01
13
ee
e9
f5
f6
f7
19
0f
fd
e8
ec
05
0d
03
c0
f0
ea
ed
f0
02
d7
fb
f7
bf
b9
0b
f5
06
02
da
fa
12
17
04
f6
de
e7
01
13
13
02
00
06
fb
dd
04
09
04
f1
cb
fa
03
09
ec
de
00
f9
e9
f7
f6
04
e9
ec
df
eb
01
01
01
01
02
18
1d
ed
f2
fa
06
05
f9
ef
f6
f0
e6
e7
f1
e5
f8
fe
01
02
fa
04
01
00
04
03
01
06
01
f4
02
00
03
fd
eb
e9
0a
0e
dc
d7
d2
00
06
0b
03
d2
18
16
e5
e7
e3
0d
03
08
05
08
fe
ff
03
ff
fd
ff
fc
02
01
00
05
07
03
e3
e9
df
e7
d3
ee
da
0d
03
f5
df
f9
fd
e1
ea
e9
01
06
f0
ef
ee
fa
fe
01
08
01
e8
09
e7
d5
d6
ce
12
17
e9
e9
d7
04
00
f9
f4
f4
04
03
06
05
03
05
ea
d6
d7
c9
03
0c
16
f4
f1
d9
d3
e3
e4
d8
05
02
fd
f4
f0
fd
05
fe
ee
01
fc
eb
ed
e7
eb
f5
f5
02
02
00
00
01
01
02
00
07
00
d5
ce
ed
f9
e0
c7
ed
14
12
ff
e2
e9
dc
f1
ef
ea
f5
f6
01
fe
ff
03
00
fa
e9
d7
cd
ea
03
00
02
f1
dc
04
02
02
f6
eb
11
13
f2
da
de
01
01
00
fe
02
f8
07
0b
fd
fe
06
0e
01
cd
c2
03
03
05
ea
e9
28
0c
00
07
1d
0f
05
07
f5
04
03
12
03
02
ea
0d
f4
ff
06
0e
0c
e7
e7
e0
e6
00
00
fe
01
00
14
0a
fa
f3
fb
ed
fc
cc
de
1c
04
02
ee
fb
f2
06
e0
db
e7
e1
15
0d
e7
e7
e5
05
f9
fd
fe
fc
00
fb
c2
d3
03
fe
07
05
08
07
ee
ef
f0
ff
f5
f6
f4
01
02
fb
00
02
f8
f8
f3
09
0d
07
fd
ff
f4
f3
fd
f4
01
fd
00
ff
ff
00
f8
02
08
06
01
02
fd
f9
01
00
02
f8
0d
fe
03
ec
06
fd
05
f0
07
00
f6
fe
fe
f8
fb
0f
0e
f2
08
f7
fb
05
00
0b
ff
fb
fe
ff
f2
f3
02
fe
f5
04
ff
06
fc
02
f8
f5
01
f9
fb
00
fe
ff
01
ff
0b
01
03
03
01
f5
f7
f9
fe
ec
f6
02
06
01
fe
08
12
10
0c
fe
0f
16
06
0b
fc
f4
fe
11
07
09
02
fb
ff
f3
f0
fd
02
0b
ff
fc
f6
09
07
05
06
f9
07
fd
fb
fb
01
01
01
00
02
f3
dd
fa
ed
ef
0b
0e
13
04
fc
f5
05
03
fd
fa
eb
f5
f5
f9
e7
03
03
06
04
0a
f7
0f
0b
f8
01
07
01
05
0a
0a
02
fe
fe
ff
00
0b
f2
05
f0
f0
0d
f7
22
17
06
fe
00
05
01
0a
05
fc
fc
fd
f9
00
00
fe
fe
fd
00
04
0b
06
fc
f9
04
f9
fa
f6
f5
ff
01
fa
ed
07
01
03
01
04
fd
ff
00
01
00
fb
0b
0b
07
11
09
fb
01
04
fe
ff
f8
02
05
f4
06
fc
09
01
0e
02
f9
ff
fe
fa
00
fa
0b
05
05
07
01
03
fb
f5
f5
f4
00
fb
f8
01
01
fe
02
00
02
0f
10
0e
03
04
0e
17
0f
fa
0c
0c
16
09
02
03
05
0d
10
01
03
fe
fe
00
01
fa
06
02
ff
fc
0c
f3
10
13
04
e4
ea
fb
fb
f3
f3
0b
15
0e
df
04
fc
0c
ff
d0
09
f8
f2
eb
dc
f6
f2
fb
dc
fd
fb
09
ec
dc
06
01
03
fe
02
03
fe
11
e7
f8
f8
de
ed
ec
e7
ec
fb
f6
fb
f8
03
db
e5
00
fe
ea
d7
dc
ea
09
0c
10
ec
04
0f
d0
df
fd
ff
f3
de
ee
03
08
e6
fb
0e
fe
0c
0a
d3
0f
14
fc
c5
e2
cd
e5
03
07
07
01
ff
fe
02
01
02
02
fa
fc
fc
03
fd
f6
f4
c6
02
07
0c
00
ec
db
ef
f9
15
07
0b
e7
e7
f6
ed
f0
dc
b8
d7
ed
ef
eb
fa
f9
b1
0d
0c
01
00
f6
06
10
f1
07
fd
04
06
f0
f1
f9
ff
00
ff
01
04
07
02
00
fd
00
13
ee
f1
fb
e9
01
05
0f
fc
e4
e6
ef
06
00
e6
f9
f6
f5
f8
fc
14
06
e1
08
00
03
fe
f8
02
01
00
03
02
00
00
0c
04
fd
fb
e5
02
e6
f1
f2
ec
18
11
f1
b9
ea
fd
ed
00
f0
f0
00
02
01
02
fd
f2
f9
07
05
01
0d
0e
ee
f2
ee
fd
02
f2
fc
e1
f6
fd
e6
dc
f5
fd
fe
fe
fe
ff
fd
02
06
fd
f5
be
10
0c
fb
e5
07
f0
fb
01
b3
e2
e9
d7
fa
02
f8
ed
fd
0a
0f
0c
0d
0f
02
d0
e9
0d
f0
09
1a
12
09
df
fd
fd
01
01
03
01
00
07
06
c5
03
fd
f5
ec
fd
fc
05
e8
fb
0a
e9
e3
04
0b
0a
0a
ff
fb
fc
ea
df
f0
e7
fa
f5
f9
fd
fd
fe
09
fb
f0
cf
ea
ff
03
07
04
09
12
10
eb
fd
07
fa
ea
ee
04
ff
f8
e1
e6
c9
fc
08
0b
0a
0b
fe
f7
02
08
ff
03
ff
03
02
b8
e6
fd
f9
09
f0
f9
01
02
f5
e9
f9
fd
02
00
e0
df
f1
04
09
d4
ee
00
04
03
1c
f7
0e
0e
00
fc
fe
05
fe
fa
fb
fe
ee
fb
07
0e
1a
0f
e9
f8
f2
e9
02
fa
12
f3
fa
ff
01
fe
ff
02
01
ff
ff
fe
00
ff
ff
fc
ee
c9
f4
f9
ff
0e
0d
fb
f5
f0
fe
13
ff
ee
ef
14
ef
f1
e8
f5
bd
db
ec
09
0f
05
16
0d
f9
f6
ff
03
02
02
02
ec
f9
fe
01
0c
eb
f8
00
03
0b
00
fc
fd
fe
fc
f8
fe
fd
04
07
22
fd
03
e6
df
0a
11
04
f9
f3
ec
e9
f4
fe
0f
ea
fb
00
fc
03
da
f8
06
01
0d
08
fe
07
04
06
fe
00
01
fd
02
fb
f1
e7
f8
fd
07
e8
ea
05
0c
e2
dc
f5
02
13
ee
f5
06
09
03
ff
02
01
fe
01
dd
f3
f7
01
0a
02
e8
f8
f6
f8
ed
d7
ff
00
0a
fe
eb
f1
03
12
01
ff
00
ff
ff
13
0f
00
f5
e4
12
0b
08
fb
f7
03
fa
fe
e6
0f
ce
fd
09
16
0d
94
e7
00
fc
04
08
ff
fd
f3
d5
ed
e2
f7
05
05
cd
ee
03
05
13
01
ff
fd
fe
02
a9
ef
fc
f5
08
f1
ea
fb
04
04
dc
03
ff
ff
fc
f2
12
06
01
0c
fe
f0
f3
06
10
ec
d2
e9
fd
16
e3
e1
f2
fe
00
ff
05
03
ff
f6
e4
ec
f2
fa
f3
08
02
fd
f7
f5
01
fe
ff
ef
f6
f3
03
e8
05
09
00
ff
f9
fc
05
fd
01
ff
02
ff
12
11
d6
f3
0c
fc
ff
0c
00
04
f7
e7
f5
0b
03
00
f9
f6
f6
11
07
f6
eb
ee
f8
04
00
f1
e3
00
00
fe
09
ff
fe
ee
f5
02
fc
05
fa
05
0a
12
ea
0e
04
f1
ea
04
06
fd
e3
f5
ff
02
02
01
fe
00
02
ff
00
01
04
0b
06
05
e6
fa
04
02
f8
f3
05
f0
e7
e1
c7
11
fb
11
0f
1c
e9
0e
06
f7
f8
fd
e6
f6
01
02
05
1c
f5
f2
14
10
1a
08
e3
0a
13
08
00
f7
f5
0e
02
02
02
02
01
10
ec
e6
0c
0b
03
e9
f4
18
f7
00
03
01
f6
ff
01
fc
f6
fa
fe
fa
ff
f0
f8
0d
07
f3
a5
05
15
ee
f5
f3
fa
f0
fd
fd
ff
01
fd
e2
e9
de
e8
06
cf
f8
e1
f2
09
0f
0a
ed
e9
11
ff
fe
de
fc
fc
00
ff
01
01
ff
17
0a
d3
01
11
01
01
03
fe
ef
06
0e
03
e5
f0
12
10
03
f1
f8
00
ff
ff
fe
00
0a
f1
f6
eb
e3
f9
f8
04
f3
0a
f8
fb
ff
ec
e7
0a
16
e2
ff
09
e3
f5
ec
d7
07
fe
0c
0d
e2
0e
e5
f4
fc
fd
f5
17
e6
bf
07
0e
01
01
01
00
ff
1b
22
bd
e9
18
08
0a
f8
f6
11
10
0b
da
e9
07
f6
f2
c6
01
15
0e
0a
06
f6
fe
fd
02
fd
03
f1
17
0e
fb
f9
01
08
f2
e5
ee
e9
fa
03
06
f9
e2
05
f2
02
ff
dc
1e
07
03
fb
fc
da
e9
f9
fe
f9
f8
f2
e8
d1
ec
01
02
ff
00
02
08
02
ff
ff
0a
df
f6
f9
ff
05
ee
f8
03
06
0c
cb
ed
f6
fa
c0
e7
f4
fd
02
03
10
fb
1b
0e
d0
ed
02
f9
fa
fe
d9
e8
ed
f4
f5
0a
eb
0c
fe
df
01
07
fa
ea
e4
fc
fb
07
ff
fb
ff
fe
02
02
ff
04
00
05
01
00
ec
fe
0a
03
d7
07
0a
0d
03
ea
07
0a
fd
09
f4
20
17
13
07
c8
e2
f2
f4
0e
e8
dc
d4
f8
fe
f5
14
0c
0d
00
00
10
0c
07
05
03
fe
fe
ff
05
08
fa
fe
ff
fe
02
03
05
05
f7
f1
2c
eb
0b
04
e8
02
f8
0d
e9
e4
bf
c6
05
ff
c1
ff
f7
08
08
02
01
08
fa
0f
14
12
06
06
0c
ff
fe
00
fe
fd
fe
02
f6
f6
f1
e4
f2
e5
f8
ff
e2
1b
f7
eb
e7
e2
f6
f0
f1
f4
f4
02
00
ff
01
00
f8
f8
0f
11
19
06
2c
f7
01
fc
f0
06
fb
00
e4
d1
e0
05
ff
ea
01
fe
fe
01
ff
0f
01
fe
eb
ca
09
04
f0
f5
f1
13
03
05
f9
dc
e8
02
fe
05
0f
03
f5
01
07
01
fb
fb
05
09
dc
dd
ef
f6
f3
f0
08
05
01
06
03
fe
02
00
fd
00
fd
0a
03
03
0d
0f
0e
15
0c
f2
de
ee
0b
16
f8
14
0c
0b
fb
f8
f5
ea
0d
0a
f0
cf
05
19
0e
ed
f7
fd
0c
02
01
00
fe
00
fb
f4
f7
ef
00
fd
dd
fa
fe
ff
f7
02
fc
f3
fd
fd
f6
21
16
fa
11
08
f3
03
06
04
fb
02
ff
01
02
fe
ee
f4
0a
f0
fd
d5
d3
0d
01
06
07
04
0e
0e
00
f0
f1
f9
02
f0
e2
ef
1d
