d6
f8
f8
8d
16
d3
b6
ee
8d
f8
d2
c4
be
ec
06
d0
ef
ad
ff
d4
f6
be
d1
a8
b7
b0
ef
e2
81
fd
fb
e0
c0
d4
f9
f5
a2
8b
f7
af
36
1d
16
d1
d4
b5
f6
d9
f5
9e
d4
b6
c7
00
be
ef
c4
ef
a7
f4
b8
9a
de
f9
a3
e0
f6
e3
01
fc
fc
12
06
d4
e6
f7
f7
de
0c
f3
f2
c0
f1
dd
34
39
fb
f4
fa
21
86
f7
0e
dc
eb
fc
0d
ad
e9
f8
02
f4
cf
a1
c9
be
ab
02
96
f9
d7
f5
f8
fb
fd
2d
b3
ca
ec
b1
e4
e8
2a
f3
8f
dc
f8
fe
