18
eb
0f
ea
1f
02
10
f1
04
02
f0
12
1a
0f
ff
06
01
16
fc
0d
19
15
0b
12
1a
00
0f
0a
02
04
01
03
01
fa
10
ee
10
e5
23
ee
0f
f5
11
fe
f7
fc
fb
07
0f
e6
1a
19
ff
f7
e0
fc
09
de
ed
06
f1
08
09
0c
fe
02
01
02
fa
f2
f4
f1
10
ed
f1
0d
f4
00
01
fa
00
fe
05
fe
00
fd
01
03
fd
ef
0e
03
02
02
fe
01
fc
ff
fe
fc
00
fe
f4
f9
f6
08
fa
f4
10
0e
0b
05
00
fc
00
fc
df
dd
eb
f7
07
f2
1a
f6
ea
01
fe
06
ed
1d
0e
09
fa
f6
fc
fd
ff
ff
02
ff
fd
01
02
fb
0d
0f
0c
f7
13
bd
f5
d4
10
cc
18
ee
f2
f6
f2
e7
0d
f5
03
e8
fe
05
e8
fe
02
01
01
fe
13
f4
02
16
f2
f8
e0
f9
ef
16
fd
ee
fb
fb
f5
0b
05
f6
fe
fa
04
2b
0f
0f
02
f3
f2
f7
fd
04
09
fb
0a
04
1e
11
0a
f9
ef
04
fe
00
00
fe
0e
0d
09
fc
0a
f2
f1
0a
fe
04
05
02
f3
f4
f4
10
fc
01
02
0a
01
02
02
02
fc
b6
06
fb
07
05
07
07
17
f1
14
00
ff
ff
00
ff
f8
04
e4
09
0e
fb
0e
fe
0f
f4
01
0b
17
07
f0
01
05
f9
0f
18
f7
01
ea
fe
09
fa
0a
ff
0b
eb
11
01
2d
03
0a
f6
04
0c
07
09
0c
e6
00
14
01
00
ff
00
0b
15
ed
05
e9
1a
f1
0e
00
db
ef
13
0d
1b
14
19
fb
ef
ec
f7
f2
0a
0c
02
ff
fa
05
fe
f0
cd
03
ec
ff
f4
fe
f4
fe
f7
17
0c
f0
03
e5
10
04
fe
ff
fb
fd
0b
fe
f2
fb
e3
ec
f0
01
06
f1
ff
fb
d3
e9
e7
f0
f7
ee
fc
02
ff
03
01
05
bd
12
ff
f8
ed
06
f8
26
12
04
0a
07
fc
ef
03
10
08
f9
07
f2
f2
fc
06
03
fe
f9
19
1a
d8
fd
00
f4
f7
15
06
10
f3
f0
fa
f8
eb
06
18
18
f7
eb
04
fa
0a
f3
08
15
f7
11
10
fd
fc
ed
f3
fa
f7
0f
f5
fd
dd
de
0e
fe
00
fc
fc
c2
e7
06
f5
02
1d
0c
1a
fd
00
00
fc
13
1b
05
04
0a
ef
0e
02
ff
0e
10
16
fc
fc
01
00
01
fa
ff
fb
1c
0e
0c
02
fd
00
f6
04
04
05
02
05
16
f6
1d
f7
11
f5
08
07
ff
f8
0a
ff
00
fe
ff
00
05
fe
f0
01
fd
f7
f8
04
1d
14
16
e4
f8
09
f8
00
ff
1d
1c
fc
18
07
13
12
16
e4
13
02
0b
fb
ef
d0
03
05
05
06
11
0f
13
e9
0c
fd
ee
fa
1d
11
0d
dc
ed
f1
ef
07
ff
dc
02
f4
00
ff
e8
f7
03
e3
eb
02
00
eb
04
03
00
02
02
fe
08
06
05
04
1b
de
d1
03
fd
01
fc
00
02
02
fe
fd
fd
00
02
02
0a
de
ec
e8
04
04
06
05
f0
f9
f6
14
08
f7
fe
ff
f7
f6
03
f5
0b
01
11
04
02
ff
fe
02
d5
e5
06
f5
0a
bb
05
f6
07
fd
04
16
f4
13
f7
0a
0c
f7
15
ef
ff
fd
06
02
fe
02
00
fd
07
e4
06
f7
f3
c1
07
ff
09
f4
17
08
fd
f3
f7
fe
2c
ea
ec
e4
f9
f5
dc
ed
01
01
00
00
04
e3
0a
f5
19
cd
f6
fa
16
21
00
e2
12
f6
e5
ff
10
fe
f7
fe
e5
19
25
02
06
f7
01
d6
f1
03
10
09
04
f5
05
dc
13
da
ec
f6
01
ff
ff
ff
08
db
e1
ed
fa
07
06
f8
fa
ff
04
ff
ee
fe
0b
12
01
05
02
05
02
03
01
03
d5
f0
06
08
04
04
02
02
04
01
fc
0e
00
00
ff
01
08
fd
ff
19
05
0b
07
dd
16
05
fe
fa
19
02
14
fc
0a
1b
f0
0b
f9
17
0d
ff
05
c8
e5
d6
01
fb
fa
ee
06
0b
23
03
0c
18
0e
03
05
e4
e0
f4
00
00
fe
fd
fd
00
06
f5
05
e9
f3
05
14
eb
de
ec
1e
07
fe
05
f7
f5
05
0e
0b
fd
07
02
02
01
01
00
d8
db
fe
fc
0d
06
fd
e8
1a
0f
18
06
e7
f2
e1
17
f9
f2
f2
03
14
f8
ff
ea
10
f7
fc
f7
04
f5
f5
04
0b
e2
0e
f2
e5
fe
fe
00
00
00
01
fe
08
0a
f8
04
00
f2
ee
01
05
fe
0a
00
0f
08
e5
e2
04
02
00
08
0a
0a
09
0d
1d
1a
ef
09
17
fa
f2
02
03
00
07
07
2f
fa
d3
f5
fb
f4
f4
e1
f7
01
df
fc
f6
fd
f0
09
07
01
ed
ff
0a
05
fe
03
09
f8
fb
f4
14
e8
de
f0
0a
03
0c
01
d5
f5
f7
09
09
ee
fc
05
fd
ff
00
00
01
05
13
03
0c
0f
ff
03
00
10
06
10
01
00
02
ff
fc
ff
06
f9
fd
08
03
02
f3
f6
fd
05
03
01
01
00
07
db
cc
fd
05
00
f3
d8
00
06
04
09
03
ff
03
02
f0
f3
0c
10
fe
fd
fd
01
01
ff
01
00
00
01
fe
01
ff
fe
fd
fe
00
00
01
ff
fe
00
fd
fd
fe
fe
01
00
01
ff
00
02
00
ff
fe
ff
ff
fe
ff
ff
fe
fe
ff
02
00
fe
00
fe
ff
fd
01
02
00
ff
ff
fe
fe
ff
ff
fe
fe
01
ff
00
fe
01
fe
fd
fe
01
fe
ff
fe
00
fe
00
ff
ff
fe
02
ff
01
ff
01
00
fe
fe
00
ff
fe
fe
01
fe
01
ff
01
fe
ff
ff
fe
00
ff
00
01
fe
00
fe
fe
ff
fe
ff
01
00
fe
ff
02
01
01
00
ff
fd
00
fe
ff
fd
00
ff
02
01
00
00
fe
00
fe
fd
ff
01
ff
ff
fe
00
00
ff
ff
fe
ff
ff
ff
00
fe
fd
01
00
01
01
02
ff
ff
00
02
fe
ff
ff
fe
01
02
00
ff
01
01
00
01
01
fe
00
ff
fd
01
ff
fe
fe
00
fd
fd
01
00
01
ff
01
fe
00
fe
fd
00
ff
fe
fe
01
fe
00
01
fd
01
fe
00
fe
ff
ff
01
fe
ff
01
00
ff
fd
fe
fe
fd
00
00
00
fe
ff
fe
ff
00
00
fe
ff
00
00
01
fe
00
fd
01
00
fe
00
00
01
00
00
00
02
02
ff
00
02
00
ff
ff
ff
ff
ff
fe
fd
fe
00
fe
00
ff
ff
fe
fe
00
ff
02
ff
00
01
fe
fe
00
00
00
ff
02
00
02
00
fe
01
00
ff
00
fd
ff
fd
fd
fd
ff
01
00
ff
ff
ff
00
ff
ff
01
00
01
ff
ff
00
fe
fe
01
fe
00
fd
fe
ff
02
01
01
00
01
fe
fe
fd
00
01
fe
01
ff
fe
fe
fd
ff
fe
00
fd
01
00
00
01
01
00
02
ff
fd
ff
ff
00
fc
ff
ff
00
fe
01
ff
ff
02
ff
fe
ff
01
01
ff
01
fd
ff
fe
ff
00
01
00
fd
00
fe
02
ff
01
01
ff
00
00
fe
01
01
ff
00
fd
ff
ff
fd
00
fe
fe
ff
00
fe
00
01
ff
ff
00
ff
fd
01
ff
ff
fe
fe
00
fe
fe
00
01
ff
ff
01
00
00
01
ff
fe
ff
ff
01
fd
01
ff
00
fe
fd
ff
ff
00
02
00
ff
fd
fe
ff
fe
00
ff
00
01
00
fe
01
00
ff
ff
fd
fe
fe
fd
ff
fe
fd
fe
00
00
fe
01
fe
01
00
ff
fe
fd
01
01
01
02
fe
ff
00
00
01
00
01
fe
fe
ff
00
fe
fe
00
fe
00
ff
01
01
02
00
00
fd
ff
00
ff
fe
fe
ff
ff
02
fe
00
01
00
01
fe
fe
01
fd
01
fe
02
1d
25
0e
ef
12
25
20
09
09
ee
ff
22
ff
17
28
05
f0
13
0d
08
10
00
13
03
15
17
ea
07
04
06
ff
02
0d
0d
2b
0d
06
0d
16
02
39
2b
2c
12
06
05
0c
09
1b
fd
2b
08
14
2d
1d
0f
2b
05
11
e4
05
fa
03
02
02
02
01
0e
09
0c
12
ff
03
f5
fc
07
fe
06
0a
02
02
02
01
fe
07
01
04
ff
0b
05
f5
fd
00
03
ff
0a
f9
06
03
0f
08
05
0b
10
05
0a
04
ec
ef
10
00
08
07
0a
07
03
02
21
1c
1f
1e
fd
f8
14
1b
2c
0d
00
08
f2
32
0d
05
0e
12
fa
03
fd
08
fb
01
fc
02
09
04
0d
20
24
4d
25
3d
f8
2b
f0
2a
21
38
2e
0d
14
38
22
0a
08
28
1d
04
01
01
00
00
fc
08
00
f6
08
2c
11
14
f0
1a
2a
6d
10
0d
1e
1a
d9
f7
0b
fa
1d
1a
10
17
03
18
f6
18
00
f4
f8
11
0f
2a
eb
12
fe
01
f7
f7
fd
01
01
01
0b
2c
0c
1b
fe
1b
24
12
0b
0c
08
09
03
fc
10
2d
f9
fe
f9
06
01
ff
01
03
06
2d
09
0d
05
04
02
04
03
e6
04
df
fc
ff
00
02
0d
e2
0d
f4
13
fd
04
28
fb
f8
20
f4
fb
ef
0c
fd
06
04
2f
fa
1e
20
43
1e
0e
21
14
0e
07
0d
26
20
f2
e8
03
12
10
1b
01
fb
0e
0d
27
0b
fd
00
fe
03
0a
22
34
22
24
f5
07
fc
06
25
24
12
fc
05
1a
f6
13
20
45
0e
15
1c
2b
07
fb
01
fd
07
fd
40
f7
15
01
f6
f9
ff
21
1d
ee
0e
2f
fe
21
f7
ff
fc
04
fb
0a
1b
fb
f9
20
3f
22
1f
fe
f1
08
f8
e6
35
40
48
1c
15
1d
15
02
fe
00
02
05
17
01
44
fc
04
07
04
f5
15
04
f2
f1
fb
fa
fe
32
19
05
2e
fe
09
21
0a
10
ed
1a
f4
f6
f8
19
fa
f9
ef
e7
17
13
08
f3
06
f0
18
ee
19
03
1b
fe
19
18
e5
1c
e6
06
f0
09
e8
f7
e9
07
f7
0b
05
fc
e4
09
17
1a
0c
0a
06
09
08
2a
0a
09
33
28
13
0c
0b
f9
06
ff
05
f7
ff
14
f2
dc
e1
02
f1
01
05
1f
15
03
06
05
06
03
fb
07
00
06
eb
02
03
09
09
fe
08
0c
08
0c
0e
06
16
3e
28
fe
18
40
0e
00
11
05
0c
02
02
ff
01
01
fe
08
e8
ed
04
d4
f3
12
0b
ec
ee
0e
db
05
01
ef
f2
de
f5
f5
f0
e4
ee
e1
e1
d9
cd
15
ed
09
fb
01
00
00
fe
f7
f9
ff
f2
ee
02
f6
df
04
e1
f8
f3
da
09
f5
ed
03
f0
f0
18
01
fe
fd
fe
02
d5
e4
f7
f8
d2
f9
f0
fb
ff
ff
fd
fd
f9
fc
fc
0b
fe
f2
f4
01
ff
06
07
01
00
01
ff
04
00
03
00
0e
ed
0d
f4
fe
ff
00
ff
e8
0d
e7
fd
f9
f7
ff
fd
f5
fe
f5
e4
ff
fb
07
f1
00
ff
00
00
eb
f9
e0
ec
0f
25
0e
0e
11
1b
ec
f5
0c
1b
01
fa
03
01
e9
1c
06
0d
14
0d
fe
fe
00
ff
c9
f7
bd
d0
fe
04
f8
d1
f7
f6
f7
de
ef
fd
de
08
fe
f6
ff
e1
fb
f0
e0
0b
ff
ff
fe
01
fe
e0
fc
f6
07
e9
fa
e7
ed
d9
e6
e7
0c
f7
03
14
12
f9
0d
fa
f3
e2
de
fe
db
ee
02
f4
e4
0e
01
00
0c
e6
00
12
04
fd
fe
e5
00
00
02
ff
fb
06
08
f3
09
e5
f6
02
fe
fe
ff
fe
f7
07
f4
1e
ff
fe
ff
00
ff
fe
01
00
eb
f0
d3
03
02
ff
04
01
fa
02
f5
f5
ff
00
00
fe
e4
09
ea
fd
fd
05
f6
0f
1d
fb
10
f2
10
ee
f1
05
0f
fc
17
e0
02
00
f5
ff
09
e5
0a
e5
05
ee
f9
f7
ff
f6
ed
00
ef
e0
ff
ed
0d
ff
ed
0a
01
00
fd
ff
f4
f5
01
d7
ec
06
fe
f8
ed
f7
e3
fe
06
d6
14
e5
06
03
02
03
05
29
dc
07
06
00
ff
01
eb
d7
e7
f2
08
f3
05
e2
f8
fa
f4
f1
d3
0b
e1
03
03
0e
05
e8
01
fb
09
f8
06
fa
ee
00
02
08
fd
f5
f4
eb
c3
f3
f1
09
04
f7
fd
fe
01
fd
fe
0e
0a
ed
09
03
0d
f4
f6
ea
13
05
10
01
fe
00
01
dd
06
fe
fe
f9
f3
ff
05
fe
00
ff
fb
fb
e5
f0
fe
ef
e4
f2
fd
0b
02
03
f9
e7
fc
ec
14
03
07
f2
de
07
d2
f9
f8
f0
09
06
fc
0f
fe
ed
f1
e3
0b
ef
09
0b
08
24
04
02
01
03
c4
0d
ef
e7
f1
da
eb
f4
01
01
01
fe
08
00
ee
fe
07
f4
00
dc
01
0a
f0
07
06
00
00
02
04
fe
03
02
f9
fc
e7
04
ff
fa
fc
01
fa
fd
fd
fe
09
fb
e1
e7
fe
f3
fc
09
08
01
ff
fc
01
01
fe
fe
e5
0e
df
fb
1a
e3
2c
13
05
0a
17
29
01
06
ec
ff
27
3d
14
0d
0d
e7
f5
1c
0b
0b
f9
19
f9
22
fc
10
01
ff
05
05
11
0a
03
0f
1a
f5
11
0c
16
0c
0b
1f
05
01
f3
03
12
11
fe
fc
0c
05
03
07
14
eb
fc
10
ff
0e
fa
0b
02
03
05
03
fd
02
06
07
12
f1
fe
f9
07
00
08
0b
00
fe
fe
fe
05
04
07
04
00
0c
01
04
01
00
02
03
04
f9
f9
13
1a
fc
ff
fe
09
f7
f8
00
ed
cb
fd
07
02
00
01
02
05
14
f2
0b
06
cf
e3
1d
10
05
06
08
10
0e
05
0d
07
ee
0f
ee
fe
f6
00
06
fc
fd
fe
03
01
08
07
13
1d
4c
06
fb
1b
e7
16
17
fe
1b
0b
14
19
08
ff
0d
0c
0e
0c
06
ff
fe
00
01
04
0a
e7
1a
1b
0c
01
17
2e
f5
22
43
13
10
10
18
ec
f4
0c
ff
03
0a
0b
0f
1b
0e
0a
11
0b
e3
f7
10
09
f3
f1
09
18
04
f7
00
fc
02
ff
02
15
f5
27
14
04
f8
fb
0d
01
01
00
01
17
eb
f1
12
02
f6
00
07
04
03
ff
05
15
e7
0b
16
ff
fe
fc
fb
02
ef
07
fd
fc
fe
03
04
f9
e8
f4
0d
fc
f5
fd
02
f1
06
09
fb
02
f6
19
1d
21
02
20
f9
06
02
0b
fc
0d
fb
16
1c
01
06
0b
0c
0f
0b
18
1a
ff
de
f0
0f
13
03
ff
f2
fc
02
03
00
0f
ed
0f
2a
01
ec
fc
f8
17
0d
0e
00
1a
0a
1c
0c
fe
19
0d
11
27
18
16
f9
04
fd
03
04
0d
f3
ff
11
05
0e
0b
f8
fe
f8
fd
12
13
f3
01
1e
fb
e2
0c
f8
07
0c
ff
fd
fa
2c
06
06
f9
e6
02
0e
0c
fe
0d
fe
17
06
08
09
00
fd
01
01
14
07
11
13
06
0f
fc
0d
00
1b
02
1f
05
02
f4
06
09
06
02
0c
1a
fd
0c
11
04
ff
0f
0a
05
fd
09
f4
12
eb
fa
1d
1b
f9
f9
19
0d
21
fb
ff
f9
12
e8
10
f8
00
0c
0c
06
0f
12
19
f9
db
0c
f9
0b
09
10
03
14
07
0f
e8
02
04
00
00
1f
f3
05
14
1d
0e
0c
13
ff
ff
fe
03
04
fd
12
22
f7
fd
14
fc
0d
f4
10
06
05
04
05
02
07
fb
02
04
02
fc
0f
17
00
fd
00
00
fd
fd
01
01
16
f9
1b
05
18
04
26
2d
03
0e
0b
09
01
fe
02
00
ec
f7
0d
1b
0d
f9
34
ff
27
23
2d
0c
ec
30
f4
03
2a
f6
06
f2
f5
11
19
12
07
12
d4
1d
07
32
01
15
fd
01
02
03
08
2d
2d
0a
fc
f8
0f
ec
12
6b
16
41
16
e2
d5
ff
fc
01
0e
11
f6
20
1b
1b
0d
2d
16
12
f7
03
01
03
01
04
ff
fe
06
05
0e
0b
e7
03
f8
fb
02
04
0b
04
04
05
03
02
0f
01
01
ff
00
38
08
fb
00
00
01
fe
e9
fc
eb
12
15
0d
0c
05
f3
f7
f9
f0
e2
fb
0d
f9
01
00
02
ff
fe
33
25
1c
ee
eb
f1
12
26
30
21
08
0a
05
24
ff
1b
08
fe
00
01
fb
ff
ff
fe
00
00
fa
01
04
e3
16
13
52
22
13
11
00
0b
f9
18
49
16
06
10
36
1b
15
ff
16
18
03
ff
03
ff
02
1a
13
d9
09
14
24
03
23
1a
01
16
2c
03
1a
f9
22
e6
0f
0f
ed
15
0f
2b
36
1e
25
0d
02
f7
04
01
10
0c
27
1b
18
38
08
06
00
00
01
01
fa
0a
45
1c
2c
da
50
1a
10
05
ff
07
fe
0f
09
02
2b
00
f8
fe
fd
01
05
03
00
12
22
0d
38
03
02
02
02
05
eb
fd
00
00
ff
00
ff
d8
12
0c
12
fc
f6
23
20
07
0d
0c
e9
0a
17
2c
39
17
f8
03
05
11
29
2a
20
2b
30
24
1a
0f
33
18
0d
09
1c
4e
39
fc
03
e1
38
09
09
0c
1b
fe
00
01
fe
07
19
1a
ff
db
18
09
f9
01
26
1b
18
1b
1e
11
07
01
1d
40
17
1b
0e
35
06
ff
fe
00
fc
0d
58
0e
23
f0
11
0a
eb
f2
24
e7
4e
e9
01
1b
29
f3
f9
f4
f7
02
12
fa
ee
08
51
0c
f2
df
f2
01
ff
dc
2e
25
1f
29
27
27
0d
fd
fd
02
00
10
16
15
fc
fb
04
02
f5
01
1d
19
2e
e8
17
0b
00
0c
18
f2
1f
18
fc
14
09
e6
1c
ff
06
04
fd
1e
09
f5
14
fb
1a
f1
18
fb
0d
e7
20
22
2f
00
0d
02
19
f5
11
1c
17
1a
1e
0f
17
e7
fe
0b
f1
13
13
df
04
e5
0d
fc
1e
00
04
08
04
f3
00
06
04
2e
12
0f
0f
fe
01
00
fb
02
23
18
13
e1
13
26
fa
01
fd
1e
fd
ff
00
00
03
fa
03
00
0f
f3
1f
21
39
fd
05
02
13
08
05
08
08
05
2b
40
2b
12
50
25
33
fd
0c
00
04
ff
02
ff
fe
fa
1c
1e
35
ff
02
00
02
fe
ff
fc
00
01
fe
fd
03
01
01
00
02
fd
fe
01
00
fe
fe
fd
fe
fe
ff
fd
ff
02
fe
02
02
fc
00
fd
fe
fd
ff
fe
fd
00
01
00
ff
00
00
ff
fe
00
01
00
fe
fe
ff
fd
ff
02
fe
fe
ff
00
ff
01
fd
02
01
01
fe
ff
fe
00
00
01
ff
fd
01
01
ff
ff
00
01
01
01
01
02
ff
00
ff
fe
fe
ff
00
02
fe
00
02
fe
01
fd
fd
01
02
00
01
02
fd
ff
ff
fe
fe
00
fe
fe
02
ff
ff
02
ff
02
ff
ff
02
01
fe
fe
ff
ff
00
00
fe
fe
fe
00
fe
01
02
01
fd
00
00
01
fd
00
fe
ff
fd
fd
fe
01
fd
ff
ff
00
00
fd
fe
ff
ff
ff
ff
00
fe
00
00
02
fd
00
01
00
00
02
ff
fd
ff
fe
00
fd
00
ff
fd
00
00
00
fe
00
ff
01
ff
01
fd
ff
fe
fe
00
ff
ff
ff
ff
fd
ff
01
ff
fe
00
00
02
fd
00
00
00
fc
fe
ff
fd
01
fe
fe
00
fd
fd
00
01
ff
03
01
fe
01
ff
ff
ff
ff
fe
ff
fb
01
01
00
01
01
ff
ff
fe
01
ff
fe
ff
fe
00
fe
ff
ff
00
01
00
02
01
ff
fe
ff
ff
fe
fe
ff
ff
fe
01
fe
fd
fd
00
fd
ff
00
fe
00
ff
00
ff
fe
00
fc
01
fe
00
ff
ff
fd
01
01
00
ff
ff
fe
02
00
00
ff
fe
fd
01
fe
fd
fe
01
fe
ff
ff
ff
ff
fe
00
ff
00
fe
fe
ff
fe
ff
01
00
fe
01
fe
00
fd
ff
00
00
02
fe
ff
00
fd
fe
00
ff
ff
fe
ff
fd
00
00
fe
02
ff
00
fe
ff
ff
01
fd
02
00
fe
00
00
fc
ff
fe
ff
00
01
fc
ff
02
01
ff
02
fe
fe
00
00
fe
01
00
fd
00
fe
ff
01
ff
01
ff
fe
00
ff
ff
ff
00
ff
00
ff
fe
00
fd
fe
ff
ff
00
01
fe
02
ff
02
00
00
00
00
00
00
fc
01
02
fe
fc
fe
00
01
00
00
01
02
ff
fe
00
01
00
00
01
00
fd
ff
ff
02
ff
fe
ff
00
ff
ff
ff
01
00
ff
00
ff
fe
01
ff
00
fe
ff
fe
fe
00
00
fd
01
fe
01
ff
ff
fd
fe
00
ff
01
fe
fe
fc
02
ff
fe
02
02
00
00
fe
02
ff
ff
fd
ff
00
fe
fe
fd
fe
00
00
00
02
fe
01
ff
01
ff
ff
00
fe
ff
00
02
fe
00
02
01
01
fc
fe
ff
fe
fa
f9
24
0c
0b
1b
32
2b
f1
2f
f2
14
2a
30
05
05
0e
13
1c
1c
32
fa
e8
15
fd
48
02
21
04
05
06
0a
14
39
27
26
fc
f2
12
ef
11
5f
22
43
14
dc
e0
0b
ec
0e
00
2d
f7
2f
0d
14
06
42
28
23
fe
00
f9
08
0b
08
02
08
ff
07
05
0b
ea
f6
02
0b
09
fe
12
0a
07
02
04
03
0e
08
08
04
f7
3c
fc
06
08
fc
01
ff
f6
f8
f7
11
1a
16
0d
0d
02
f6
f1
ee
de
fc
0f
f6
04
03
01
ff
04
2d
36
1c
13
f3
ef
00
12
38
25
17
12
18
27
12
0c
01
fc
1a
fc
fc
05
02
00
00
ff
01
ff
e6
e9
14
fd
56
24
26
0b
f6
1b
0f
1c
5e
1b
24
05
1c
1d
08
14
23
2b
0a
02
00
ff
01
2f
09
dc
11
1f
28
fd
1a
03
0b
35
28
14
30
02
25
ea
08
14
e3
16
14
24
31
ff
28
14
05
f1
f7
06
12
f7
3b
0e
0b
2a
f8
0c
0e
01
04
03
02
0b
33
31
0d
dd
33
2e
0a
04
fd
10
00
06
10
fe
14
04
fb
05
00
03
06
06
06
0d
48
01
21
ff
03
02
01
0a
e2
fc
f5
ff
01
00
07
ef
01
06
12
14
ed
0f
1c
04
07
13
02
f0
1c
28
2c
0a
f4
1e
14
1e
35
3c
2a
16
44
30
1c
06
29
22
0d
0e
2b
2f
30
20
14
f5
0f
f0
1c
1c
29
01
00
02
ff
0a
21
28
14
f0
20
08
07
0b
2f
1c
21
1f
41
1e
02
00
21
2e
21
20
0e
3b
fe
08
03
01
04
0c
5a
00
11
fa
0c
07
f5
0e
2a
f6
16
fb
f5
0a
42
fb
eb
fb
fc
f7
12
e9
ea
04
48
22
11
e2
f2
07
07
de
37
36
19
2f
16
3e
1e
fb
ff
04
04
0f
22
0b
0e
0a
f8
fa
04
f7
2c
0f
2c
e5
11
08
ff
20
15
f6
2c
20
01
24
1b
fa
1c
f7
16
f0
f8
2e
fd
04
23
03
05
01
01
04
16
ea
31
21
1b
e0
27
00
27
f3
06
03
16
10
12
1c
15
e1
f6
18
ed
08
05
dd
02
f3
1f
17
2a
08
04
08
06
0e
f6
0b
18
28
1e
1b
1a
00
01
01
01
01
2c
1b
1a
e7
09
26
f5
04
fd
13
fd
05
01
01
02
02
0c
00
ff
fe
1e
08
33
ff
19
fd
0a
0d
08
0b
0a
05
2e
41
31
11
6a
32
2c
0f
24
0e
0a
02
02
00
fe
f0
12
1c
26
fd
01
fe
00
02
01
01
00
fe
fc
00
01
ff
01
fd
fe
fe
ff
fe
fd
fd
01
00
00
00
ff
fe
01
01
ff
fe
fe
fe
fe
fe
fe
fe
ff
ff
fd
ff
fe
00
02
00
fc
fe
ff
fe
fe
fe
01
01
ff
ff
fd
fe
00
ff
00
fc
00
00
fe
fe
01
00
fe
02
02
fe
02
fe
ff
fb
fc
fd
fe
ff
02
ff
00
02
02
01
01
fe
02
fe
00
ff
ff
01
fe
ff
01
fe
fe
02
ff
00
00
02
02
ff
ff
fe
fe
ff
fd
00
ff
fe
ff
01
01
fe
fe
fe
01
fe
ff
00
00
00
00
fd
00
00
ff
ff
fe
00
01
00
fe
ff
ff
fc
00
ff
fe
fe
01
00
00
01
00
fe
fe
fd
ff
01
fd
fb
00
01
00
fd
01
00
fe
00
fe
ff
fe
01
fe
02
ff
01
02
00
ff
00
ff
ff
01
fe
00
ff
fd
ff
00
fd
00
fe
01
fe
ff
fe
00
fe
fe
fc
ff
ff
fe
fd
fd
02
fe
fe
fd
01
ff
00
ff
ff
fe
01
fc
01
02
ff
fe
02
fd
01
ff
01
00
fe
ff
01
fe
ff
ff
02
fe
fe
ff
fd
fe
00
01
00
01
fe
ff
fe
fe
fd
ff
01
00
02
00
fc
fd
00
fd
01
01
ff
ff
ff
00
01
fd
ff
fd
ff
01
00
fe
00
ff
00
ff
00
00
fd
ff
fd
00
fe
00
00
fe
fc
ff
01
01
02
fc
00
fe
00
fd
ff
00
01
02
ff
ff
00
fe
fe
00
fe
ff
00
01
00
ff
fe
fe
ff
fe
00
fe
fe
01
ff
fe
ff
00
ff
02
01
ff
fd
01
ff
00
fe
ff
ff
fe
fd
fd
ff
fe
ff
01
00
ff
fe
ff
00
fe
01
fe
fd
fe
00
fe
fd
fc
fc
fb
01
fd
fc
fd
00
00
fe
fe
ff
fe
fe
ff
01
00
01
00
01
00
ff
00
ff
fe
ff
fe
01
00
fd
fe
00
fd
fd
01
ff
ff
fe
00
ff
ff
02
ff
02
ff
00
ff
ff
fe
00
00
00
fd
ff
fd
fe
ff
00
fe
fd
00
01
00
ff
ff
fd
fc
00
00
01
ff
00
02
fc
00
02
ff
00
fd
fe
fe
00
fd
fc
00
fd
ff
fe
fc
00
fe
ff
02
ff
fe
00
02
ff
fe
00
01
00
fd
fe
ff
ff
fe
fd
fe
fe
00
00
fd
02
fe
fe
00
00
00
fe
ff
fd
ff
00
fe
01
01
ff
fe
02
00
01
fe
ff
01
ff
ff
01
ff
01
01
00
02
ff
ff
00
00
01
01
ff
00
01
01
fe
02
ff
02
00
02
fe
fe
ff
01
12
f4
1f
1c
12
1d
0b
13
13
f1
eb
0e
1e
28
12
f4
0f
f8
1f
1d
24
03
14
18
f6
24
07
f9
05
09
07
06
02
12
14
12
ff
f5
0c
06
28
2f
0d
3e
1e
e5
02
08
0b
09
ec
ff
00
0a
05
00
05
f1
ff
12
f4
06
f8
04
05
07
04
09
0d
0c
12
11
13
f7
07
21
07
08
10
05
ff
00
fe
fe
05
04
06
08
ff
0e
01
05
00
01
00
00
14
e7
09
ff
06
0d
08
07
11
03
16
f8
f3
01
08
f9
01
03
02
04
ff
f4
22
18
30
25
12
0a
10
1c
3f
26
10
fb
0f
25
0c
eb
03
11
fb
0e
04
0a
fd
05
00
05
30
f1
29
03
fd
1c
0a
1e
00
02
17
0e
2f
17
2f
18
0b
02
19
11
1e
0b
ff
18
00
01
01
fe
0b
14
fd
2f
24
17
1d
20
2b
26
2c
3f
15
1e
fb
12
00
08
05
f4
32
38
0d
0f
10
33
09
10
08
e7
09
f1
f8
15
d4
0d
23
e5
0f
29
fd
02
fe
01
0d
36
11
19
0f
01
10
26
0a
00
0c
01
16
0c
17
09
01
0c
ff
0c
ff
08
07
fe
0d
24
16
24
02
02
02
02
08
02
fa
f3
01
02
01
03
0d
ed
10
0a
16
08
12
1a
0c
f7
f2
ff
0f
fe
32
17
03
ef
1f
06
0f
37
21
1c
14
0e
0c
23
f9
0e
f5
10
23
04
04
ff
48
59
1b
18
0f
f8
ec
08
fe
03
ff
03
1d
1a
18
17
fe
e7
0e
f3
03
04
09
00
3a
13
14
0b
ff
26
0e
1b
14
24
34
1e
fd
ff
00
07
18
47
10
18
0a
02
e5
04
44
4c
0b
1b
06
06
1c
19
04
e4
f4
f3
fa
08
e7
0b
ff
2d
23
26
03
fe
0a
fb
f2
3c
43
14
2d
0f
22
1d
ff
01
01
00
00
f5
28
22
13
0b
fe
fb
1c
49
01
30
07
dd
fd
05
3f
09
ff
13
0e
11
09
02
16
ec
05
15
ff
dc
15
fe
29
2b
ff
0c
22
ef
24
29
fa
2e
e9
1b
13
e6
e4
0a
02
f1
17
03
0c
1b
d4
0d
f1
01
19
fb
0c
1c
fb
17
21
ff
f7
f9
0b
00
09
07
0d
f4
0d
fa
01
28
ff
26
fb
00
00
04
13
15
16
08
06
fb
f5
f7
14
0d
0b
0f
03
02
ff
01
09
03
03
06
18
11
09
22
09
05
02
fd
03
02
05
04
2c
12
17
27
17
3a
17
2c
07
07
11
13
ff
00
02
ff
08
f4
02
14
0e
0b
0e
f8
1a
f4
0a
ef
0d
12
fd
0b
39
01
f6
09
f7
17
0a
08
12
23
02
1a
0e
ff
05
16
ff
02
fe
04
08
ea
0e
ed
10
0c
0b
e4
0a
07
19
0f
0e
0e
fc
0c
15
08
0c
18
01
f3
01
03
26
03
12
01
fc
01
f6
0d
05
04
04
06
02
00
04
fe
07
fe
08
07
fe
06
00
0c
fd
01
fc
fb
07
01
0a
08
fe
f3
f9
03
03
05
ff
ff
07
07
fa
05
0f
fe
03
04
14
15
f4
04
11
0c
12
08
ff
ff
01
01
1c
2d
52
f1
09
f4
1c
17
1a
02
0d
19
f7
fe
0a
03
05
f8
f3
0d
08
05
00
03
fe
02
fe
06
17
27
08
1a
fa
f8
12
e4
16
03
14
f2
01
01
f8
06
23
00
22
fb
1a
fb
f6
07
ff
ff
02
02
10
f7
12
10
07
f7
e5
ec
f9
2b
03
fe
0c
14
e2
08
08
ee
fd
e7
0f
32
2c
24
11
08
06
ef
fd
f8
04
04
02
ef
1a
1e
12
e8
14
e0
02
02
fd
02
05
0a
f4
f3
1b
0c
03
0c
03
02
03
03
1e
0e
0c
12
f8
fe
01
04
05
05
07
04
01
14
ff
0f
00
ff
00
03
02
0d
06
07
01
02
fe
ff
04
0d
f4
10
0b
09
0f
0d
14
e7
f9
02
1e
fd
02
f1
05
19
0c
17
fc
0c
12
f9
fe
04
e6
f6
fa
ec
08
fa
34
f0
16
f0
19
25
20
15
15
f1
08
16
00
02
fe
02
f4
21
ec
fd
e0
1c
03
07
04
fb
10
03
0f
ff
01
0a
ee
f8
eb
f5
1b
0b
16
1e
06
07
ff
00
07
ff
00
f7
fd
e9
f7
04
1f
06
10
17
0a
15
01
21
f5
02
ed
ec
05
0c
0b
f1
f6
09
08
0d
fb
0d
fe
02
f9
ee
f6
fc
08
10
10
17
04
02
fe
02
07
0f
10
cf
05
ea
ff
ff
0c
0d
01
20
07
fd
f4
f8
29
20
f8
11
08
f9
f9
06
14
10
e1
0a
ff
03
f8
ff
11
05
08
17
07
0d
08
13
f5
fe
1e
18
10
fd
f8
07
05
11
f9
24
f8
0b
18
1b
f6
04
f8
f8
fb
03
07
03
12
db
fb
13
fc
04
02
03
f9
f9
03
f8
0b
07
fd
1a
01
04
00
04
04
0c
00
02
0e
ee
0e
fc
ff
fd
11
0e
fd
fb
fc
ff
01
01
ff
00
1e
0e
10
08
0e
02
01
01
0b
05
07
06
20
f9
f3
e1
01
f7
06
07
0a
06
08
03
00
00
00
ff
20
f9
f5
00
0a
07
35
f0
e9
2c
fb
16
0b
1a
eb
12
1f
47
05
05
f7
0e
24
04
01
f3
03
1e
fc
25
0b
e2
02
03
03
07
0f
32
11
03
e7
02
13
f8
12
3e
12
22
08
d1
03
13
f6
10
0e
0c
fb
15
1f
0f
03
13
09
15
ea
f4
f4
0d
01
08
01
08
13
0f
19
0f
f9
fa
01
fb
08
06
0d
10
02
01
02
07
06
05
03
01
03
22
02
ff
ff
00
02
04
02
f5
fe
f9
1b
02
05
0a
0b
00
02
e2
eb
01
0b
ea
02
05
07
03
ff
02
0a
33
10
0e
01
02
20
18
24
02
0f
e3
1d
27
01
00
0e
fa
fb
00
06
fe
fc
01
03
02
04
dd
1a
19
03
43
26
12
f5
18
34
21
2e
34
20
16
ed
19
00
02
0b
10
1c
16
fe
02
02
ff
10
12
f6
ff
11
24
0e
06
0e
12
20
09
00
1f
0b
0f
e4
0b
16
ec
16
2c
0c
17
fa
34
02
1f
f9
07
fd
03
12
3d
ee
f0
0e
08
fc
10
02
02
02
02
01
34
0a
17
f9
10
28
0b
06
ff
01
02
f0
08
19
13
fa
fc
0a
03
06
05
08
06
08
26
f0
1b
00
04
03
02
13
ec
ee
fd
00
04
ff
04
f8
05
10
f7
20
fe
1c
fe
f1
fe
0d
f5
e4
0e
0c
05
f5
e7
09
0a
31
25
2d
2d
0a
3e
17
0b
1d
1b
1c
08
fa
1c
f6
29
31
25
08
21
ed
0d
17
01
fd
04
ff
ff
1e
23
1b
17
05
1c
19
e6
e5
02
33
00
00
18
fd
06
fd
2b
22
02
f6
05
21
15
f8
04
fb
06
06
59
ed
11
f2
0c
04
05
14
35
dd
17
00
fc
18
f3
fa
01
03
fd
f0
16
f0
01
f7
2b
0d
09
f0
f9
0f
ea
e7
29
62
27
1a
1b
16
1d
00
00
fe
02
fc
15
ef
14
10
0d
0e
fb
00
2e
ff
07
e4
0d
fd
04
30
2f
ec
1c
1a
02
24
16
09
e9
f4
07
fc
fb
08
04
03
14
de
14
0c
ff
ea
05
f6
25
fc
08
ea
28
f8
0b
fb
00
ff
09
14
02
f8
1b
ed
fc
13
e9
f9
0b
e8
03
fb
1c
10
08
0c
02
07
07
18
23
19
ee
ea
29
13
08
fe
03
05
02
03
1c
01
23
ec
17
0f
f6
fd
07
13
10
00
03
fd
03
fa
01
07
08
ef
19
01
13
08
15
02
fc
04
09
08
07
0f
1b
3f
3c
ff
50
2a
fd
16
11
09
12
01
03
05
02
ed
16
15
19
ef
04
fa
e9
db
d4
f6
e2
fb
f9
01
f7
fe
db
da
d6
ef
04
06
f5
02
f8
f9
db
01
1a
fc
10
ff
01
00
02
f3
e7
f5
eb
13
0b
06
e9
e0
df
09
01
f8
f5
f9
f1
20
f2
00
1b
05
ea
f5
01
0c
d3
ed
0b
0a
03
f2
e7
02
01
fe
01
f9
f7
f9
f5
02
14
06
0e
f8
fa
fe
fd
01
fe
01
fe
02
ff
fd
00
ff
12
0f
fe
fe
ff
ff
ff
fc
03
e5
0e
03
06
03
ff
0b
12
ea
fd
03
fa
05
0a
03
01
04
01
db
05
dc
b8
0c
11
e3
10
03
f3
ef
de
fe
f4
e3
d8
f6
f8
fd
e3
fb
fc
fb
fb
fb
fc
fc
fd
ff
0d
c9
fc
fb
e2
ef
d2
ee
ef
e2
c8
eb
f2
da
f9
03
f7
ff
f8
0e
e4
f3
04
00
fe
02
01
13
d4
0a
03
f6
09
fc
08
e6
0e
02
e3
06
f0
0f
00
0f
ef
01
f5
fd
ef
f2
04
ed
fc
f8
ed
07
ea
01
03
09
c7
e9
23
ed
0a
fd
ea
ff
fe
fb
fe
ef
f0
fa
e6
14
f8
ea
fb
02
02
fa
01
00
e6
f9
17
f6
f5
f5
fb
00
fd
01
fd
f5
ff
f2
ef
03
04
04
01
ed
0e
fc
02
ff
00
fb
ff
f6
0e
ff
13
0e
e5
f7
17
f3
03
04
f0
09
e2
08
f8
e6
07
fd
d6
f4
eb
ea
ea
ed
fe
04
fe
fb
e7
ff
01
12
cd
06
df
ed
eb
f3
eb
fa
cc
0b
01
ff
01
fd
01
f6
03
07
de
e2
1d
03
02
fd
df
03
09
fb
00
0e
dc
01
f2
ea
09
16
14
ef
dd
f8
ff
fa
fe
f3
07
04
e3
f2
f5
f3
f7
e7
df
e2
e1
f8
01
de
07
f1
0e
06
ec
19
00
09
14
f8
f0
f5
e5
fc
0f
ff
0a
f8
c9
c9
c6
e8
fd
f6
ef
ff
00
02
00
e5
eb
e0
b5
00
01
f3
f9
f5
f8
dc
07
f7
0c
f7
04
03
f6
fb
ef
fd
ef
e9
f5
07
16
f7
0a
fd
12
fa
fd
0c
ff
ff
dd
e3
1e
0d
0c
09
bc
f9
27
ff
09
0b
dc
fd
0c
f5
07
f7
e3
15
ff
11
ff
03
05
fe
f3
13
06
f6
de
17
10
fe
ff
fd
fc
fb
04
fe
05
02
d2
11
cc
fe
fd
fe
fd
03
09
0e
02
f6
f2
03
f5
11
06
ff
ee
05
01
01
03
08
fb
08
06
15
dc
02
f5
09
f4
fc
fb
06
02
07
07
0e
f7
01
e1
ee
f0
e7
0e
fb
fd
fe
fb
02
01
01
fe
03
fa
fc
ff
01
00
01
fe
02
01
00
02
01
00
ff
00
00
00
00
02
00
fe
00
ff
00
02
01
00
02
01
ff
ff
ff
fe
00
01
01
ff
01
ff
fe
02
00
00
00
ff
00
fe
01
ff
fe
fe
02
ff
fe
ff
01
fe
fd
fe
ff
00
ff
02
fe
fe
fe
ff
00
fd
ff
02
00
01
00
ff
fe
fd
00
fe
fe
00
ff
00
00
fe
fe
fe
ff
01
ff
00
ff
fd
00
ff
00
fe
ff
00
00
01
fe
01
ff
00
00
ff
fe
ff
ff
01
ff
00
ff
ff
00
01
fe
00
fe
00
01
ff
fd
01
fc
01
00
fe
00
fe
ff
ff
00
00
ff
fe
01
00
01
00
00
00
fe
ff
00
00
01
fe
ff
01
01
ff
01
fe
02
ff
00
ff
ff
00
01
ff
fe
02
fd
fd
fe
02
01
00
02
01
01
01
ff
ff
00
01
01
01
00
fe
ff
01
fe
01
00
ff
00
01
ff
01
fe
00
ff
fd
ff
01
01
fe
fd
fe
ff
ff
00
fe
ff
02
01
00
fe
fd
fd
ff
01
01
fe
00
ff
00
ff
00
fe
00
01
ff
fe
00
fe
fe
02
01
01
ff
01
ff
ff
01
01
fe
01
02
00
fe
fe
01
01
01
fe
00
00
ff
fd
ff
fd
fe
fe
02
00
00
fe
00
01
fe
ff
fc
01
fe
fd
ff
00
01
ff
ff
fe
ff
fe
01
fe
00
00
fe
02
01
00
00
02
00
fd
fd
fe
00
ff
01
fe
02
00
fe
ff
00
ff
fe
01
fe
00
00
fe
00
02
01
00
01
ff
00
01
00
02
00
00
fd
ff
00
00
fd
fe
00
00
ff
01
ff
fe
ff
01
01
fd
02
01
fe
ff
fc
ff
ff
fe
ff
00
01
ff
ff
fe
fe
fc
fe
01
01
00
02
ff
ff
01
ff
01
fe
ff
fe
00
fd
fe
01
ff
01
00
fe
00
00
fe
fe
01
ff
fe
00
02
ff
fd
01
ff
ff
01
01
ff
01
01
fe
ff
02
01
fe
ff
fe
fd
00
01
fe
ff
ff
fe
01
01
fe
01
fe
00
01
fe
fe
02
02
fe
01
01
fe
fe
ff
02
01
ff
ff
fd
00
fe
ff
00
fe
00
00
ff
01
00
01
00
ff
01
02
02
02
00
01
02
01
00
01
fe
fe
fe
ff
00
fe
00
fd
00
00
ff
01
00
fe
fd
ff
fd
ff
ff
ff
01
00
00
fe
00
fe
fe
01
01
00
fe
ff
ff
fd
fe
fd
ff
01
fe
fe
01
fe
ff
00
01
ff
fe
fe
00
ff
01
01
01
02
00
01
fe
00
01
00
ff
fe
fe
fe
0d
1e
06
13
f7
0b
06
04
0e
1f
fa
fc
20
fc
fe
fe
0b
f7
0e
05
0e
e3
f3
f8
0f
f3
06
00
01
01
fd
fc
05
0f
0b
00
fc
f8
e6
17
0c
33
09
f3
fb
e2
eb
fb
01
39
11
15
17
3c
23
15
07
f7
03
fa
0a
e2
fe
00
fc
fb
fe
fb
0c
0c
0e
11
f1
27
05
f7
fb
02
00
fe
05
02
02
05
00
0a
01
03
04
f8
fc
09
03
fe
ff
00
fb
f1
0a
f5
11
0b
03
03
0c
ff
0b
f7
f5
09
ff
fa
03
00
00
ff
20
09
08
0c
00
15
00
05
03
1c
1f
fa
10
e2
09
e4
fa
f7
f4
19
ff
f2
03
f2
00
f9
00
f7
0e
dc
0f
0b
08
49
11
03
03
1a
c8
17
16
21
2f
03
e8
0a
f2
0d
10
22
2e
fb
fe
fe
01
fe
05
0f
fa
f9
fc
d3
11
0b
2c
e7
12
0e
ea
13
18
01
e7
0b
f3
11
1f
f1
02
e8
00
0f
f6
15
fb
13
01
12
04
0c
ee
1a
03
1c
f4
07
ff
f9
01
f9
10
04
08
06
02
27
0e
11
03
fe
fc
ff
0b
15
1b
13
00
f7
02
f3
ff
ff
fc
fe
17
00
ff
07
ff
03
01
ff
0f
fa
e9
02
01
fa
02
fb
03
f5
0b
fc
0a
fc
15
f5
fb
fb
01
02
f7
f7
00
f7
09
06
06
16
0f
1c
27
1e
e8
f2
04
07
15
10
22
10
03
04
ed
07
13
fa
0b
fa
00
2e
03
1d
ff
fe
02
fe
f0
09
0c
0b
0e
02
15
0b
10
23
1f
24
09
fa
12
fe
1c
f9
23
08
e1
db
0f
db
fd
f1
00
f6
0e
26
ff
0d
f1
17
e8
fe
fd
e7
f5
14
15
09
1c
02
03
fc
e5
0c
ed
09
f4
07
1a
2a
19
f6
f1
f5
10
f9
07
11
07
14
32
11
17
1d
00
02
01
ff
fc
14
ec
02
ce
09
0e
e4
fb
0e
15
05
fe
21
01
f8
20
12
f7
0f
07
ff
15
03
f9
04
21
fe
00
09
0a
09
f3
fd
f6
f2
f1
12
19
f7
07
14
11
1f
0e
0b
0e
fb
06
fe
1a
f5
15
08
e2
fe
ee
05
19
03
08
08
ea
15
f5
3d
0e
0c
00
04
02
04
0f
19
2c
0a
05
ee
f5
11
01
f9
03
f4
f4
0e
11
f9
e8
11
f4
f3
fa
f8
08
eb
01
fe
00
01
fd
fd
03
00
03
06
f2
fc
05
f6
05
fd
05
06
0f
0c
e9
1f
05
1b
20
0c
33
13
1b
14
06
f9
01
00
01
00
07
08
14
fe
fa
fc
f5
ea
d2
c8
00
eb
f3
05
0f
e1
1a
d6
0d
ec
f6
f5
0e
05
1d
e8
f9
dd
ce
16
03
01
03
02
03
00
f5
f6
ec
f7
0f
0a
f5
02
e0
b7
db
ce
f9
fb
fc
ee
ff
f1
02
e8
fc
f4
ef
fc
07
0e
0c
06
13
fd
fa
d5
01
f8
fc
fd
fa
f7
f5
fb
e9
13
f2
0b
05
f8
00
f4
ff
fe
fd
01
05
03
04
04
cc
0f
09
ef
07
03
fe
00
05
ee
00
0d
05
09
fe
09
07
03
f6
06
08
ee
02
0f
01
ff
ff
02
29
19
24
18
f6
1e
dd
f9
07
d5
e5
ee
fb
d1
eb
c6
da
05
0d
ec
00
f9
07
f4
01
fb
02
fc
1e
09
0a
e7
04
e1
ed
f6
00
e8
e2
d7
f9
e2
f3
e3
01
e9
f5
06
e4
f6
e8
e8
01
01
00
01
fa
02
ff
f3
c1
e7
12
ef
e8
03
ff
f2
f2
ea
f6
e9
f5
f6
e6
fb
ee
fc
09
f8
f1
e6
ed
e5
1a
d8
08
01
f2
e2
05
e3
e6
fb
02
0c
05
fe
03
ff
dd
ed
dd
f7
fd
0a
f3
d0
01
05
07
03
f9
e1
ef
d5
00
fb
00
fa
02
04
ff
ff
ff
c2
0c
ed
03
02
00
00
ef
0b
0b
10
04
01
03
00
0c
ee
15
19
02
fd
ea
18
bc
fc
df
00
03
fa
f9
00
de
fa
ed
e8
f7
f8
fc
ea
d3
eb
09
e4
fb
ee
f6
f7
22
ec
11
ec
da
ea
e6
e9
f6
fc
fc
e6
02
fe
01
ff
e5
f3
ec
0a
f7
e5
06
0d
0a
f2
00
f6
e3
d9
f6
e7
fd
f4
e7
f3
12
04
f2
f2
06
f9
02
fc
01
ce
16
d5
fe
f5
e1
08
f4
b2
e8
e2
0d
dd
06
0e
04
f5
f6
02
02
0b
fc
09
06
d3
fb
f0
0c
f6
ff
0e
1a
fb
c4
00
e5
f8
fb
03
00
ff
00
02
fe
f1
0b
cd
ee
0e
ee
f1
0a
fa
f4
fe
eb
f7
0f
f0
0a
d4
0a
f0
f3
ec
f1
f0
02
0d
e9
f8
07
0b
07
12
e7
db
11
f2
f8
18
d2
1a
0e
ee
05
fb
f2
07
06
f0
0b
fa
0b
01
ed
08
f4
fa
14
ef
f7
0f
f4
fe
fd
0b
ef
f5
fa
e9
f9
02
02
fb
05
e8
f7
0c
ee
e2
07
ce
03
fc
05
fd
09
ee
08
18
02
e7
05
03
12
f2
fc
fc
fe
02
03
03
00
fb
06
06
2a
f4
13
ff
0e
ee
fa
fb
fe
fb
fb
fc
dd
06
f0
cc
d4
cd
9b
cd
fe
f4
fd
eb
02
fe
01
02
10
f3
00
14
15
11
ff
18
03
1e
f9
2c
08
33
02
02
11
3b
20
13
0f
f4
10
15
04
d4
fc
15
03
0a
11
f5
fb
ff
02
ff
18
0f
ff
19
03
fc
e5
02
1e
17
0c
0e
f0
ea
0f
0d
04
10
fd
12
19
19
24
05
09
01
0c
fc
02
e0
02
14
01
ff
00
ff
0d
09
06
02
00
1b
fe
05
fe
03
08
fc
ff
06
ff
00
03
0d
03
0f
fe
fd
09
fa
01
01
fd
ff
00
06
12
f6
09
15
09
06
07
f9
1f
10
e4
05
fc
f6
01
02
05
00
0a
02
00
06
07
1c
08
02
0f
f5
1e
fa
10
ee
22
f6
03
06
ed
1e
03
f8
05
ef
03
fa
05
f6
07
f1
2c
01
19
35
13
15
12
1f
f3
10
1d
2b
2a
14
09
28
fb
05
12
2f
20
15
03
02
00
00
04
18
f2
03
0f
d1
0b
f9
14
ec
04
23
05
f8
ff
0b
f3
04
ff
13
2f
01
1f
fb
08
12
03
15
01
18
03
19
12
1e
ef
28
02
20
0d
1e
01
fc
04
fa
12
f0
08
09
f9
1a
13
11
00
01
09
02
10
1a
ff
05
04
f9
0b
f5
00
01
02
00
06
14
06
fe
ff
fd
00
fd
02
f8
da
06
04
ff
03
fc
08
01
0f
00
05
07
06
0d
e1
03
02
02
fc
20
14
01
ff
f9
1f
1b
23
14
14
1b
f6
f1
fb
f7
07
0d
12
16
fd
13
0d
31
13
fe
19
fa
05
16
f8
1b
03
01
03
fd
dc
0c
13
1c
1b
e2
0d
03
08
1d
0f
23
24
eb
ff
28
16
14
14
04
17
e2
0e
e2
02
fe
04
f6
19
25
fe
19
ef
16
f0
00
02
22
23
06
0a
f9
0b
f4
ff
f3
ed
06
04
0c
ec
eb
1c
1a
1c
f8
f0
f3
00
f7
fd
3f
1f
31
18
0e
f9
14
fc
fe
01
00
15
17
18
0b
f4
fa
0d
ed
fc
13
01
10
01
1d
05
05
2a
1a
09
1f
1c
00
2d
04
ff
0e
0e
09
0f
fc
ee
08
f8
0c
09
f7
0a
17
0d
0c
12
26
0d
05
08
1c
09
01
0c
09
0f
00
09
05
e6
f9
ee
09
09
06
10
06
e4
f7
12
19
03
0a
08
05
07
05
1c
21
19
15
fb
cb
f7
23
02
fa
05
f7
f1
05
10
12
fb
14
f8
0a
03
00
09
ff
04
05
02
06
09
04
01
fb
f8
10
05
14
0f
fd
08
00
03
01
07
02
ee
24
25
20
09
23
19
09
09
0b
09
07
01
fe
ff
00
03
14
20
0c
fe
01
fd
00
00
fe
ff
ff
00
00
00
ff
01
ff
ff
02
fd
00
fe
02
fe
ff
00
ff
fd
01
01
01
ff
01
02
fe
01
fe
fd
ff
fe
00
fc
ff
02
ff
02
ff
fd
00
02
00
01
01
00
01
01
fe
00
ff
fe
ff
00
00
ff
ff
01
00
00
00
00
01
00
fe
02
01
ff
00
fe
00
fe
01
00
ff
fe
fe
ff
fe
02
02
02
01
fd
00
fd
ff
ff
fe
ff
ff
ff
fc
ff
00
00
02
ff
01
fe
00
fe
ff
fd
fe
ff
ff
ff
00
fe
ff
ff
fe
ff
00
ff
ff
00
01
02
ff
01
fe
fe
ff
00
00
00
ff
fe
00
02
ff
ff
00
01
ff
fe
00
00
01
00
01
fe
00
01
ff
00
fe
00
fc
ff
00
fe
00
00
00
fe
fd
00
01
fe
02
ff
fe
01
fe
ff
02
fd
ff
ff
02
fd
02
ff
ff
01
00
fe
02
fe
00
00
fe
ff
ff
00
ff
01
fe
fd
01
00
01
00
00
00
fe
01
01
00
01
01
fe
ff
02
fe
02
ff
00
fd
fd
fe
02
fe
02
fe
ff
fe
02
00
fe
ff
00
01
00
ff
01
00
ff
fe
00
00
ff
01
ff
01
ff
00
00
01
01
ff
fd
ff
ff
ff
00
00
fe
ff
fd
00
01
fd
fe
00
02
fe
00
fe
fe
ff
ff
fd
01
ff
ff
00
fe
fe
01
00
01
fe
01
fe
00
fe
01
00
02
ff
fe
00
fe
ff
02
fe
02
00
fd
fe
fe
ff
00
fe
00
00
fe
ff
00
01
fe
ff
fe
01
02
00
fd
ff
fe
01
00
fd
ff
00
01
ff
fe
01
00
fe
01
ff
fd
00
fd
fe
00
fd
01
fe
01
fe
fd
fe
ff
00
00
fe
01
fc
fd
00
fe
00
02
fd
01
ff
fe
ff
fd
ff
00
fe
00
01
fe
00
00
fe
00
00
fe
fe
ff
02
fe
ff
02
fe
ff
00
01
00
ff
fc
fd
00
fe
ff
01
fe
00
ff
01
fe
ff
ff
00
ff
fc
01
fe
fc
ff
02
fe
fd
fd
ff
fe
01
01
00
fe
00
fe
01
fe
fe
01
ff
ff
fe
00
ff
fd
fe
fe
fe
02
01
ff
00
01
01
ff
ff
fd
fe
00
00
01
fd
ff
01
fe
00
ff
fe
fe
fd
00
fe
00
ff
ff
fe
ff
fd
ff
ff
00
00
00
ff
01
ff
01
01
01
ff
00
fe
00
fe
ff
01
00
00
ff
00
00
ff
fe
00
01
fe
ff
ff
fe
ff
01
00
00
ff
ff
ff
fe
fd
02
00
00
fe
fd
ff
ff
01
fe
ff
fd
fe
01
16
17
10
16
08
0b
0b
11
05
22
fd
ed
0d
2a
0c
fc
09
fa
0b
0b
f3
d8
fe
04
01
01
0b
f7
f9
02
ff
ff
09
0c
03
14
f6
fb
ea
0b
06
23
07
0d
ea
e6
f7
07
0f
31
08
12
1b
50
17
14
10
1d
0c
01
fe
d9
04
0d
05
00
04
04
06
0b
05
05
f3
1c
fb
07
0d
09
15
0a
03
05
02
04
06
10
0a
09
05
fa
0c
09
01
fd
fb
fe
02
f8
09
00
0c
16
fc
07
06
fd
1c
07
f0
fb
ff
fe
04
03
04
04
35
08
ff
15
f9
08
f1
fc
1b
06
1b
f9
0f
00
0d
e9
f8
03
f0
04
04
02
08
f0
02
fa
03
f7
f9
eb
14
07
14
2e
12
1e
00
1c
e3
14
1e
22
13
0c
fc
1d
fa
ff
12
19
0f
07
fd
ff
01
00
f4
17
d9
00
f6
ce
0e
08
11
ee
02
2a
fd
0b
04
0a
f0
0a
f8
11
29
00
0b
f8
00
12
f4
0f
04
1e
fb
10
1f
1e
fb
16
ff
1c
fc
05
ff
fc
03
fb
1e
fd
fd
1c
06
23
14
f0
02
05
0e
02
1b
13
07
0c
00
0b
02
f2
fd
01
fe
01
07
1b
02
ed
00
00
04
05
03
f9
d0
02
01
ff
02
fd
0f
fb
02
06
20
0f
14
14
eb
00
01
f8
f5
04
0c
07
0c
0a
09
16
15
05
22
27
f0
e2
06
00
16
10
27
14
0b
11
fe
16
02
fd
08
f7
19
10
03
15
ff
ff
03
fd
e8
02
00
09
18
ea
0a
17
16
34
15
0c
f6
e6
ec
1e
1d
10
2c
13
1f
dd
1d
e6
ff
fb
01
f7
1d
21
fc
1b
f9
18
fd
08
01
08
08
f9
0e
f5
14
fe
03
fb
ed
0d
01
0c
e9
ff
26
29
1d
f3
f2
f5
03
fe
0e
44
3c
28
14
15
2d
1f
ff
02
ff
ff
fd
0b
f3
02
ee
f3
09
e4
fb
15
11
08
01
16
05
fc
1a
0e
f9
29
01
0c
07
f4
f2
04
19
f2
0d
01
f7
0e
05
04
f9
f9
ef
10
02
fc
15
1d
ef
1e
0d
f6
0b
f2
0f
fd
05
fc
01
04
e7
ee
f4
0d
12
0b
09
01
e8
10
0c
17
fa
10
02
04
03
04
0e
24
24
10
f8
cf
f5
15
03
f9
05
f4
f1
02
fa
fc
f8
1b
06
06
07
08
0e
f9
03
ff
02
02
00
03
00
00
06
0e
fe
0b
10
fe
05
fb
03
01
fe
00
e2
12
25
37
17
2a
3f
18
0e
02
08
fa
ff
ff
ff
01
06
08
12
10
00
ff
fd
ff
fc
01
fd
ff
ff
01
fc
ff
02
01
00
00
ff
00
fc
fe
fd
fe
fd
fe
ff
00
ff
ff
fd
01
02
ff
ff
fe
ff
ff
ff
fe
ff
ff
02
01
02
fe
00
fe
00
fe
fe
02
ff
01
02
ff
01
fe
01
fe
01
01
ff
01
ff
ff
ff
00
00
ff
fe
ff
00
01
fd
01
00
00
02
01
fe
ff
ff
fe
fe
01
00
02
02
02
fe
fd
fd
ff
01
01
00
00
fd
ff
fd
fd
02
00
ff
00
ff
01
fe
ff
00
01
00
ff
fe
02
ff
01
ff
ff
01
ff
01
02
ff
ff
fe
ff
00
ff
ff
ff
fd
fe
ff
fc
01
fe
01
fe
fd
01
00
fe
00
ff
00
ff
fc
fe
fe
fd
ff
00
01
00
00
ff
01
00
01
fe
ff
fe
fe
01
01
ff
00
ff
fe
00
ff
01
fd
00
fd
ff
00
ff
fe
01
fe
00
fe
fc
ff
fd
ff
fe
00
fd
fd
fe
ff
ff
ff
01
fd
ff
ff
fe
00
00
fe
00
ff
00
ff
00
00
fd
fd
01
ff
ff
fe
01
fe
fd
00
ff
00
ff
fd
00
00
00
02
00
00
00
00
fd
02
ff
00
fd
fe
01
ff
ff
ff
ff
fd
00
01
00
ff
fe
fe
fd
ff
00
02
00
00
fd
01
fd
ff
02
01
ff
fc
00
fd
fe
fe
00
00
fe
fe
ff
00
fe
fe
ff
ff
01
00
fe
00
fe
00
ff
01
00
01
ff
00
fd
fc
fe
ff
02
02
fe
00
fe
fe
fe
02
02
fd
00
00
ff
fc
00
fd
01
ff
01
01
ff
02
fd
01
fe
00
01
00
ff
00
ff
01
fe
fe
02
02
ff
00
fe
ff
ff
ff
fd
ff
00
fd
ff
01
01
fe
fd
fd
01
fe
00
ff
00
fe
ff
ff
ff
ff
00
00
fe
fc
fe
fe
ff
ff
ff
ff
01
fe
00
00
01
00
00
00
ff
00
fd
01
01
01
01
fe
00
fe
00
ff
fe
ff
00
fd
ff
00
01
01
00
fd
fe
ff
ff
fc
00
fd
ff
fe
fd
01
ff
00
fd
fc
ff
01
fd
00
00
fc
00
fe
00
fe
01
ff
ff
fe
ff
ff
fe
fd
fe
01
fe
ff
fd
fd
fd
00
00
01
ff
00
ff
ff
01
ff
fd
ff
00
00
00
fe
00
fe
fd
fe
fd
00
fe
fe
ff
ff
00
fe
fd
fe
fe
fe
fd
fd
00
ff
fe
ff
fd
fe
01
00
01
00
02
01
fe
00
00
fe
01
01
fe
00
fc
ff
02
00
00
ff
ff
ff
01
fe
fd
00
fe
ff
01
00
ff
ff
01
01
fe
00
ff
fe
fe
f9
02
35
1e
ed
11
25
18
07
17
f1
0e
30
4b
0a
02
08
08
14
08
fc
df
fd
18
0e
12
00
f8
05
ff
02
ff
ed
1f
1c
17
ea
05
08
02
2e
3e
12
2b
05
cb
f7
07
e6
11
fa
16
f7
32
22
1c
02
1d
12
10
f0
fe
f6
09
04
05
01
04
0e
09
0b
10
03
01
03
02
0b
05
09
09
01
04
01
ff
09
04
0a
09
03
17
00
f8
ff
ff
02
00
01
f1
0e
fb
09
0b
05
04
17
02
11
e6
e1
ff
05
e5
08
06
09
04
08
08
15
22
30
0f
08
16
1b
29
39
1f
02
f0
23
22
02
ec
01
00
f9
fc
00
01
fb
ff
03
02
0f
dc
14
16
ea
44
2a
2d
f1
21
1f
2a
2a
48
2f
2b
04
2a
05
fa
f0
1d
35
1f
ff
01
02
fe
17
10
fe
05
24
35
0e
1f
19
10
13
36
16
22
0f
2a
ed
09
0f
ed
0f
22
32
22
07
2c
13
23
f5
0d
04
05
eb
31
e8
f9
1b
00
15
13
fa
ff
ff
fb
12
31
16
19
f1
1e
1a
1b
02
02
09
02
f3
1b
0a
18
06
f7
07
06
fb
fc
02
fa
04
32
f0
1d
03
04
06
00
17
ef
e0
02
fd
ff
ff
fc
f6
fd
17
ef
fa
eb
16
0b
f7
fb
11
f4
ef
fc
17
12
f1
f1
1b
0b
2d
3d
52
28
08
28
16
0e
04
1a
26
09
f3
fc
fa
1d
48
22
15
25
f1
15
0d
11
fc
fe
00
fb
06
1d
17
17
01
1b
18
dd
ea
00
21
09
19
2a
11
06
03
13
2e
06
f9
05
2a
14
fb
ff
ff
03
18
59
ef
1d
f7
0f
00
ff
23
39
df
27
0b
0e
28
f7
00
06
ff
00
f8
18
f2
f3
1c
2f
14
00
ea
ff
0f
ec
ec
2d
38
3e
2c
37
2d
33
ff
01
ff
fe
ed
0c
07
12
12
09
04
09
0e
1b
fc
0e
f0
04
0c
0d
41
1e
ef
17
18
03
24
1a
06
ef
09
08
01
fb
17
fe
15
1b
e8
13
0b
09
ef
05
f5
14
11
17
f5
0b
f5
0d
05
0b
14
f8
23
00
ff
0e
e3
08
16
ea
0d
1b
d8
00
0a
17
0e
0f
01
fa
04
05
0c
32
1b
fa
eb
24
07
13
f8
ff
04
ff
f2
22
13
f7
02
0d
19
f8
fe
fa
0f
0c
03
02
01
02
0c
0d
00
12
e9
05
ff
27
0a
1a
fd
05
05
08
0a
08
09
21
31
27
0a
27
33
2b
04
08
0d
08
fe
fe
00
00
fb
03
16
fd
08
f4
0b
11
07
1b
20
2e
f3
25
f7
f9
f9
27
17
30
03
17
18
17
07
01
0b
00
d9
ed
fe
f8
fd
04
fd
03
00
13
10
1b
f3
f4
09
ff
14
28
29
1d
0a
12
f0
ff
13
38
10
11
03
2e
0e
16
0c
06
03
06
05
00
03
02
0f
10
0a
0e
0a
07
0e
0e
06
16
12
fd
03
fc
03
f9
00
05
05
01
06
09
04
0a
d7
f5
01
fe
00
02
00
02
06
19
06
02
07
09
07
0d
f8
eb
0e
15
e7
f0
f5
09
08
0a
0b
08
1d
0d
06
0e
04
18
09
0e
ff
fa
24
f4
2a
fb
1b
07
14
21
ed
20
08
01
08
01
02
fc
08
ff
0f
fe
0c
fc
40
17
26
0b
14
1c
1f
13
28
04
12
0e
05
ff
13
10
fa
24
13
13
01
fe
fe
fe
e8
0d
04
0f
fd
13
16
06
10
20
fc
22
09
13
fb
0d
e6
00
f9
10
17
04
1d
08
04
0f
1c
2c
10
15
10
12
05
0b
f3
10
0e
1b
15
00
03
01
04
fc
09
ef
1d
1e
01
4b
02
10
ff
fd
ff
01
0e
32
12
19
0f
fe
01
fe
02
01
fc
ff
21
24
21
19
02
00
ff
03
ff
fb
01
f2
02
01
04
ff
ff
13
09
0a
f8
19
11
0a
fa
03
f0
08
f0
21
08
11
11
0a
0a
03
19
24
17
1e
09
fc
06
03
0b
10
07
0e
fc
16
09
1c
16
18
27
16
0c
44
ff
16
02
fd
02
02
f1
0e
12
1b
0f
ff
ec
14
15
32
0b
1c
0b
fa
0a
0a
00
20
13
05
05
e0
16
ea
08
01
01
01
1d
30
fe
32
f4
02
fc
f5
18
22
2f
15
0e
01
06
fc
0f
f7
ed
f1
f4
ef
00
f8
05
12
22
fe
f4
05
f3
fe
11
3b
31
30
2b
10
09
1d
fd
01
01
fd
10
12
0d
19
fa
06
01
f7
e9
00
11
17
08
2d
03
f9
e6
12
0c
21
1f
fe
09
05
f1
12
0c
f5
f7
06
1d
00
0d
22
0c
0c
fe
f5
3c
f6
fd
20
0a
01
00
1f
06
fa
05
0a
01
00
01
00
e3
2b
f8
08
f9
0f
f3
02
0c
06
03
4a
f9
2b
fd
ff
03
02
2a
13
09
15
2f
fa
ee
06
06
fc
0a
01
f5
20
00
09
f1
16
03
11
03
03
09
fe
00
01
fe
00
fa
02
05
08
fc
1f
0a
1c
fd
ef
fd
00
fe
00
fe
00
f7
12
18
26
f7
0f
19
06
14
10
13
09
00
01
00
01
0f
21
19
11
e2
f1
f6
02
03
15
2c
0d
15
f7
f7
15
24
f7
07
10
12
f7
ff
0e
14
0c
fd
1a
f7
11
06
f2
05
06
06
09
f7
17
18
02
cf
f2
11
fb
08
1c
1e
05
15
f7
07
f7
fd
d5
21
ed
05
f3
20
07
03
17
12
1c
05
10
fb
18
02
01
04
04
fe
02
04
01
e7
f5
f6
f9
03
09
02
08
02
02
01
06
ff
02
02
05
0a
24
f4
f3
fe
fe
02
02
0b
f3
ef
f1
09
fc
0d
07
06
fb
08
f7
f0
0a
09
01
00
00
00
01
fb
0b
01
1f
0d
0d
08
18
1d
2f
fe
0f
f2
13
f2
12
15
f9
10
f9
f9
fd
00
05
05
04
ff
06
09
07
18
05
00
54
24
12
f1
f8
19
0d
10
15
0c
0b
f9
24
11
0b
eb
01
10
ff
fd
02
00
02
0a
0e
0b
07
02
10
10
fe
05
f8
15
15
17
13
10
13
dd
0a
0c
eb
12
fd
10
0e
1c
16
19
05
f4
0b
04
f8
07
28
09
0a
fa
16
f8
09
05
05
ff
04
f9
1c
1c
01
f0
ee
01
eb
f9
fd
00
01
00
e6
0c
19
02
fd
01
05
ff
00
03
02
ff
fc
fe
09
04
05
05
04
07
e6
f6
f2
06
07
fe
0b
fa
f4
ff
ef
11
fa
27
fa
f9
0d
fd
f0
ed
ed
03
08
0e
f8
17
01
12
14
35
17
f7
1c
0f
ef
f8
13
19
00
f4
0c
01
00
00
ee
0c
1b
f6
fe
07
01
03
ff
fc
fe
0e
1f
11
17
03
11
16
ec
e9
07
1e
1a
02
2d
f1
12
05
0c
0e
f4
db
09
01
1b
fd
00
fa
09
06
31
ee
06
f3
08
fe
f4
03
01
fd
22
08
fc
02
e7
fc
0c
04
03
f7
18
00
07
f0
0f
13
17
f5
f3
01
f4
ca
28
61
0b
13
0e
13
11
07
04
0b
06
fd
24
f9
12
0a
0b
01
f2
f2
0f
0e
00
d0
19
ff
fb
2c
11
07
0b
fe
f9
07
0e
06
ec
08
07
ee
00
d7
f6
f7
01
02
03
f8
f7
d0
fa
e2
fb
1d
11
06
f2
f7
0a
08
fa
ff
f8
0a
fa
0d
0a
e4
06
0e
fe
f5
1e
03
03
04
f4
0f
ff
02
fe
03
06
19
05
1e
f5
04
2e
22
1f
04
01
00
06
03
00
20
06
fc
08
03
ff
f0
ff
f9
11
01
01
02
00
ff
0c
00
11
f2
17
0d
11
fe
0b
00
fe
03
01
08
02
f7
23
34
2b
07
1d
00
04
02
16
07
0b
00
ff
00
fe
ee
07
05
07
f2
20
0b
0c
01
e7
0d
ff
fb
ef
10
00
f9
e2
ec
04
fb
fc
f6
06
0e
0c
02
06
11
f4
10
1a
fe
ff
03
fb
04
fb
01
13
06
0c
fc
1a
03
14
0d
19
02
0c
05
f5
17
15
0a
21
09
fc
0a
08
10
f8
fd
0f
16
f4
f7
f7
01
04
02
01
02
ff
05
fc
ff
0d
05
29
04
09
03
08
01
ff
03
06
01
00
01
01
fd
15
16
0a
02
02
02
02
fc
0c
f5
0b
05
04
04
fe
fb
02
fd
03
f3
f2
fb
07
00
ff
03
03
31
03
ea
12
0c
36
0c
0c
08
07
f4
03
0f
01
f1
0b
02
11
e1
09
03
fa
fe
04
01
f9
fa
fe
11
0d
fd
03
0c
d6
e9
11
fc
f0
ef
0d
0f
fe
ed
0d
0f
10
03
17
13
04
fb
ed
00
00
fe
02
fe
f5
06
06
fa
fe
06
f9
05
e9
f7
27
07
00
00
fb
03
01
04
04
0f
13
0d
0c
f5
e8
1f
fd
f8
fe
f5
06
08
1a
0c
19
09
f8
0b
0e
01
fb
f9
00
04
de
06
0a
0d
04
06
12
05
03
01
07
ff
f9
10
2e
04
fa
fa
04
fe
ff
ff
01
fa
00
dd
0b
fd
00
ff
fc
f0
ef
fa
00
02
00
fc
03
07
0a
e4
1c
00
07
10
2d
0d
14
03
f0
05
0e
0a
18
07
0e
f5
ec
04
0c
f0
11
00
16
01
fb
10
df
06
12
fe
06
f3
05
f0
05
fc
fa
22
1e
0c
f3
00
00
fd
02
05
e8
05
08
09
ef
fe
07
f2
06
fb
05
fa
f4
fb
00
13
f3
07
0d
0c
07
f8
ed
02
f7
f7
04
03
0a
f4
12
fd
0c
02
08
fc
ea
f7
09
0b
11
0b
13
01
f8
f6
f5
fb
03
08
21
fd
dc
08
0c
fc
00
00
06
fe
18
e8
12
19
05
fa
01
02
02
01
ff
02
e3
f7
1b
ff
14
0c
fc
18
f8
0c
20
06
0a
0d
fc
fe
ff
08
20
13
f2
fc
0b
04
fc
f9
13
f5
05
fa
18
06
01
e5
05
fb
10
1d
27
00
19
31
1b
0b
0f
21
03
0b
08
e8
0d
10
f2
fd
f0
03
05
00
00
06
f6
2a
15
18
16
14
27
ff
05
fd
06
0a
09
0a
0c
0f
06
f5
fb
00
fc
fb
fb
0a
ff
01
15
f8
fe
07
fd
04
00
fc
fc
06
08
07
07
fc
07
05
02
06
fc
f7
0c
01
03
0d
04
05
03
07
04
12
0a
f2
f3
0c
eb
04
10
04
07
04
06
00
02
00
01
0f
12
f0
17
07
11
1a
fb
11
53
52
34
e6
2a
f9
0d
3a
db
02
19
eb
0b
08
0e
f8
e9
c4
18
0a
27
fe
fa
00
03
fe
fe
04
2c
2b
31
02
00
01
f8
0e
74
2b
31
0c
f6
bc
00
f6
3e
01
1f
f8
2a
33
29
0e
24
ff
24
dd
02
f3
fd
03
06
01
03
0c
0c
0d
12
dc
0d
f8
e5
00
00
04
03
06
06
04
09
07
05
05
fe
f4
1f
03
f6
01
00
fc
03
ea
12
e5
0a
10
0c
0e
0b
f4
f1
fc
06
d7
12
0a
f6
00
04
04
03
3a
2e
28
3f
f6
f1
0c
09
22
39
1a
00
02
39
08
1d
04
08
06
f4
fb
0c
03
ff
ff
09
00
01
f0
ef
d2
1a
14
47
2d
1f
fd
2b
10
21
20
48
1e
2d
06
19
1d
2a
0a
26
1f
2c
01
02
ff
ff
01
02
fd
0e
04
23
09
03
ff
07
12
43
ff
2d
07
24
e5
0d
08
fa
0a
fa
13
1b
14
1b
0f
03
f3
fa
f1
21
08
38
17
14
09
0b
e7
0e
01
03
01
00
06
28
28
28
b8
3f
16
10
06
07
0e
04
ef
24
0c
21
fe
0b
03
ff
09
07
05
0a
fd
3c
01
15
00
01
02
02
0d
e4
07
fa
00
02
ff
04
e5
11
f9
06
f1
fc
23
28
32
14
12
f0
e3
0d
22
18
16
13
21
0a
32
2a
3b
1c
fb
38
2f
19
10
25
1e
15
18
0d
27
26
f0
12
22
15
fb
3f
10
29
01
02
fd
01
10
16
10
1e
fb
24
06
14
0c
36
19
37
06
26
22
01
06
48
35
13
08
12
38
e9
ff
05
03
fd
10
56
00
2b
fd
0b
fa
f0
fc
2a
f1
26
eb
0e
09
11
f9
08
fe
02
f4
0c
fd
f1
18
35
26
06
dd
01
00
09
eb
38
1c
30
2d
1f
1a
14
05
02
04
04
0a
25
f6
1d
1b
10
00
00
ef
20
06
29
c8
2d
03
02
0e
0f
0d
2b
19
1a
1e
1b
d7
1c
0a
fa
f0
fa
16
f8
dd
11
ec
1a
dc
06
f5
f1
d9
1d
25
23
df
36
04
0f
f0
10
0b
1e
0d
f0
07
2c
e5
fe
04
09
07
06
fb
0b
d8
37
03
11
04
04
06
06
08
fb
ff
40
ff
fe
13
23
fd
0a
01
01
fe
1a
16
2e
d3
08
09
f8
fe
08
08
01
05
03
01
03
f3
ff
09
02
f3
21
35
26
f7
0a
05
fb
01
00
02
ff
f8
27
59
39
04
3f
29
36
05
15
0d
0d
00
01
02
01
ec
18
23
05
fe
01
fe
02
fd
ff
01
01
01
01
fc
fe
01
fe
fd
ff
fd
00
fd
fd
fd
fe
00
fe
ff
00
fe
ff
ff
02
ff
01
fe
01
ff
02
01
02
01
01
fe
ff
01
01
00
fc
fd
ff
00
fe
00
ff
ff
01
00
00
00
01
fe
fe
00
fc
fe
fe
02
fe
01
ff
01
fe
ff
02
fd
ff
fc
00
00
fe
01
00
01
fe
02
ff
fe
02
ff
02
fc
ff
02
00
ff
fe
fe
ff
fd
fb
fc
fe
01
01
fe
fe
fc
fd
fc
01
fe
ff
00
01
00
ff
02
01
02
01
01
01
fd
00
fc
02
01
01
fe
fe
01
fd
ff
ff
fc
fe
fd
00
fe
ff
fc
ff
00
01
fe
fe
ff
fe
fc
ff
ff
02
fc
01
fd
ff
ff
01
ff
ff
fe
00
ff
fe
fe
02
ff
fe
fe
fe
01
02
fe
fe
01
fe
00
00
00
01
fd
00
fd
ff
00
00
00
fe
ff
fe
fd
01
fe
00
01
00
fd
00
fd
00
fe
fe
fd
01
fb
ff
01
ff
02
00
00
ff
00
fd
ff
fd
01
fe
ff
fe
ff
00
01
00
00
01
ff
00
fe
ff
ff
ff
00
fe
01
01
fe
00
00
01
ff
ff
01
01
fd
fe
fe
02
fe
02
fe
ff
00
ff
ff
00
fe
fe
ff
fe
fd
fe
01
fe
fe
00
00
ff
01
ff
fc
00
ff
fe
fe
fe
fd
01
00
01
00
ff
fd
01
ff
00
ff
fe
01
00
00
fd
fd
00
ff
fe
00
01
fd
00
00
fe
00
fe
00
01
fe
fe
fd
00
00
01
fd
ff
00
00
fe
00
fe
fd
fe
00
fe
ff
fd
00
ff
01
fc
fc
00
fe
ff
fe
ff
ff
00
00
fd
fe
fd
00
ff
fe
fc
fe
00
00
fc
fe
ff
fc
fe
ff
fe
fe
fd
00
01
fe
fd
00
fe
ff
fb
fe
02
02
ff
ff
ff
01
00
01
00
01
00
00
fd
00
00
01
fe
fc
fe
ff
fc
01
ff
01
00
ff
fc
fe
01
fe
fd
01
00
fd
fe
00
01
ff
fd
01
fe
fe
ff
00
fd
fd
00
01
00
fe
fd
02
fe
01
00
fe
02
ff
00
01
fd
fc
ff
ff
fe
00
ff
00
ff
ff
fe
00
01
00
fd
01
00
fe
fc
ff
01
00
00
fe
fc
fc
fe
01
01
fd
ff
ff
01
01
00
fe
fc
fe
fc
fe
fe
01
fe
00
00
fd
fd
ff
00
00
01
02
ff
01
00
02
fc
00
fe
fe
00
01
fc
00
02
01
00
01
00
01
01
ff
fe
02
00
fe
ff
ff
00
00
00
fe
01
00
ff
fd
ff
fe
1e
14
2e
1d
0b
10
28
27
fa
2b
fb
13
1d
13
08
18
f8
22
00
0f
f8
3f
07
0d
f8
f6
19
07
fd
02
02
02
f1
1a
14
24
ff
0e
07
fc
17
1a
33
30
0b
10
e4
00
e6
2c
00
06
ee
33
15
1a
35
43
25
2f
f3
03
f4
05
04
00
fe
ff
08
07
0c
0b
e6
18
3c
f4
0b
0c
0f
14
02
03
04
00
08
08
05
05
e3
f3
07
ef
02
01
00
01
f5
28
d7
fa
09
04
0c
05
f8
f9
04
13
e3
f8
02
04
05
02
03
03
34
1a
28
41
06
f0
1f
2a
21
30
0d
18
11
1a
19
14
14
0e
ee
1c
03
08
06
01
03
00
05
01
04
16
fe
08
4a
1b
2d
2f
0f
45
17
1d
2a
22
27
3d
0f
1d
2c
f6
02
1f
2a
14
02
00
00
01
08
f4
17
05
f6
05
0c
03
ed
1b
f8
2f
ec
0a
14
09
f5
f9
fe
03
13
f0
0a
1b
f7
16
25
20
06
0b
f1
12
e8
f0
18
0a
f8
08
17
0d
04
02
00
03
f8
02
22
10
ee
59
28
0f
10
0b
0e
0a
fb
38
09
28
05
02
01
06
02
fd
00
02
1d
3f
00
22
00
01
04
00
07
f9
06
ff
02
ff
01
03
eb
1d
ea
06
fb
fa
19
05
0e
01
03
00
fa
14
27
01
ff
14
09
19
20
2e
3b
28
fc
06
16
0b
13
0b
0d
18
02
16
fd
0e
22
0c
1a
21
2c
3e
0e
11
01
fe
00
ff
fc
1c
08
11
fd
f7
fe
0b
15
24
11
1d
f6
10
ff
00
f2
26
0c
0c
f7
05
21
f5
08
05
03
05
15
44
ed
33
fe
f8
f1
e6
41
3d
13
1e
15
21
11
12
0b
f1
f0
f6
e5
05
0a
e5
19
39
1a
0f
e0
0c
fa
f7
01
2c
28
2a
32
1c
17
30
fe
02
04
00
25
34
0b
17
0a
0c
fb
f9
ee
0d
26
26
db
1f
ff
f6
fa
05
05
26
1e
14
1a
19
b9
22
0d
f1
ec
0b
0f
ff
13
19
ef
21
dd
0e
46
ea
e3
0d
1c
07
04
38
0f
1f
f0
22
04
1a
19
ea
0e
19
f5
05
f5
04
04
11
ff
00
fd
44
12
10
0a
02
09
04
1e
17
fc
24
1f
26
f6
12
07
fe
06
04
01
13
18
09
00
02
f8
14
fa
24
0c
03
03
ff
fd
00
f5
04
07
07
00
2f
09
19
fc
fc
07
00
06
06
06
02
fb
03
19
32
f4
13
27
2a
0d
10
05
03
fe
01
00
02
f5
1a
07
0e
08
04
25
0a
08
fb
08
26
07
fc
fc
14
29
19
27
3a
14
02
18
15
29
ee
20
0f
04
25
13
ec
ff
fe
00
fe
fb
04
05
1e
fc
fd
13
0b
05
2c
15
17
1f
d2
0b
fa
fa
0e
02
10
03
1b
37
11
22
ff
25
29
14
00
08
00
03
03
00
06
10
0d
0c
0e
01
0c
14
02
ff
fe
ff
03
01
01
00
fc
08
00
02
02
02
04
06
f2
fd
00
00
ff
10
dc
0f
fd
19
01
05
03
0f
fc
11
f9
f0
ea
09
fd
02
00
02
00
15
f8
03
21
3a
03
0b
1e
24
21
4c
11
07
fa
1e
14
15
fa
11
0c
fb
fd
00
fa
fc
03
01
fd
13
ea
22
11
30
50
08
30
01
17
07
16
10
35
31
19
1f
14
13
3f
ee
23
0f
05
01
02
ff
02
0f
03
f9
0d
25
33
14
12
00
00
0a
49
22
18
1a
18
d2
fa
0b
fa
39
1c
11
2f
03
28
f6
1c
f8
10
f2
0f
0d
0c
f1
0a
05
15
fd
14
fe
06
fe
fe
14
1e
08
02
f5
fc
32
23
0d
05
06
10
1d
f7
08
2f
fc
ff
02
fb
07
08
05
06
24
10
ff
13
ff
04
03
04
0a
d4
01
f2
00
02
01
ff
06
d5
0b
03
1c
02
13
0d
00
f4
16
ec
ff
f9
fd
0d
0d
f1
24
18
23
23
32
1f
0c
17
05
0a
16
0e
16
1a
ef
00
11
4f
2d
0e
0b
1a
fe
0e
21
02
fc
04
02
fe
14
3d
12
18
1c
f5
f8
ee
f2
29
26
35
22
ec
21
06
17
0c
17
0f
35
11
22
fc
fe
01
00
fc
14
06
ea
1d
0e
01
f3
f1
2d
20
f2
24
18
e2
2a
04
f2
e5
04
f5
08
20
fa
04
15
39
1b
10
f6
f4
0d
f5
db
12
35
32
39
04
15
0e
00
fd
03
00
0b
0f
1f
3e
f2
08
04
f9
01
0d
04
19
ec
09
ff
07
2f
21
0a
3d
07
08
29
0f
12
ef
14
0e
0d
e7
1f
02
1d
f6
fe
19
22
17
04
0e
e8
26
04
14
f8
0d
05
19
14
dc
14
0a
fa
fb
17
0f
e4
05
09
ee
1e
10
e8
03
18
1c
21
ff
04
00
0c
03
29
34
04
09
2a
f5
12
1f
f9
04
fe
fa
01
02
14
16
f5
ee
00
ec
11
fe
1d
fc
04
09
07
09
0c
f6
01
07
eb
e9
0e
36
07
04
ff
08
0d
0d
0f
0c
16
fd
3f
39
06
16
21
04
08
14
0b
06
01
fe
01
01
09
e1
11
16
fe
fe
ff
01
ff
ff
01
ff
fe
ff
fd
ff
00
ff
fc
fe
ff
fd
00
ff
01
00
fd
00
ff
fe
ff
00
00
00
fe
00
ff
00
fe
02
00
fd
00
ff
00
01
00
ff
00
ff
fd
ff
02
ff
ff
02
ff
01
ff
00
fe
01
00
01
fe
00
ff
ff
00
00
01
ff
00
00
01
ff
fe
fd
ff
00
01
ff
fd
00
00
ff
ff
01
02
fe
00
00
fe
fe
fe
ff
01
00
fe
00
fe
ff
ff
ff
fd
ff
fe
fe
fd
fd
ff
fc
fe
00
fd
fd
00
01
02
00
ff
ff
00
01
00
fd
01
02
00
ff
fd
fd
fc
01
fd
fc
fc
01
00
ff
ff
fe
fc
fe
ff
00
fe
00
fc
fd
fe
00
fd
fe
fe
fd
fc
00
fe
ff
00
00
00
01
00
ff
fe
fe
02
00
fe
00
fe
01
ff
ff
fd
00
01
fd
fe
fe
00
ff
fe
fd
fe
fd
ff
ff
fe
00
fe
fd
00
ff
fe
fe
00
fe
fe
ff
fd
02
00
fe
00
ff
fe
02
01
00
00
fd
fd
00
00
01
ff
01
fd
00
ff
fe
01
00
fc
01
fe
00
ff
02
ff
01
fe
fe
fd
00
fc
00
01
00
fe
ff
00
fe
ff
fe
fe
01
00
00
fd
00
ff
fd
ff
ff
00
02
ff
ff
ff
ff
01
fe
01
01
fd
00
fd
00
ff
ff
ff
ff
00
fe
00
fe
ff
fe
ff
ff
ff
00
fe
01
00
00
ff
01
fe
fc
fd
ff
01
00
ff
ff
fd
fd
01
02
fd
02
fe
fe
00
fd
00
fd
fe
fd
fc
fe
00
01
ff
00
fd
ff
00
01
fe
fd
fd
fe
fd
01
00
fc
ff
ff
fd
fe
ff
01
fe
fe
fc
fe
ff
fe
01
fd
ff
00
fc
ff
fe
00
fd
fd
fe
fc
00
01
fe
02
fd
00
ff
ff
fc
ff
ff
fe
fe
00
ff
fe
01
00
fe
fe
fe
02
00
ff
ff
fe
ff
fe
00
fe
fe
fe
fe
00
fe
00
ff
02
ff
00
01
01
01
00
fd
fe
fd
00
fe
00
fe
ff
fe
fe
00
fd
02
ff
00
fe
fe
fe
00
00
01
02
01
ff
01
fe
fe
02
fe
fe
ff
01
fd
fe
fe
fe
fd
00
ff
fd
fe
fd
fd
00
00
00
fc
ff
fe
00
ff
00
fe
00
01
fe
ff
fd
fd
01
fd
00
ff
fc
fc
fe
fc
fe
00
ff
fd
01
fd
01
ff
fd
01
01
fe
02
02
01
ff
01
ff
fc
fd
fd
ff
01
ff
02
01
01
00
00
ff
ff
ff
02
fe
ff
fc
00
00
ff
ff
00
ff
01
01
ff
ff
fd
fe
00
fe
01
00
00
ff
fe
fd
fd
fe
01
01
00
01
01
01
01
fe
fd
fe
ff
fd
01
00
ff
ff
ff
fd
fd
01
ff
01
02
00
fd
fd
01
ff
01
00
00
01
01
02
01
ff
fd
ff
fd
02
fd
ff
ff
fe
00
ff
01
fd
ff
fd
02
fe
00
ff
ff
01
01
00
fe
ff
fe
ff
01
01
00
ff
fd
fe
fe
02
02
fe
fe
fe
ff
01
00
01
00
01
fe
ff
02
fd
00
ff
00
fd
ff
fe
ff
00
01
fe
ff
fe
01
fe
00
fe
00
fc
ff
ff
01
fe
ff
ff
00
01
02
fe
fd
fe
ff
01
01
fe
01
fe
01
ff
00
fd
00
ff
00
fe
00
fe
01
01
01
fe
00
fd
ff
ff
00
01
01
ff
00
00
01
fe
01
00
ff
01
fe
00
01
fd
ff
fe
fe
00
ff
ff
fe
fe
ff
ff
fe
00
02
00
ff
00
ff
ff
ff
ff
fe
ff
ff
00
ff
01
00
ff
ff
00
fe
01
01
fd
fd
00
fe
fe
fe
ff
01
02
02
fe
02
00
fe
01
fe
ff
01
00
ff
fe
00
fc
ff
01
00
ff
00
00
ff
fe
fe
02
00
00
00
ff
fe
01
ff
02
02
ff
01
fe
00
fe
ff
00
01
00
02
01
ff
fd
00
fe
fe
00
00
ff
00
fd
01
01
fe
00
00
01
fd
ff
00
ff
01
00
fe
fe
fd
fd
fc
02
01
00
02
ff
ff
00
ff
fe
fe
00
ff
ff
ff
01
01
00
00
ff
ff
fe
fe
ff
ff
ff
ff
ff
fe
fe
fd
fd
ff
01
00
fd
fe
fe
01
00
fe
fe
fe
01
ff
00
ff
00
01
fe
ff
01
01
ff
ff
fe
ff
ff
fe
fe
01
ff
ff
00
fe
fe
01
00
fe
02
00
ff
ff
00
00
fe
00
fe
01
00
00
01
00
fd
ff
fe
fd
fe
ff
01
00
02
ff
ff
ff
01
01
fe
00
fe
01
fe
fe
fe
fe
00
01
fe
ff
ff
01
01
ff
00
ff
fd
00
ff
ff
ff
ff
01
01
ff
ff
ff
ff
ff
fd
01
01
00
00
fe
ff
00
fe
fe
ff
01
ff
02
00
fd
00
00
02
01
fe
00
fe
01
00
fe
01
00
00
fe
00
00
fe
ff
fe
01
01
00
01
fe
02
fe
ff
fe
ff
fd
00
ff
00
fe
fe
00
01
fe
01
fd
fe
01
fe
00
01
01
ff
00
01
00
02
00
fe
ff
01
ff
ff
fe
fd
01
fe
fd
fe
00
fe
ff
fe
ff
00
ff
01
00
01
00
fe
00
01
01
ff
00
00
fe
fe
ff
ff
fe
01
fe
ff
ff
ff
fd
fe
05
01
15
08
1c
14
0f
04
0f
f3
e6
11
ee
1f
ff
14
19
0d
12
21
01
35
0a
19
01
f1
f5
eb
00
03
01
02
fd
0e
08
0e
fb
f6
0f
03
25
f9
0c
06
f5
0e
05
17
06
07
00
09
01
e7
00
02
12
eb
ff
0b
ea
2a
02
14
02
04
ff
ff
04
05
07
08
0b
ee
f1
11
ff
0c
06
03
01
01
02
03
03
08
05
0a
fb
dd
f6
f4
00
ff
00
01
09
02
0b
03
09
fd
ef
00
f5
09
05
f8
ff
fc
fc
f8
01
fe
00
01
d8
ff
12
f7
fc
fe
13
ef
07
fd
1c
1a
f8
0d
1e
09
0c
03
13
10
01
01
00
04
01
01
03
03
fb
12
11
07
0c
06
1f
fc
ff
00
2b
03
0b
06
10
00
11
fd
17
ea
22
f4
f4
04
02
01
02
ff
0b
fd
0e
12
ff
e8
ef
ec
0f
18
10
0c
0c
f3
e0
fd
06
f9
ed
f5
02
2a
08
0c
09
05
00
fc
1d
0b
06
f6
05
f3
02
02
1c
e2
f6
0f
03
01
01
01
07
f8
1b
03
13
ee
06
0e
04
04
04
00
f0
18
04
04
fd
00
03
09
09
0b
07
0c
ee
09
03
fd
07
07
04
06
f3
07
ff
09
fe
05
04
03
0b
07
00
07
f6
0a
03
00
0e
ed
ee
0c
0e
0c
25
05
05
08
1d
18
07
2a
13
13
08
e4
fc
f2
06
fe
10
06
14
1e
09
15
0e
2f
1d
00
0d
04
f9
0d
02
ff
01
00
01
11
08
1b
f1
0a
f9
02
0c
f2
ff
06
1a
34
10
12
fc
15
f3
fe
05
00
21
0a
fd
00
00
03
eb
0d
0b
08
03
ea
02
fb
29
29
1a
fb
07
05
fb
0d
ef
f9
f7
f3
04
fe
fd
e8
01
02
11
09
00
02
f7
03
03
f4
33
0e
00
12
02
01
02
02
ff
03
03
07
2d
ff
fc
e6
e9
e2
06
1f
0e
02
15
dd
ee
01
00
1d
f7
06
10
04
0e
0d
06
10
e8
22
e7
fc
05
12
05
1d
06
06
11
f4
ee
ff
f4
0e
07
07
0a
f6
dc
0e
08
ff
0b
0c
22
09
00
1c
09
03
fb
fe
09
00
fd
f8
0b
ea
e9
02
02
01
02
04
10
0b
0a
fa
08
2e
15
10
02
fe
01
01
03
15
07
0b
04
fd
fd
02
f9
06
15
0f
05
03
fe
01
fb
04
02
00
10
22
00
0b
fd
02
fd
00
01
04
06
06
18
eb
01
10
15
fc
10
07
fd
0b
fd
01
fe
02
01
02
05
0e
05
05
14
03
1a
fe
15
1f
2c
31
fc
2f
f3
16
16
19
01
0d
ea
24
0d
19
f6
18
15
17
e5
fb
01
f9
00
00
02
03
fb
1e
17
1d
01
f7
07
dd
1f
48
2a
36
ff
0a
fe
17
fd
37
fd
13
06
38
18
0d
1d
50
1b
0d
f1
f7
ee
12
0c
09
06
07
17
17
1f
16
e4
08
24
e5
14
12
0b
16
08
05
05
ff
08
0d
0a
05
df
fd
04
f4
04
ff
01
03
e7
1b
e1
08
08
0e
09
05
ec
f6
fb
0a
d2
14
10
fd
05
08
09
08
30
4a
52
23
05
0d
19
09
22
1a
1b
13
23
2d
1c
21
13
24
f5
20
03
06
02
05
02
ff
03
05
f4
04
11
19
3f
2e
34
19
0f
2a
05
02
3b
1b
16
2f
09
11
3a
06
10
1d
17
1d
01
ff
02
00
03
06
0e
0b
f2
fc
17
12
f5
26
1c
28
ef
02
12
14
e2
0a
10
00
23
0c
0a
10
f5
1e
20
1f
f2
0e
01
19
f7
e5
03
fb
f9
0d
09
09
02
ff
02
02
fe
32
3a
15
f2
5c
12
0d
0a
03
02
0d
03
39
0d
1d
04
03
05
06
00
02
01
03
11
4d
f7
23
01
02
01
02
09
f7
08
fa
ff
02
ff
02
eb
20
ee
0c
00
f0
2f
02
0b
02
06
0d
d7
1b
1f
22
1d
14
f9
18
1d
40
33
28
ff
fb
34
1a
11
1e
07
1e
f7
31
16
1c
fe
37
17
14
05
47
02
02
01
00
fe
04
f8
0b
27
04
f9
fa
f4
19
2c
2d
10
22
fe
fb
08
06
ff
12
14
0b
04
fe
2b
f1
02
08
ff
04
17
5d
f1
2e
f2
f9
fa
00
26
46
fd
13
f3
38
01
1f
fb
ef
ea
f6
f2
08
07
f2
18
36
18
1e
e4
0c
f8
09
03
3f
2c
1a
2a
1a
26
23
fd
02
02
01
2c
2f
18
0a
f5
05
f8
ff
e8
1b
0c
20
f1
1f
01
fe
fe
05
0a
0b
3b
12
1b
0b
d8
16
11
02
e5
0e
27
f8
fc
2a
f8
1f
e2
f8
45
ee
01
2d
1a
10
08
2a
06
24
f6
18
f4
19
15
fe
f8
13
e9
0d
06
0c
ff
07
07
08
fb
43
0b
0a
04
00
06
06
12
fb
15
19
f6
24
f1
10
03
01
04
02
04
30
1e
18
f7
15
04
fc
0a
08
06
05
03
00
fd
ff
f9
0d
00
09
fb
3e
0b
2b
01
fb
05
ff
0f
0b
0d
0d
03
01
ff
24
06
13
47
15
fb
10
01
0c
ff
01
ff
02
e7
2d
0d
0f
27
ff
0f
1f
0a
05
ff
0d
19
fe
d9
15
3e
46
f1
15
0d
02
13
23
fc
1f
13
07
f9
0b
07
0a
00
01
04
03
fe
15
10
fa
10
11
03
1c
2f
2a
18
22
01
08
18
01
02
08
ef
04
15
02
1b
1c
06
18
f2
29
e9
37
fe
06
07
04
04
02
01
fc
0a
04
f9
ec
0a
1a
04
0a
09
0b
01
00
00
fa
03
02
03
05
f6
09
fd
0e
04
02
03
05
08
fe
06
f6
19
06
07
08
1e
0a
04
0c
f1
06
ea
ec
03
02
01
02
fe
f8
e0
17
1c
40
08
fc
02
1d
09
05
31
fc
02
34
05
f1
15
04
04
04
ff
0c
fc
fd
02
05
1a
0f
11
fa
f6
1b
02
16
3d
27
09
3a
23
0d
2b
26
05
0d
15
0a
27
15
04
1f
ff
00
02
02
fd
0b
ff
1f
09
0f
0c
23
17
15
25
18
0a
22
03
17
00
0f
e9
fb
22
1c
06
0c
16
2b
fa
0b
07
f8
03
eb
ee
51
f8
07
05
ef
17
20
fe
00
00
00
0e
29
0d
16
ff
fd
fe
0c
03
02
12
06
0a
1b
00
10
0c
00
03
0d
07
09
03
09
05
17
06
1f
04
05
08
05
0b
0a
00
f0
fe
03
00
05
f6
fe
07
fb
03
07
05
04
04
f8
fb
f2
f0
03
08
08
06
0e
10
01
1e
1e
1a
1f
07
1f
1a
42
09
1a
1d
00
12
1a
09
05
3a
38
0b
1c
16
22
f4
00
fc
02
ff
01
0a
26
11
0f
f6
06
fe
17
00
11
0e
0b
10
36
1a
20
12
22
16
1b
0b
0e
01
0d
07
fd
fe
0b
13
42
0b
16
f7
01
e5
ff
27
38
ef
1e
ff
f9
f6
07
05
f5
ff
fc
e2
f9
f1
02
f8
1d
06
06
f0
01
f8
f7
fc
0f
5a
1f
2e
09
0e
14
00
fe
00
fe
1e
27
08
43
0f
1a
fd
18
13
3c
17
1e
07
eb
f3
0a
3d
1a
f3
15
1c
0c
0c
1f
01
f7
03
f8
01
fc
fd
04
23
27
02
0c
ef
f0
25
15
f3
10
ef
09
14
12
d1
06
05
0a
06
fd
25
17
09
0e
e8
ff
07
f5
0c
1f
0b
21
32
1d
ef
12
ff
00
02
02
37
2d
14
0e
e9
3f
fe
0b
f8
fb
01
05
0a
18
0a
03
16
09
e3
12
0f
08
fc
0b
02
00
05
01
04
0f
fc
02
07
11
fa
04
0d
0c
f3
04
07
07
02
08
27
38
1b
3d
1c
2d
1b
14
0b
12
1d
11
03
01
04
02
02
01
1b
09
ff
fe
00
ff
ff
fe
fe
ff
fd
fe
ff
01
ff
00
01
01
fe
fe
01
00
01
fe
fe
00
ff
01
01
ff
00
01
fe
02
fe
00
ff
01
01
01
fe
00
01
00
01
fe
ff
ff
ff
00
fd
00
fe
ff
00
00
ff
01
01
fe
fd
00
00
fe
ff
fd
02
01
fe
01
01
ff
fe
01
00
00
fe
ff
00
01
00
01
ff
00
01
00
fe
ff
ff
00
00
ff
00
fe
fe
00
01
02
00
fd
fe
ff
00
02
01
01
ff
00
fd
fe
00
ff
fe
ff
00
02
fe
01
01
fd
02
fe
00
00
00
00
00
00
fe
ff
01
01
00
fe
fe
fe
fe
02
01
fe
ff
01
fd
00
fd
fe
fe
01
01
00
ff
01
ff
01
fe
ff
fd
fd
fd
fe
00
ff
00
fd
fd
00
fc
01
ff
fd
ff
fe
00
01
fd
fd
00
ff
00
01
ff
ff
00
ff
00
01
fc
ff
01
02
01
ff
ff
ff
01
fe
fe
fe
fe
fd
00
fe
fd
fe
00
fe
fe
00
00
01
fe
02
fd
fe
fe
fe
01
fe
00
00
01
02
00
ff
00
fe
fe
fe
00
ff
fd
fe
fe
02
ff
ff
ff
ff
01
fe
01
fe
00
ff
fe
fe
02
01
fe
02
ff
00
ff
01
02
01
fd
fe
00
ff
01
00
ff
fe
01
02
fe
fe
fe
ff
00
fd
fe
02
fd
fe
fe
01
fe
00
ff
02
fe
ff
02
fe
00
fe
fe
fe
00
fd
00
01
01
fe
02
01
ff
fe
ff
00
fe
ff
fe
00
fd
ff
fe
01
00
01
00
ff
00
01
00
ff
fd
ff
00
01
01
00
fd
01
fe
00
00
00
ff
01
fe
00
00
fe
fd
00
fe
00
01
00
00
fd
ff
02
01
ff
fe
01
ff
00
fd
fd
fe
00
ff
00
fe
01
01
ff
01
ff
fe
00
fe
fe
01
00
ff
00
ff
01
fc
fd
01
01
01
fe
fe
ff
fe
00
00
00
01
00
fe
00
fe
fe
fd
01
00
fe
fc
01
02
01
ff
fd
fc
02
fd
01
ff
ff
fe
fe
fe
ff
01
00
fe
fe
ff
fe
fe
00
01
fe
fe
01
fe
fe
ff
fd
01
01
fe
fe
02
ff
fd
fe
01
fe
fe
fe
ff
ff
ff
ff
fe
00
fe
fe
00
02
fe
fe
02
ff
01
ff
fd
00
ff
02
fe
ff
ff
fd
fd
fe
00
00
ff
ff
00
fe
fe
01
fe
00
02
fe
02
02
02
01
00
ff
ff
02
00
01
fe
02
02
00
01
ff
fe
fd
fe
fe
fd
ff
ff
00
01
00
fd
00
ff
ff
00
00
ff
00
01
00
01
fd
fe
fe
01
ff
fd
01
00
01
ff
00
01
ff
00
00
00
fe
02
00
ff
01
00
fe
fe
01
01
ff
01
fe
01
fe
01
03
00
01
fe
01
ff
00
00
ff
fe
02
fe
ff
fe
00
ff
ff
fe
ff
01
ff
ff
fe
00
ff
fe
ff
00
fd
00
fe
00
fe
ff
ff
fe
ff
02
ff
00
02
01
01
00
ff
ff
02
01
00
02
fe
02
01
02
02
ff
fe
01
ff
01
fe
ff
00
01
ff
fe
ff
00
02
ff
01
ff
fe
00
fe
ff
01
fe
00
00
02
01
02
01
01
02
ff
02
ff
00
00
fe
fe
01
ff
00
fe
ff
ff
00
00
fe
ff
01
ff
fe
fe
ff
ff
01
ff
ff
ff
fe
01
01
fe
00
01
fe
ff
02
00
00
01
ff
01
01
ff
00
fd
01
fe
00
ff
01
ff
02
00
01
fe
ff
ff
fe
ff
00
00
00
00
01
fe
fe
01
ff
ff
00
ff
fe
ff
02
ff
ff
00
00
fe
ff
02
01
ff
fe
00
ff
ff
02
00
ff
00
01
01
02
01
ff
01
00
ff
00
fe
fe
00
ff
00
fe
02
ff
ff
00
ff
fe
02
01
02
00
fe
02
ff
fe
02
00
00
fe
ff
ff
00
01
fe
ff
01
ff
02
fe
ff
01
ff
ff
fd
00
fe
ff
00
fe
00
ff
fe
01
00
01
ff
ff
fe
ff
02
ff
ff
ff
01
00
00
ff
ff
01
01
01
01
01
01
ff
ff
01
ff
00
ff
fe
fe
00
ff
00
ff
fe
ff
fe
ff
fe
00
ff
ff
01
02
00
02
02
fe
00
fe
ff
02
01
00
01
01
ff
ff
fe
00
fe
00
01
01
fe
fe
00
00
01
fe
fe
01
fe
ff
fd
01
fd
00
ff
fe
fe
ff
00
01
ff
ff
fd
ff
00
fe
01
02
ff
01
01
ff
fe
00
00
03
02
03
ff
ff
01
00
ff
fe
ff
ff
00
01
01
00
00
ff
01
fe
00
01
fe
00
fd
01
fd
02
ff
00
00
02
ff
ff
00
01
ff
fe
01
00
00
fe
ff
fe
fe
00
ff
00
fe
01
00
01
ff
ff
00
01
00
fe
00
01
fe
ff
fe
ff
ff
01
01
fe
ff
fd
01
00
ff
ff
ff
fe
01
ff
02
00
02
00
ff
02
ff
fe
fe
01
fd
01
02
ff
ff
ff
00
00
00
00
00
02
fe
ff
01
ff
fe
00
ff
fe
fe
00
01
02
02
ff
00
ff
01
fe
ff
fe
00
ff
ff
00
01
00
00
ff
ff
fe
00
00
fe
00
ff
fe
fd
00
01
fe
02
01
ff
ff
01
fe
fe
ff
12
03
11
fa
09
e9
0f
07
0e
fc
ff
18
2b
ed
fe
f0
ef
1e
fa
00
11
24
fd
02
15
12
ff
23
00
03
ff
ff
fe
f5
03
f2
1a
02
09
f9
04
f9
18
17
08
f7
f9
09
09
0d
0d
29
fd
fe
06
07
13
01
11
16
01
fb
ef
fa
01
02
ff
01
f9
fd
ff
06
10
09
23
02
01
08
02
02
01
05
00
fc
0a
03
03
01
f9
03
0b
14
06
01
03
ff
00
06
ef
00
08
01
0f
06
16
13
f0
f6
0f
18
12
15
02
02
05
02
16
2f
3d
09
20
19
18
2f
1e
f5
05
00
ed
03
f6
f9
f2
05
f7
f8
fb
07
fc
05
00
01
00
02
0d
17
e2
0c
0e
ed
f9
07
03
e8
fe
ee
f6
ef
ec
fc
22
fb
0e
fa
00
00
fb
0d
01
fe
ff
ff
14
fc
12
0d
fe
01
f9
0c
fb
2b
fc
0a
ef
02
fe
0b
03
ed
07
fa
f3
1d
1f
26
fe
09
01
f8
03
f3
03
07
20
ff
08
28
13
0b
13
ee
03
02
fe
01
fc
11
07
fd
12
0b
02
11
0b
0d
0b
10
05
fd
11
23
f6
02
fb
03
06
05
07
04
1a
0d
06
03
04
08
09
05
e9
13
09
04
ff
03
ff
02
01
07
f1
0d
15
06
ff
27
07
f6
fd
fc
1d
f8
09
07
fb
0b
ed
15
02
0d
06
eb
fb
f5
17
00
13
e8
17
00
2f
ea
19
e8
16
07
0a
14
09
0a
1d
12
02
02
01
01
00
16
eb
ff
ee
19
ff
0c
f6
03
0d
07
fd
ec
fa
01
03
07
06
07
1f
06
0a
fa
01
04
02
04
06
26
08
fe
0a
f1
ed
fb
05
15
ff
08
12
14
fb
23
ec
05
f9
f0
18
03
08
09
fa
e6
f5
ff
02
0a
f8
02
f7
f9
fd
e4
1d
1e
1a
25
01
02
01
01
0c
fd
fb
ee
03
ef
fa
08
20
1d
f6
20
00
06
ec
04
16
0e
0d
09
f7
07
fc
fd
00
0f
f4
fc
fb
06
04
fc
f9
fe
fd
13
18
1e
2d
09
fa
06
1a
26
18
0b
01
0b
07
15
eb
0c
f8
11
06
0f
03
01
00
00
00
0a
14
fc
02
04
0e
21
07
06
08
0a
00
ee
f5
0a
0d
00
f9
00
03
00
fc
03
15
06
09
10
fe
e9
06
00
ff
01
0b
01
fd
fe
01
00
ff
fd
05
01
2c
f5
12
05
0d
fa
fc
02
08
02
04
08
17
0c
fb
dd
02
fb
0a
18
06
01
07
fb
ff
fc
fe
01
19
00
fe
fc
fc
fd
09
05
f2
fc
f9
0f
09
06
fd
0b
23
f0
08
2e
f5
f1
f9
f7
1a
f1
dd
06
fd
11
04
28
fe
00
fe
00
fc
fc
14
1b
1b
fd
07
07
f5
35
1b
2c
1a
f5
d6
05
01
1c
24
14
07
10
2b
0c
13
3e
2a
03
0b
fc
e2
03
06
01
00
ff
fd
01
fc
fc
09
ff
1c
f3
05
fd
02
08
ff
01
ff
01
fe
00
05
01
f2
fc
12
11
00
01
02
02
07
ff
f6
fb
09
05
07
00
18
15
f2
19
05
0a
09
01
00
00
fe
ff
1b
33
3f
26
fb
38
17
19
f3
ff
07
f2
0d
e9
f1
f9
ee
1c
ef
fd
02
06
07
03
03
02
fe
01
19
fc
eb
08
2b
1f
0c
1a
16
fa
f4
07
1b
ff
23
0a
25
09
03
0e
04
0c
18
0f
01
ff
fd
02
f7
05
12
fd
f3
0d
0e
12
f4
21
0f
18
fa
03
09
05
f5
f9
02
03
17
09
00
1c
04
f6
20
ff
f9
f4
06
f9
15
1d
14
28
26
f9
03
ea
01
00
01
ff
fd
fd
19
13
fe
05
05
01
02
00
03
fe
0e
05
13
12
fe
05
01
fd
02
fe
fe
01
10
12
fb
09
ff
00
ff
00
00
06
04
fa
ff
fe
02
fd
04
fb
fc
06
fe
12
16
2e
fc
fc
fa
04
02
f8
26
18
0a
0b
0f
03
06
06
1a
0b
f7
09
10
06
09
0b
18
1f
04
f0
12
0c
0f
0b
04
05
05
0a
2d
03
fe
01
fe
00
fb
02
0c
fd
f3
fd
e8
0a
03
08
46
fe
fc
e3
02
11
0d
14
18
19
fc
fa
06
b9
fe
00
00
01
09
19
06
06
fb
ef
f8
06
10
ed
f4
fc
09
04
07
1d
ff
fa
f6
f3
12
08
0f
02
ff
f0
02
01
fd
03
03
f7
ea
0f
fd
0e
28
1f
1e
21
00
ff
ff
01
1b
05
05
13
f1
f1
ef
12
fb
33
f9
3c
f8
f5
00
f6
13
08
0e
25
19
08
0d
fa
0c
11
f7
fc
04
01
0a
fa
fe
06
fe
01
0b
ff
23
fd
f0
27
27
2f
0c
03
10
0e
0a
fd
fd
0d
fd
02
16
06
07
fc
ff
fe
19
04
19
0b
07
f8
1d
19
04
02
0d
02
0c
fe
f2
1d
15
f8
ec
01
01
00
02
01
11
02
13
01
01
f0
09
13
fb
02
05
fc
ff
fe
01
fe
07
00
0b
03
fd
e5
14
11
09
08
f4
09
02
07
06
04
07
08
fe
f9
fa
14
22
3a
05
0a
00
0f
ff
fe
00
fe
0d
02
06
02
01
ff
ff
ff
00
fe
00
01
00
00
fe
fe
ff
fe
02
fe
01
01
ff
fd
01
fe
ff
01
ff
ff
00
01
fe
ff
ff
ff
01
ff
00
ff
01
01
01
fe
00
ff
ff
01
ff
01
ff
fe
01
fe
fe
01
ff
fe
01
00
00
ff
01
fd
fe
ff
00
fe
00
fd
fe
00
ff
02
00
fe
ff
00
01
fd
02
ff
ff
01
02
01
00
ff
00
fe
fe
01
01
00
ff
00
fe
00
01
fe
ff
00
01
00
00
00
ff
ff
ff
fe
01
fe
01
ff
02
01
01
ff
00
01
ff
ff
01
02
fe
00
ff
00
fd
ff
fe
01
fe
ff
01
00
ff
00
ff
ff
02
fd
ff
ff
fe
ff
ff
fe
ff
01
00
00
ff
02
01
00
fe
fe
00
00
ff
00
fe
01
fd
fe
01
ff
fe
fe
fe
ff
ff
fe
00
02
ff
00
02
fe
fe
fe
fe
02
fe
01
01
00
00
01
ff
01
fe
ff
01
02
ff
fe
fe
ff
00
fe
fd
00
00
fd
01
ff
01
ff
00
00
00
ff
ff
fe
00
00
01
ff
ff
ff
ff
fe
ff
01
fe
02
02
00
fe
ff
01
00
ff
ff
02
ff
fd
ff
ff
00
00
00
02
01
00
ff
01
01
00
00
fe
fe
00
fe
fe
00
01
01
fd
ff
ff
01
fd
fd
00
ff
01
fd
fe
ff
01
fe
01
fe
01
01
fe
01
fe
00
ff
01
00
ff
fe
00
00
fe
ff
ff
00
ff
fd
ff
00
00
00
00
00
fe
00
fe
01
00
01
fe
ff
ff
ff
01
ff
02
02
01
fe
00
fe
00
ff
fe
fe
fe
00
fe
01
00
01
fd
01
01
fe
ff
00
01
01
ff
fe
fe
00
01
ff
02
00
fe
ff
01
ff
00
ff
00
00
fd
00
fd
01
01
fe
00
00
ff
fd
fe
00
fe
ff
fd
ff
ff
02
ff
fe
ff
fe
01
01
00
01
01
01
ff
ff
01
00
01
01
ff
00
01
00
01
01
00
00
ff
01
fe
ff
ff
ff
ff
00
01
fe
00
ff
fd
01
ff
ff
fe
fe
fe
00
01
00
ff
ff
fe
00
fe
ff
00
00
02
00
00
fd
ff
01
fe
fe
02
fe
ff
01
00
02
fe
ff
ff
fe
02
fd
01
00
01
01
01
fe
fe
00
fd
00
01
00
01
fe
00
ff
fe
01
fe
01
fe
fe
fe
00
00
ff
01
02
01
01
00
ff
fe
01
ff
01
00
fe
02
01
00
00
01
00
01
fe
ff
02
fe
01
fe
00
fd
01
ff
fe
ff
02
01
00
02
00
01
02
00
00
fe
00
fe
ff
00
0b
04
2c
13
16
40
51
1f
f6
1e
f7
0b
06
1a
0b
15
d9
19
f8
26
f0
1f
f0
26
eb
21
02
f3
05
02
06
07
f9
12
16
0a
eb
08
23
f8
0c
35
27
41
04
03
ea
11
f5
25
0c
1a
0d
2c
1e
1f
0a
32
0c
15
f1
0b
f5
13
03
03
ff
01
08
04
0c
0a
df
01
1d
f9
09
0d
1f
14
06
03
02
06
0f
09
0f
0d
04
2b
fa
ef
00
01
05
01
ee
05
eb
11
14
06
03
0d
e6
f5
fc
f1
db
10
02
f8
05
05
04
00
1e
1f
25
23
f6
f2
18
03
23
3c
07
24
ff
15
15
1a
fd
11
02
0e
00
05
06
0c
ff
ff
03
08
e2
1d
f5
18
13
51
24
10
fa
10
37
1f
26
2c
2d
2c
03
36
26
0c
f5
17
1f
11
ff
01
01
fe
01
0c
fe
0a
ff
34
11
10
f5
11
08
2d
15
2d
02
11
d9
07
12
e0
1f
11
16
16
16
25
0a
19
e3
0f
fc
fd
f7
47
0c
fb
09
1d
0b
0e
00
fe
01
02
fd
28
44
1a
e8
22
14
14
fe
ff
0b
03
0a
0d
0e
20
06
08
07
11
ff
02
00
fe
fe
34
fb
1b
07
09
08
0a
06
f0
0c
fe
01
00
01
05
db
0b
f1
07
fa
ee
1d
21
12
09
06
f6
e7
03
06
2c
03
07
17
16
1f
2b
1d
28
00
28
2c
0b
0a
2b
1c
06
0a
17
11
24
09
06
13
3a
f6
16
04
01
fe
00
01
01
f8
1b
16
19
dd
1c
07
f4
f7
22
0c
38
01
41
12
10
f7
22
36
17
2b
2a
0a
22
0a
05
01
09
19
6f
f7
14
e8
09
fd
f2
19
3c
e3
23
f8
20
04
11
f9
f9
01
fa
f3
2f
f7
fa
16
39
13
0a
d3
00
ff
06
e9
1a
30
1f
18
1d
0a
19
fd
04
00
ff
f3
1e
07
12
05
0a
fb
00
e9
09
fd
11
e3
1e
08
fd
11
1d
fc
22
1b
08
16
15
d8
05
09
12
e3
08
16
03
fa
20
f0
1a
ea
ff
0c
fe
e8
18
28
29
f4
27
f9
25
e2
13
fc
0a
23
f9
09
0b
c8
fd
09
f3
f9
1e
f4
0e
ea
1d
01
01
0a
04
0a
04
fe
09
12
fd
02
37
15
2f
ff
03
03
06
f3
1a
09
1a
f7
11
10
eb
14
07
0c
11
03
01
04
03
fc
08
02
09
04
2d
0f
33
fb
15
09
fd
08
07
0d
0a
f9
2a
74
2c
f4
24
13
14
0d
11
11
16
ff
00
ff
00
e8
13
0e
0a
e8
f7
08
fe
0f
0d
09
fe
f9
fa
0a
fe
ef
2d
f9
0d
04
12
09
0a
07
0a
1f
0e
05
da
ed
ff
01
01
01
05
05
f7
fc
fc
f2
f1
09
ee
2a
f0
08
fa
f8
03
11
05
0c
fb
f7
00
07
e3
d3
f8
ef
ef
eb
ef
f9
07
15
0d
06
03
03
05
02
02
fe
01
fb
f1
f8
0f
01
0a
05
ff
00
00
02
fd
01
ff
02
05
ff
cd
e0
fd
ff
ff
00
02
05
ff
02
fe
ea
fb
f2
01
fe
ec
07
06
03
fa
fc
fd
fe
fb
fc
fd
e4
f3
ed
cb
fe
e4
1e
e0
f5
f5
0c
03
f8
dd
10
16
03
15
0b
0f
fe
fb
02
0c
00
fd
02
04
0f
f7
0e
fd
f4
e2
0c
d8
00
ff
27
de
f2
00
ef
f0
f5
f4
08
de
ff
ef
fd
00
fe
01
00
01
00
f8
0c
f9
0e
d8
e7
f0
e9
11
f7
e9
14
ca
dc
eb
0b
ff
f7
0f
eb
0a
05
ed
0c
f4
fb
02
06
0f
ff
05
f5
e4
fb
f8
fd
05
fe
02
02
01
04
02
07
cc
eb
08
f2
cf
fb
f8
fc
04
02
ff
06
16
0c
f2
ff
fe
03
09
07
02
04
03
e1
ee
0e
03
03
03
ff
00
fc
18
fa
05
00
00
04
00
00
07
06
fd
fe
11
08
e8
f8
0c
ea
08
fa
03
fe
04
ea
14
f2
0b
ee
0f
d8
ee
0e
de
e2
e5
0f
f4
ef
f7
ff
1a
0d
08
04
0a
18
f6
fb
ec
d0
0e
01
01
01
04
e8
0c
0b
05
0f
ef
08
f8
01
f8
f3
fc
f8
13
03
09
fe
ed
f1
fb
0f
eb
09
0d
fc
ff
08
03
f1
e4
00
f8
00
01
f2
fc
09
0e
23
fd
00
e0
ec
e4
00
08
fe
f5
13
f3
e6
e7
fa
fb
02
fe
03
f6
01
fa
0f
f3
fa
13
ef
0b
ef
f5
01
08
01
01
ee
fb
2a
f4
f5
e0
ee
f5
f9
d6
01
dd
0f
0e
ff
f9
01
0e
04
e3
fb
02
01
fc
06
18
fd
1e
fe
05
df
15
f6
fe
16
fe
fb
f3
fd
09
f3
11
ee
00
ec
f4
01
00
08
fa
fe
f2
04
fe
df
fb
ff
07
f6
04
02
02
e4
ef
16
e9
cf
07
01
f9
fb
f9
0a
f9
fa
02
04
18
04
00
ff
fe
04
06
f3
00
fa
e8
03
0d
ea
09
fd
f5
01
0f
fe
ff
02
fe
f6
06
05
fe
f8
0a
f8
f8
f8
00
00
fe
f6
fb
f9
f8
e9
de
e5
01
12
e6
ef
01
f8
fc
02
00
ff
ff
02
ff
fe
f8
03
f8
00
f7
fe
ef
db
e1
f7
f4
f8
f3
fa
06
12
e2
ff
f0
04
b2
df
08
10
e1
e4
fb
02
08
05
0b
ff
f9
fb
fa
f1
f2
ff
eb
17
f3
f9
fc
e7
f6
e6
f2
04
ea
e4
f5
d7
f3
05
ec
fd
0f
ee
ef
eb
f0
ed
fd
fa
e1
f8
00
fe
02
00
ff
fe
fe
ff
fd
02
d0
dd
0d
f9
ff
07
00
00
fd
00
01
fc
ff
01
00
08
ed
06
04
01
fe
00
fe
ff
d5
c5
fd
06
01
fa
fd
12
05
00
f4
ff
de
fe
f3
01
01
fe
01
db
d8
d6
ee
d6
c6
0b
e4
f9
ed
e9
02
f4
be
ff
f0
d4
06
d3
f5
03
f4
01
fa
fd
fc
00
fe
19
d8
c9
f5
e5
e8
d9
e6
1a
f8
f7
f2
fb
f9
ec
03
0b
f7
d6
f9
ef
ff
eb
00
01
ff
ff
ff
eb
f7
09
dd
df
fd
f9
07
fe
e4
ee
f6
f9
0e
e1
f5
04
f0
05
fc
d6
e7
0c
e4
08
d3
e7
e4
04
c7
de
0f
00
e6
18
e5
ea
df
db
07
fe
ff
01
ff
ff
d9
e9
df
e3
da
02
0c
00
02
00
02
06
e5
07
06
04
f2
01
f6
04
06
fe
03
02
e9
e6
e4
00
fd
01
ff
0a
dc
20
f7
02
fe
01
ff
0e
9e
d5
0e
fc
ed
05
f8
ee
fb
10
fd
f2
bc
01
fc
ea
e2
f3
fd
fa
f8
f4
f9
ff
c7
f9
0d
02
e8
fb
f1
e1
eb
ec
ea
df
cd
ed
cf
f6
e7
ce
f6
fe
02
02
00
ff
d9
d4
02
11
86
04
0d
db
fe
e8
06
e6
06
24
fe
f8
de
02
f0
fe
fc
e3
e3
05
fc
04
fc
e6
e8
df
ea
02
0b
0c
fa
fa
fd
dd
e1
15
ba
c7
09
0c
e7
15
06
06
fa
10
f2
00
f2
dd
f8
0f
bd
f4
06
db
fd
d7
f8
ea
06
02
fa
fe
f4
01
03
0a
cd
e6
ff
fa
e8
0d
f9
11
fb
f2
ee
e1
f1
d9
02
16
01
06
e4
04
ec
f7
fd
05
fc
fd
fc
17
d7
12
fd
f7
d8
06
f1
fe
e7
f0
0b
e4
f9
0b
ec
e0
f8
f8
fc
0e
b8
db
fd
f8
f8
e1
dd
10
ce
f3
0f
01
ef
e2
ea
e9
f4
af
ee
04
05
01
fd
fc
c0
fd
04
e9
ef
0b
03
f9
fe
fe
fd
f2
be
f6
fd
09
f1
0d
f2
0e
ff
fa
f6
fc
fe
f8
ff
fc
f8
00
f7
ed
ea
f7
e7
f7
f1
fd
f7
00
01
ff
01
fb
f7
fb
e0
ff
f5
fc
f0
01
fa
06
07
fe
02
01
01
06
c9
e8
0a
d7
ea
f0
f3
e7
eb
c1
ff
fc
fd
0c
ce
e6
e2
d7
0e
ff
10
00
06
ee
0c
f8
18
db
f1
f5
e8
fe
01
ff
05
ef
03
ef
fa
f1
e6
22
e4
fa
c7
e9
dd
f6
0b
12
ef
05
04
bc
eb
00
0b
f4
ea
dc
fb
fe
dc
e2
fa
09
09
fd
fc
01
01
01
ff
04
02
fb
02
fc
eb
01
00
f9
fb
fc
fd
fb
fc
fe
fe
fe
02
d8
05
e3
e4
03
04
06
06
1c
ea
ff
f5
f6
02
fd
01
f7
f6
0a
12
04
09
f6
03
05
03
02
05
01
cd
ff
ba
16
f0
d1
f5
ee
e4
d1
f8
ec
d7
08
06
0f
09
e9
ff
fb
ee
06
03
fb
f9
05
01
fb
f3
0c
f3
e4
ef
04
d9
d4
d3
14
e7
e5
f2
fb
f7
f4
02
f3
eb
e9
f8
ed
e8
ff
ff
00
02
eb
0e
e4
05
00
f3
f1
f9
da
fc
11
eb
21
07
d4
de
e5
0c
f1
fc
fe
f6
fb
d1
fb
0e
f2
02
0a
fc
d1
f0
02
3e
01
d8
ea
1a
0a
fa
fc
ff
02
00
00
02
eb
fe
fc
ea
06
d7
fc
fd
03
f8
f0
11
9f
e6
00
f3
0a
05
00
ff
00
ff
ff
d4
07
f9
01
00
04
04
f7
fe
e6
f1
01
fe
01
04
14
f6
f9
07
0b
01
f8
fc
c1
13
f5
fa
0a
0c
c9
e3
f6
16
13
e8
01
fa
f3
ef
df
0d
f8
e4
04
e5
e0
ec
13
fc
ae
e9
0e
f9
e1
f5
fa
02
f3
ea
fe
ff
01
01
cc
13
0a
14
0d
09
f0
0c
f6
08
c0
fd
c6
12
f4
0c
fb
0a
f6
e4
0a
e7
d2
0e
fd
fa
08
02
01
c2
ee
ec
eb
02
f3
fc
fa
c9
f3
ea
16
c8
ec
e4
08
09
00
fc
06
06
07
f2
f8
d2
e8
f9
09
06
f5
fd
0c
eb
e5
03
d1
fa
ed
fc
00
ff
01
02
c1
cf
0b
fd
ec
f2
ff
d8
eb
cb
0d
c5
03
12
13
ec
fe
d6
ea
f4
ee
f2
0c
ff
03
0b
07
e5
e9
f9
e2
eb
02
d2
0d
f8
04
f9
05
da
0f
e6
f7
dd
fe
db
06
cf
07
f9
f7
eb
df
ff
ea
f7
01
08
f4
02
eb
fd
0c
f2
05
03
ba
f0
f9
fe
fe
ff
0b
e1
d0
f4
e5
11
0c
0f
fb
fa
07
02
f7
f8
e0
fa
f4
fb
fd
02
f9
eb
fb
00
ff
ff
fe
01
07
06
f7
02
08
e7
bb
da
f1
11
fe
f9
ff
fe
ff
01
fb
17
04
f0
f7
ef
e8
ee
f7
f2
fa
fe
00
00
02
01
0e
eb
f5
ec
fc
02
1a
14
1b
13
f7
fe
02
0f
fb
ff
11
23
12
f0
07
fe
14
ff
11
19
08
18
fd
ea
0a
e5
ff
ff
00
ff
02
ff
fa
01
ec
08
ea
04
22
26
0a
25
09
f8
0f
01
fd
27
0b
10
0d
2d
13
0b
0d
0b
16
22
ef
05
f5
04
00
02
ff
fe
0f
0d
0d
0a
07
fd
20
2d
06
0d
09
08
04
08
05
04
0c
01
04
ff
03
eb
05
f9
01
03
01
03
0d
f2
0d
e6
f9
08
0a
fe
0e
07
1c
ec
f1
0a
fb
f0
02
01
05
fe
0d
1b
34
1d
0e
43
18
1c
f9
12
2f
20
06
ed
2b
06
09
f4
fc
1b
fa
04
03
04
fe
01
06
04
28
f5
1b
0a
f6
34
1d
fa
e0
19
13
19
39
35
2d
04
f4
1a
f9
02
11
11
25
1b
01
00
01
02
fd
f9
17
10
06
fc
2b
09
1e
22
07
05
ff
00
09
1b
01
05
08
e6
27
38
25
19
00
15
01
09
fd
06
07
f5
0d
fa
f1
07
29
04
17
28
ff
01
00
02
fd
06
0c
15
0d
23
15
2d
07
04
ff
03
ed
35
24
0d
03
00
07
07
01
00
00
fe
fd
27
fb
33
05
06
06
06
05
0a
f2
07
01
00
01
03
01
ff
0c
e4
0b
fb
1c
01
01
ef
ff
f6
ef
ff
01
e1
ed
04
f7
10
26
2a
32
38
08
ed
06
fd
0a
17
1e
fd
09
0c
f4
04
13
23
20
16
f5
1c
0d
13
01
ff
ff
00
0f
22
0b
00
16
f0
1e
de
e7
14
2a
1b
21
fb
0f
0c
06
12
32
fe
eb
ff
1c
0f
f9
04
ff
04
06
5a
ff
30
04
fe
e6
09
24
2e
06
28
11
04
25
fb
f2
f9
f3
f9
eb
0e
fb
0e
0a
22
24
0b
ec
ff
0d
df
0e
18
3c
49
35
27
15
16
fe
00
00
01
f3
11
fa
06
f9
07
0a
e7
0a
1a
f7
11
fc
fb
00
10
33
21
03
fb
12
0e
1c
16
08
fe
f6
0a
01
e8
04
14
1a
21
f6
1b
1d
09
2d
2e
f2
12
22
18
01
04
f3
0c
0b
fe
16
fa
0b
0f
f9
11
e9
11
10
f4
05
0a
e6
0f
00
23
19
f7
02
02
07
03
25
0d
1e
ee
f4
45
e0
21
01
02
04
04
fa
2a
18
e5
08
01
f2
fd
02
05
13
08
06
06
0a
05
f3
14
09
fe
08
15
06
2a
0c
f9
04
f9
06
06
fe
06
0e
ee
08
27
11
06
03
05
00
18
08
12
02
fe
00
ff
0a
0e
fb
ed
05
f7
10
03
fa
35
20
18
f5
26
02
08
02
f6
0e
2f
01
f0
16
ff
04
fd
e2
f9
e4
f4
ff
f6
0d
0e
06
15
fa
12
02
03
d6
e3
0a
04
0e
36
3e
07
17
0a
c8
fe
0a
2a
02
1c
0f
2d
1a
18
1d
2a
1c
0d
05
e1
fe
ed
00
ff
ff
00
ff
06
06
00
00
27
04
03
07
03
ff
05
fd
fe
ff
01
02
00
02
fe
e5
f8
00
08
ff
02
fe
01
f3
18
fd
f8
fc
04
07
00
02
eb
0a
0b
e8
0b
10
f7
04
05
08
04
0f
14
21
2e
f3
16
0c
02
12
2a
46
04
17
0a
0b
00
02
0f
fd
19
06
02
ff
fc
04
fe
fe
fe
01
0c
dd
fd
3a
37
05
16
ec
01
0b
10
18
20
0e
0c
ef
0a
0a
2a
05
1e
22
0e
00
00
ff
00
f4
04
06
f2
fe
e2
0b
fa
07
eb
0e
06
08
0e
0b
09
e7
03
01
fd
15
02
0b
0a
f6
02
10
0a
f3
20
09
04
15
0c
0b
10
fe
2b
f5
09
03
fe
01
ff
14
06
1a
04
0f
58
15
12
03
02
0b
03
fd
25
10
08
07
ff
01
03
06
05
00
0a
08
13
f9
fc
03
02
08
02
0f
fc
00
fc
00
fe
fd
fe
fa
0c
0b
fa
f8
02
0f
07
0d
0e
01
08
f1
07
09
0c
16
14
f0
07
11
11
28
2a
1d
06
15
fc
10
10
15
13
de
1a
03
08
f1
fe
12
0a
00
33
02
09
02
00
00
fd
09
f7
1e
11
13
f0
03
07
03
1d
0e
17
26
e6
1a
0d
fb
15
18
09
f3
08
13
08
fe
fc
fc
00
01
27
fb
10
02
0e
00
00
e4
0b
13
07
f9
1e
34
ff
05
fa
ee
f8
e1
04
fe
0f
0f
39
14
02
f2
ff
04
f7
0d
2d
19
4e
41
0b
1a
1d
03
02
fd
00
03
11
ff
10
f6
11
08
fa
e1
0f
16
01
f9
42
fe
09
f8
fb
0b
12
1d
02
09
0c
ee
19
0b
06
f4
03
21
02
ea
fc
fb
eb
fe
12
26
08
16
17
0e
0b
07
26
0c
fb
fc
0b
0a
fd
1e
ff
f0
11
fb
06
12
06
e1
06
1d
0b
fb
3b
01
15
00
00
ff
fe
1f
0a
21
0f
26
e2
cb
ee
04
fb
02
00
ff
19
11
f1
e2
12
01
ff
04
06
05
f2
ff
00
00
02
03
00
04
04
ef
30
21
16
fc
f2
04
01
f8
fe
ff
fc
f6
35
f7
20
01
f5
06
09
04
11
09
08
ff
01
01
01
ef
17
28
f6
23
0d
0b
0f
0b
17
25
01
08
17
f4
f6
21
fd
08
f4
ff
1f
19
07
2d
13
14
0a
19
25
fe
0a
0d
1a
fc
0e
04
08
0a
04
16
11
03
0d
10
21
23
2e
15
ed
fd
01
0f
17
16
24
12
f7
0b
f0
1b
18
0c
25
15
eb
ff
f2
03
02
fe
00
04
04
fe
06
19
13
1b
17
0a
fc
ff
01
01
ff
01
01
06
04
0f
07
02
1b
ff
02
07
01
fe
00
05
05
01
07
0f
0a
05
ff
15
2b
f5
e2
0f
19
0b
f2
05
06
02
05
2f
2f
48
10
26
1f
0e
18
1e
17
13
18
10
06
f5
f2
01
01
f1
ff
05
02
02
fe
07
00
ff
fd
0f
0d
05
04
2b
fb
08
0b
0a
18
ea
0c
f8
fd
f2
06
2b
16
26
1c
20
0a
ef
fd
00
00
fe
ff
ee
ee
fb
17
09
18
f7
02
f8
46
09
0e
fa
02
01
0c
fd
ff
fd
e8
17
2d
2e
2b
11
27
0f
f4
fa
e3
16
fb
20
05
05
14
26
02
22
f3
ff
fd
01
00
fd
1a
1d
f9
23
2a
07
17
11
0c
08
0b
12
16
10
23
09
fe
fe
05
0e
0b
0f
0c
28
21
0d
16
01
02
01
01
f1
0c
fb
05
02
ff
ff
01
02
10
12
13
0f
0f
0a
17
17
fd
01
ef
06
11
1c
05
fd
fd
0c
f8
04
10
13
0e
13
1e
0a
fb
1b
08
08
00
29
e9
1d
f8
24
24
20
27
12
15
fe
fd
ff
00
01
ff
ff
1e
fc
f1
f4
08
0c
fc
00
11
15
02
15
df
0d
f9
0b
0e
13
fd
20
0f
2c
1e
09
fb
00
07
0f
22
12
05
0b
f4
f5
f6
17
16
0b
23
11
15
19
2d
f1
f9
eb
f7
05
04
07
09
06
09
10
13
f6
0d
00
ff
00
0c
02
f9
0c
23
13
25
fe
05
00
ff
fc
fd
f3
fb
08
fd
fa
07
1d
38
12
23
fa
ff
f0
f8
24
1e
02
02
16
0d
06
10
0b
0c
01
01
fe
fe
0c
0e
0b
11
0c
15
1a
25
35
1c
f9
20
13
32
1b
1a
f8
ff
fa
16
19
11
e6
0b
ea
07
ff
07
08
f5
f7
f4
f6
19
0a
12
0a
11
01
03
00
01
01
e7
ff
f6
1e
eb
f7
0d
05
01
ff
fe
fd
1e
18
0d
08
e9
04
10
0c
03
09
00
01
01
03
fe
04
03
06
02
22
06
2f
17
10
04
fb
04
02
fe
06
fd
17
08
e3
f5
0a
1a
0f
08
10
06
05
07
fe
02
02
00
17
07
10
17
00
f8
f9
ef
23
15
06
d6
fb
d0
fc
01
06
f2
f0
f9
e8
f6
1a
0b
de
dc
19
fa
04
ff
f7
f3
04
04
00
0e
0c
09
f8
f7
04
fe
04
e4
1d
00
07
f5
b5
05
fc
fe
13
f3
03
18
0b
df
f9
0e
ea
e5
02
0e
d8
ec
02
02
f9
fd
ff
fd
fd
08
fa
00
1e
ec
f2
ed
ff
ff
fa
f7
02
ff
ff
01
ff
02
03
02
13
e1
f6
f6
ff
01
fe
fe
e0
00
04
f0
ec
f2
f1
01
03
f5
ff
fa
06
05
13
13
02
02
00
01
c9
14
12
f7
18
1a
08
fa
f4
f1
10
01
e0
d7
17
00
17
f5
19
0a
fe
02
fa
fd
fc
fe
f7
f7
da
e3
0d
f3
cb
ff
10
f4
dd
ee
18
fa
f0
02
f7
fa
0c
da
d9
eb
04
d8
00
fd
01
fe
ff
01
1f
e1
13
07
0c
e4
ff
e2
d0
18
09
f4
0c
d2
f2
f4
0f
eb
fd
f7
e0
10
04
19
04
f1
07
e5
fb
f8
fc
03
ff
e9
ee
03
07
e1
f5
f2
fe
ff
fd
fa
0f
18
fa
f6
05
d7
01
09
03
01
ff
00
00
fb
04
1d
f3
fd
fa
fc
00
02
07
03
e3
d8
05
f6
fe
fe
01
01
ce
12
f1
fc
fc
ff
fa
00
f0
fc
06
02
07
ff
f6
f8
12
ef
ee
10
0d
ec
02
e4
d4
0c
fc
07
e9
0e
fd
03
14
f3
ef
e2
0c
ff
ff
fa
32
f8
df
03
1b
12
0a
fe
fa
f1
0d
01
ff
00
01
fe
f7
1c
0c
07
ff
04
06
0e
fc
f5
1d
0b
00
f6
0d
15
fd
f2
03
f8
00
e5
14
00
f9
fc
ff
fb
ea
cc
01
06
06
f7
f9
f0
31
05
0f
f4
ce
04
0b
fe
ef
0e
fc
f3
16
e4
eb
fc
f9
f3
f8
f5
f4
03
04
f8
0d
d7
fc
fb
ee
fd
ff
02
06
08
08
03
e2
09
10
e2
0b
f6
fb
ef
07
08
ff
f4
ff
db
fd
ee
1c
f0
f6
fb
e8
00
ef
00
25
19
df
05
f4
11
ed
e8
0d
02
05
fc
18
e2
d6
dc
01
e7
f6
10
fa
dc
03
02
ef
fc
09
fe
ff
01
13
f1
03
04
f4
01
15
f9
fe
00
10
ec
04
0c
03
04
fd
09
ef
e8
fa
f0
e5
b6
06
fe
fe
fc
f9
f4
f7
12
06
f8
00
0f
fe
f1
ff
fa
08
03
00
ff
01
02
ff
f5
00
fe
08
f2
eb
fb
ff
f6
09
08
04
04
fd
02
11
e8
e1
ff
ff
07
d0
ff
fb
00
03
fb
00
fe
00
01
f9
f2
04
f6
00
08
05
f7
1c
0a
0c
07
0c
f6
ef
0c
0c
1c
12
ff
f3
15
1b
10
17
30
16
1e
00
f8
00
00
ff
00
ff
00
05
13
08
10
0a
18
fe
f2
23
0f
0d
0b
07
16
0c
0f
06
11
ff
0e
07
f9
09
0b
03
f6
f7
04
fa
23
04
0c
03
05
02
05
07
09
07
03
fd
19
0c
14
ff
04
0c
0a
03
fe
03
fe
06
06
05
03
08
e8
f2
1b
02
ff
03
00
12
04
15
fb
03
05
08
06
ff
13
13
ed
f4
04
e7
f9
02
fe
ff
02
0d
00
f7
ff
1f
06
13
17
0c
14
19
16
19
fc
15
23
1a
fc
0c
03
01
fd
05
04
fc
ff
01
03
18
0c
09
1b
1d
01
0d
07
0d
33
19
08
16
05
1b
06
07
16
2a
f7
19
04
01
1b
01
00
02
00
fc
fa
0c
18
0c
15
f0
0e
fc
31
23
06
13
fb
dd
05
f9
06
ee
fb
01
28
1f
1d
12
28
ec
f4
0a
0c
02
f7
f1
fb
0b
08
1d
00
12
07
02
04
05
08
0d
33
ff
f9
fc
12
1d
0d
05
06
07
09
0d
22
1c
10
06
fb
05
06
00
01
03
02
f9
10
14
10
00
01
02
fe
ea
0e
fb
f3
00
02
05
04
fd
11
0f
00
01
0d
09
fb
0b
fe
e2
08
00
0f
08
05
00
0a
0d
02
01
0f
0f
0f
01
0e
fa
09
06
0a
06
10
17
0f
19
0a
19
35
10
27
15
09
fa
0e
00
00
03
05
f5
3b
fc
03
e9
04
15
06
fc
fa
09
06
07
28
25
04
fc
17
0a
ff
23
fb
1f
1b
04
04
00
04
f9
0b
12
29
09
f6
f2
0e
35
45
04
1a
0f
06
0c
ee
fa
ff
f2
e6
f5
f6
f5
f5
13
17
21
14
f6
0d
fa
e9
10
11
16
09
0c
0d
06
0a
03
03
0a
03
0d
1d
16
02
03
e8
ef
00
0c
2d
eb
14
10
01
ef
11
1c
0c
11
09
06
ff
0a
03
fb
25
fc
0c
e8
01
04
02
16
21
11
0b
08
1f
24
18
f3
1d
19
1a
05
f9
e8
00
05
09
0c
03
11
0c
0b
0a
f9
15
e5
f2
09
00
f7
0d
29
f3
f2
1e
06
fd
04
03
0d
14
13
f7
11
2c
06
04
00
fc
02
03
eb
25
fd
fa
07
f6
ef
17
0d
07
12
16
fd
ff
00
00
01
04
00
06
05
12
04
ff
02
fa
00
05
01
04
02
03
08
eb
0f
0e
12
11
0c
06
fb
01
05
0b
00
01
ff
01
08
02
06
fe
ff
fe
00
fd
fe
fc
fd
02
01
02
fe
02
ff
01
00
02
ff
ff
fc
00
00
fe
00
ff
00
fe
fe
ff
01
02
00
02
01
fe
00
fe
00
00
fd
00
ff
ff
ff
01
02
ff
fe
01
01
00
fe
00
fe
ff
ff
01
02
01
fe
ff
fc
00
01
fe
ff
ff
02
fe
fe
01
02
fe
00
00
fe
02
ff
01
ff
ff
02
fe
fe
00
00
01
fe
ff
01
fd
00
00
01
ff
ff
01
ff
ff
fd
fd
ff
ff
fe
fe
ff
01
00
ff
fe
fd
02
fe
01
ff
01
ff
fd
fe
02
00
ff
fc
ff
01
00
01
ff
fe
01
fd
fe
ff
ff
fe
ff
ff
fc
02
ff
02
fe
fe
ff
fe
fd
ff
fe
fe
ff
00
00
02
00
fe
ff
ff
fe
fe
02
01
00
01
02
00
fe
fe
ff
01
01
ff
fe
00
fe
fe
01
fe
00
fe
fd
ff
ff
fe
ff
fe
00
fc
ff
00
02
fd
02
02
02
00
02
fe
ff
ff
ff
01
00
fe
fe
ff
fe
fe
fe
ff
01
fd
fe
00
fd
ff
00
02
02
fd
ff
00
ff
fe
ff
00
01
01
02
00
00
ff
fe
00
ff
01
fe
02
00
00
00
00
ff
01
ff
ff
01
fe
fe
fe
00
ff
ff
ff
ff
02
00
02
ff
ff
ff
fc
00
01
fe
00
00
fe
00
ff
00
ff
01
ff
00
fe
00
ff
ff
01
00
00
01
00
00
fe
00
00
00
01
00
fd
ff
fd
00
fe
00
fe
ff
ff
01
01
fe
01
01
01
ff
fe
fd
fe
fe
fd
fd
fd
ff
00
ff
fe
fe
ff
02
00
00
00
fe
01
fd
02
ff
00
fd
01
fe
ff
00
fe
fd
01
fe
fe
01
00
ff
fe
02
02
ff
fd
00
01
00
ff
fc
00
ff
01
00
fe
ff
fd
fe
fe
01
fe
fd
fe
00
01
01
01
fe
fe
ff
fe
ff
01
02
ff
00
fe
ff
fe
01
00
01
00
02
fc
02
01
00
ff
02
fe
fe
01
fe
ff
00
fe
fe
00
00
ff
fd
fe
fc
fe
ff
fe
fe
00
01
fe
ff
01
02
00
02
00
00
00
00
fe
00
ff
00
ff
01
ff
ff
ff
00
00
01
00
00
ff
01
fe
01
00
00
00
fe
01
01
02
00
02
ff
ff
fe
01
00
01
00
00
fd
01
02
ff
ff
fe
ff
01
ff
00
fe
01
00
ff
ff
01
01
01
02
01
fd
fe
fd
02
fe
fe
ff
ff
fe
fe
00
ff
ff
ff
01
01
fe
fd
00
fe
ff
ff
ff
ff
ff
01
02
ff
01
fe
fe
01
00
00
ff
01
1d
14
17
12
f6
2c
38
15
f5
13
01
07
1b
d9
0d
14
f1
21
05
f9
06
f3
f7
23
f2
0c
11
00
02
03
01
ff
04
06
0a
0b
17
0b
f1
11
01
31
2a
1e
15
02
ea
10
0f
34
34
30
17
24
32
0a
14
28
23
22
f7
f4
ed
0e
07
03
01
ff
10
12
14
12
0d
03
0a
01
06
06
03
0d
06
03
ff
04
0e
05
10
00
ef
03
20
fc
01
04
02
03
f7
15
00
fb
f8
0f
0b
fb
04
1c
fc
0d
f6
19
06
ef
06
06
04
fe
19
64
24
2d
12
13
22
09
0e
1f
23
07
14
13
00
1a
fc
14
0a
00
fe
04
00
05
00
03
02
02
03
fc
05
2d
49
69
00
18
f4
17
f7
1b
28
36
0e
29
2b
0f
fc
24
10
18
24
11
fe
ff
01
ff
f7
eb
16
f5
fc
18
0a
f4
ef
25
10
fa
ee
0a
11
f8
f2
f4
09
f5
0a
0f
33
1b
f3
0b
18
02
f9
f7
f8
16
33
ee
0a
26
03
fb
f7
ff
01
03
00
03
02
02
1d
0a
f8
1e
1c
1a
0b
03
08
03
f3
1c
2a
1d
00
02
01
05
08
0a
03
0b
0e
2b
f9
16
04
03
02
05
09
ef
f3
fd
03
ff
ff
03
f7
1a
05
04
13
09
2b
f9
13
f5
1a
e6
f8
02
33
08
11
27
f7
09
11
25
1b
2d
27
1f
07
f6
17
0a
2b
05
04
0b
1c
1b
f1
07
1f
02
15
2a
24
03
fe
ff
fe
04
23
16
00
f8
fa
16
0b
05
22
14
37
26
23
e9
ff
01
09
0b
2f
ff
0e
13
2a
f1
fa
ff
ff
09
07
51
fa
0c
0a
eb
f9
03
02
20
f8
fb
0d
22
18
2c
00
00
f5
ff
f4
fc
08
0b
2c
3c
32
10
f0
fe
ff
f9
0c
46
1c
2d
2b
31
29
0f
01
fe
ff
00
17
1c
f0
2b
f7
00
03
06
f8
30
fa
22
ed
0c
f7
f7
f8
01
0e
17
12
11
13
1a
0a
07
00
08
11
00
0d
00
ef
2a
e2
fc
11
0b
13
19
00
1b
1c
12
03
0f
09
19
09
0c
05
0f
12
f6
10
01
f7
f9
fc
ff
03
ed
0a
19
13
1a
1f
07
09
09
08
0a
09
0f
f3
28
29
ee
f4
14
01
07
04
07
12
1d
16
04
ef
f3
11
f6
08
f8
fa
fb
03
01
02
01
fc
ff
01
03
fb
0f
31
21
00
fe
0b
04
01
06
02
04
fe
0b
e7
0c
03
f4
1c
f0
10
1e
0c
0d
fe
00
02
ff
07
1a
1a
07
f3
fe
05
0b
12
26
24
06
fb
5d
04
f5
f2
f0
13
2b
04
0f
10
07
00
d7
f3
10
e5
eb
10
fc
00
00
02
04
f7
0f
0c
02
e2
fb
01
fc
16
24
25
10
f1
ff
f6
0d
11
33
0b
11
0c
50
06
03
0b
49
15
ed
f9
ef
f9
12
01
ff
00
ff
01
09
0a
07
f7
1d
04
fe
09
04
08
03
ff
03
fe
01
03
0a
02
03
e3
fe
fe
f6
fe
00
00
fe
fb
0d
10
00
0a
09
09
04
ed
e4
14
08
e5
01
0a
f5
00
fc
00
ff
05
18
09
0d
e4
fe
02
f8
0f
22
21
f2
0a
19
0e
fc
00
2c
e9
22
01
f6
04
f2
00
f4
07
fb
00
01
04
02
34
3b
26
26
08
15
0d
12
12
12
1d
00
0f
12
16
09
ff
1c
0f
f8
01
00
01
ff
ee
20
fa
00
dc
e2
03
06
05
03
22
0b
fc
24
f9
0c
df
09
05
0c
1a
00
07
ff
0e
11
1c
11
fd
1a
02
02
02
f1
0c
15
fe
20
0a
0c
ff
fc
08
fd
07
f1
25
f5
f7
5c
20
fd
ff
05
05
06
12
23
13
0b
09
ff
0b
fb
00
01
07
ff
fa
25
06
fc
03
00
ff
02
05
f6
ee
fd
02
fe
06
ff
ff
0c
02
00
02
00
1a
14
ec
10
04
ff
f9
16
0d
11
00
10
fc
1b
01
11
fc
04
e2
e7
16
01
0b
15
19
fe
06
1d
18
14
ea
f7
02
ff
06
21
f9
16
00
fd
02
fd
fc
07
1a
08
f9
ea
03
0c
0d
29
09
1e
ee
e1
07
1e
ff
09
1b
0f
1b
0a
07
ee
04
fb
08
fd
0b
1c
fb
12
ea
14
f4
06
ea
16
0c
0c
fe
20
1e
f3
01
f6
ed
00
f9
18
fc
fd
05
1d
0f
f7
eb
09
07
00
12
2f
20
3e
1c
12
fe
04
fe
02
02
01
fe
1f
10
15
e2
07
ff
ed
ec
00
0b
fc
f7
2c
08
01
fb
11
13
20
1a
f7
10
ff
e5
17
18
05
f2
03
f1
0e
f1
0f
07
fd
eb
0e
1a
ff
08
1f
25
00
09
15
0b
fa
03
16
05
fe
19
06
e9
08
ef
11
07
00
f8
11
fe
09
fd
3b
f5
12
fd
01
01
00
09
13
13
07
0a
d0
e4
18
00
f5
08
fc
ec
10
12
fd
e5
19
f1
ff
0d
0a
fc
ff
07
02
04
02
02
05
00
fe
f8
27
15
03
f2
fa
02
f9
07
08
09
0b
e5
15
1f
1b
f9
06
20
25
04
03
0c
06
ff
ff
00
02
01
15
11
09
0a
11
37
08
0e
40
3e
18
ef
2d
f1
0c
20
f0
17
23
f4
14
f8
0d
f9
e7
bd
13
f9
15
03
02
00
01
01
00
f6
25
14
13
df
ee
13
fe
ff
4d
30
32
1b
fa
c1
02
f5
3b
16
18
07
1d
22
1f
41
3e
1b
18
ed
f9
fe
0b
02
04
03
05
00
04
0e
09
d1
0c
f7
ef
07
05
0a
13
07
05
07
04
07
0c
07
0a
ef
20
05
fb
02
03
01
02
f6
1c
d0
07
09
07
02
01
ee
db
f9
0e
d4
10
11
ee
06
08
05
06
27
25
43
26
f6
fc
0d
0e
20
2a
1f
f6
0f
16
17
11
09
0e
04
fc
f7
fb
01
fd
01
fe
01
01
00
f4
c7
06
27
3c
21
0c
0e
fa
18
06
36
1a
1e
2a
fb
28
3a
1e
0e
24
2f
29
ff
ff
00
01
0b
02
ff
08
0a
29
10
0d
0d
ff
06
38
f5
22
0a
16
df
0b
0a
f5
10
0b
07
0f
0c
21
21
09
f6
04
e8
16
0a
4f
0b
14
f0
13
e3
ff
02
fe
04
00
f7
4b
29
12
d8
4f
0e
1b
07
fe
10
01
f8
1f
07
25
00
f4
00
0a
01
01
fe
ff
fe
1f
fd
2b
02
00
ff
03
0b
f2
04
f7
02
00
01
03
e4
13
f0
07
f6
fc
26
17
19
0f
07
f0
d9
11
25
1e
0c
0f
10
0a
21
07
33
2e
08
43
28
22
f9
31
26
2a
f6
18
15
2b
f4
05
06
0d
00
2d
0d
17
01
02
01
01
02
07
2a
11
ec
2a
01
00
10
13
18
2a
14
1c
28
fd
ff
19
36
17
fe
ee
1e
f7
ff
fd
02
06
08
74
00
18
00
0f
05
e4
f4
2b
f7
24
02
25
0f
07
f9
02
08
f4
df
0e
03
fb
0e
32
24
10
e4
02
fe
03
e9
24
3f
1b
22
10
1e
13
fd
ff
ff
ff
15
0c
fe
1a
1d
14
00
f9
db
19
0b
28
cc
1f
fa
fd
34
ff
f9
20
27
08
11
11
db
1c
02
f9
e1
0b
24
07
da
14
f4
10
d1
16
f9
fb
e3
24
1d
0f
ef
2a
01
08
f1
10
f7
0c
1b
f4
0c
1f
e1
f8
0a
08
ff
1b
01
0b
e2
2a
07
17
09
02
07
04
07
fa
02
15
0e
01
10
06
fe
fb
05
00
fb
0e
1c
11
d5
1b
15
ef
ff
00
06
00
01
ff
03
01
f8
ff
06
11
eb
2e
1d
3e
f0
fa
ff
0e
10
0c
0d
10
ee
3b
55
14
eb
45
36
24
0b
0d
0b
0b
01
00
00
02
d8
1e
24
0d
0b
02
08
00
f8
f0
ed
14
ff
f6
f7
ff
26
f8
14
fe
f3
14
dc
07
14
25
19
0b
08
02
e6
17
ff
fd
00
00
10
f6
04
0b
01
1c
0f
02
e9
f2
ff
0e
12
04
16
0a
f0
01
0d
01
08
f2
fe
06
0b
e7
08
09
0b
14
fd
01
fd
ff
fe
02
05
04
03
00
03
f6
0b
17
fb
04
ff
00
01
02
05
02
01
00
08
07
f5
00
d7
10
02
00
02
fd
12
12
f3
04
03
fa
fc
00
0d
0c
07
fe
1a
fd
07
08
00
03
00
04
13
e6
0f
fd
f5
d4
06
fc
03
ec
03
ff
05
e0
fc
17
ee
e4
e8
f2
01
fa
ff
00
fb
01
ff
00
20
19
12
0c
13
d1
ea
fc
02
14
03
ee
f8
f7
eb
06
09
0f
0b
fb
14
f8
f3
fd
01
02
02
00
fc
f8
06
0f
e5
15
da
f6
ed
0d
e2
0e
d4
f4
f1
d5
fc
f6
00
eb
f2
00
0a
fa
f9
ec
fa
f5
0c
f9
02
05
fb
df
10
07
fc
e2
fc
f8
00
02
ff
03
0b
da
de
0b
0e
e1
fd
05
01
04
01
01
ef
f6
f7
f2
f8
fb
fb
02
03
04
03
03
20
f3
05
05
00
03
02
00
06
fd
0d
0d
fd
00
fd
03
0f
0f
d5
0e
05
08
01
07
01
f6
f0
fd
11
12
dd
19
04
fd
15
07
01
09
09
fa
f0
06
c6
fc
0a
ed
fb
05
25
19
1b
11
f3
e8
03
01
e7
e8
d0
f3
ff
02
00
03
fb
f7
e3
07
07
15
ef
0b
e4
07
eb
f6
09
08
00
ff
eb
ff
e8
0e
12
f4
01
08
04
01
02
ff
11
e9
05
e9
f3
f2
e9
0a
0c
e5
08
0c
1c
08
f7
1c
f6
03
fb
f6
ef
13
0d
fb
04
f4
0a
fd
15
03
ec
0b
e7
f8
df
f6
f1
f4
f0
fe
01
01
01
01
ff
03
08
cc
e4
ec
e4
03
17
f9
f0
22
01
fa
f5
02
eb
ff
13
0f
02
00
0c
01
01
18
02
20
03
00
f3
10
03
fa
02
0b
09
17
13
1f
f9
fd
06
f2
11
f6
fd
06
07
13
e5
10
f4
fe
ec
07
0c
f6
02
ff
ea
fe
fe
04
b5
f8
e2
ed
00
02
03
04
09
e1
f9
fb
f9
12
1a
ff
00
ff
ff
fd
0b
1c
ff
19
01
e1
00
08
fb
ee
fd
0a
06
fe
00
02
f5
03
00
fe
19
21
15
18
fa
f3
fb
fe
02
04
04
03
05
ec
e9
ee
fd
ea
f7
19
02
f6
07
0a
00
ff
01
01
1f
07
ee
0e
14
df
13
00
1a
fc
12
fe
01
f4
f5
f7
fd
2e
0a
08
1b
0a
f8
f2
0c
fe
08
09
02
e3
f9
e6
02
04
02
06
13
f2
09
f6
16
e3
0f
f8
1a
f3
05
00
f1
f5
e7
03
f6
f2
fc
e3
f7
04
e9
ec
0e
f3
f6
f5
03
fb
11
09
00
03
02
02
01
ff
08
fe
02
b6
eb
03
ff
fe
f8
f3
01
fb
01
03
f9
fe
ff
02
0c
f0
fb
e5
fe
01
01
fd
e3
ea
ff
04
0b
00
fe
03
f7
07
07
04
18
ef
05
fd
fe
ff
ff
fe
f2
d9
ef
01
f6
d0
01
f1
08
d8
ec
ee
02
fe
ee
eb
0f
ee
01
01
fd
fb
fa
f6
fe
02
fc
fb
fb
f5
05
fc
fd
ce
fd
f4
11
da
0d
fd
f0
f7
ca
e8
1a
ea
0b
f1
ff
04
c9
f0
fe
02
ff
ff
0a
fd
05
f4
01
d0
ee
e5
26
23
f9
d3
fe
fa
e6
f6
05
ff
0b
01
0b
2a
0d
0e
ec
f9
f6
f8
fa
f9
14
16
f9
f3
0c
df
10
d7
e6
0b
fd
01
fe
fb
f7
d3
fa
f7
09
d7
fe
f0
fa
ff
02
00
05
02
0a
f6
00
03
fd
fe
00
00
ff
00
01
d2
08
01
ff
fd
fd
01
09
ef
11
0e
fe
fe
ff
fe
07
f1
fa
0c
01
07
07
eb
04
06
07
f1
28
ff
09
03
0a
13
e1
04
03
19
f3
01
1b
d3
0d
ed
05
e8
00
ef
01
09
1a
17
ff
15
09
05
0f
f0
bb
ee
02
03
01
fe
13
fe
06
e9
0a
da
fc
f1
ed
e9
e7
e3
10
12
14
05
04
eb
08
00
f9
f2
f6
d0
02
fd
02
fb
01
db
02
fd
0a
fa
11
e6
fa
0e
09
1b
ee
da
df
0d
fd
e8
0d
0a
10
ef
06
eb
f7
eb
e3
f7
17
eb
00
03
df
d1
02
e0
e2
0b
e7
f5
01
fd
ff
01
0a
d0
ed
f6
f4
ec
fb
fb
24
f1
0f
e9
0a
ed
d0
ed
e1
06
ff
f1
fe
01
f7
ff
06
f8
f3
12
0e
da
ff
09
09
03
0d
0e
11
cd
e8
f2
ee
05
08
cc
0c
ef
e6
f5
ec
ef
fd
08
02
09
f2
fe
0c
f2
05
0e
15
fa
09
f9
03
f8
c2
e2
01
01
01
fe
f3
f2
02
08
e7
f7
0c
0a
03
01
fb
f9
10
fa
13
00
ff
0c
12
00
f8
01
0b
f5
fc
00
fc
ff
ff
f8
02
f3
00
0e
11
0c
fe
fc
fb
ee
03
04
04
01
22
e4
0e
0c
04
d7
03
ea
05
03
fd
09
03
ff
ff
02
fc
ec
fd
10
18
0a
11
15
eb
40
3a
24
df
29
f4
06
28
e5
02
13
ee
07
05
07
f1
e2
ce
17
f1
29
08
03
00
fe
01
fb
03
1f
1b
0e
f4
f9
0a
06
06
7f
3a
36
07
fa
c5
04
00
18
ff
0c
0b
34
31
11
11
2c
07
3a
e2
fb
f7
07
04
fd
00
fd
07
05
09
07
e8
16
ff
e5
07
08
0e
0e
08
05
00
04
0d
07
04
05
f8
23
04
fd
02
ff
fd
00
f9
16
db
09
09
14
06
01
fb
f6
f4
01
e9
08
10
f5
06
02
03
01
37
1a
28
2b
0b
ee
f2
03
16
0e
1e
ee
13
13
fc
1c
f8
05
03
e7
fc
04
00
f8
01
02
00
01
eb
ec
cd
1f
25
34
11
28
08
13
fb
1b
22
29
14
3a
fd
26
1b
03
f4
15
21
0b
ff
ff
01
02
08
02
f1
f3
f9
27
08
23
f4
fa
11
28
05
1a
0f
13
e4
10
12
02
04
ef
f8
16
1e
0f
05
fa
f2
fb
f5
15
0d
41
16
2a
10
1e
e5
ef
fe
02
ff
fe
05
23
0f
09
f7
30
27
0b
fc
fe
00
00
02
07
10
35
fe
02
fa
00
03
03
fe
02
14
38
00
1e
03
01
01
01
06
e9
0d
02
00
05
fe
fe
f0
0c
fb
01
f3
12
0e
2d
11
17
14
f9
e5
03
1c
fb
0b
16
1c
1f
28
1b
20
16
fd
31
0e
3b
17
1c
17
13
fb
0d
0f
17
e3
0a
1e
17
f7
2b
01
15
01
02
00
ff
0d
1a
15
16
f5
0f
06
08
f1
21
22
2b
20
0f
1d
09
06
28
31
13
f9
fc
33
f6
ff
07
fb
02
fd
3f
f5
2e
0a
12
03
ee
ee
2c
ec
12
fd
09
03
1a
fe
09
03
00
fb
1a
fc
f2
12
38
25
ff
f0
fb
09
03
e4
2a
25
35
25
18
22
0e
fa
00
00
00
22
0e
f4
1f
03
0f
fe
02
dd
2b
29
1d
d9
27
fa
e2
04
12
f6
24
19
22
13
0c
df
17
18
ff
f7
08
14
00
dd
07
e6
0d
fa
11
f6
f9
f2
0c
0f
1f
00
14
06
00
05
13
09
20
0d
04
05
20
f3
f6
10
ff
00
0b
ef
06
fb
18
02
15
07
fc
ff
02
0a
f0
01
1f
0f
fe
14
18
02
06
04
ff
03
13
1b
12
f8
0c
fe
f9
f9
ff
0a
f8
04
00
01
00
f6
02
07
05
e8
0a
14
21
fa
07
00
01
02
05
04
05
f2
12
3d
2e
fc
46
2e
3d
09
16
0c
01
00
ff
00
fe
f0
17
10
fd
02
01
ff
00
00
fe
ff
fd
fe
02
ff
00
fd
01
ff
03
fe
01
01
fd
00
ff
fc
ff
00
fe
fe
ff
01
fe
01
fe
fd
ff
ff
ff
fd
fe
01
00
01
ff
ff
01
fe
01
fd
00
fe
fd
00
00
00
00
fe
00
00
01
00
ff
00
00
fd
ff
00
ff
00
fe
fe
ff
ff
01
00
01
01
ff
ff
00
fd
01
00
ff
01
ff
00
00
fe
02
00
fe
fe
00
01
ff
00
ff
ff
00
fd
00
fd
02
ff
01
00
ff
ff
fe
00
ff
ff
ff
ff
fe
ff
02
01
00
fe
02
ff
00
00
fe
01
fe
00
00
fe
ff
ff
ff
ff
fd
fe
fd
ff
fd
00
fd
fe
01
00
00
01
00
fd
ff
fe
01
00
fe
fc
ff
00
fe
ff
00
ff
fd
fb
00
01
00
ff
00
fe
fd
fe
01
01
02
ff
00
01
ff
fe
00
01
01
fd
00
ff
fd
fe
00
ff
fe
fd
fe
ff
01
00
00
00
01
00
00
ff
01
fd
00
ff
00
ff
01
01
00
00
00
00
00
fe
00
ff
00
ff
fe
fe
00
00
02
ff
ff
fe
ff
01
fe
00
fe
00
01
00
01
fe
01
ff
ff
02
fe
00
01
fc
fe
ff
fe
fe
00
00
fe
00
00
fe
ff
ff
fd
fe
01
ff
fe
00
fe
ff
fe
01
ff
fd
fd
00
00
ff
00
fd
fe
fc
01
00
01
00
fe
ff
ff
fe
02
fe
ff
fd
fe
01
fe
fd
01
00
fe
fe
03
fd
ff
fd
00
ff
00
fd
01
fd
fd
fe
00
00
fe
ff
01
fe
fe
01
00
00
00
fe
01
00
ff
00
fd
ff
fe
01
ff
fe
00
00
ff
00
ff
ff
00
01
ff
fe
fd
fc
fe
00
fc
ff
01
fd
ff
01
fe
00
00
ff
02
ff
00
ff
01
fd
fd
ff
00
ff
00
00
ff
fe
fe
ff
ff
ff
ff
fd
fb
00
fe
fd
ff
fd
ff
00
fe
00
00
01
fe
fe
ff
fd
02
fd
01
00
01
fc
00
00
00
fe
00
fc
fe
01
ff
00
01
ff
ff
fe
fe
fe
fd
fe
00
fe
00
ff
fe
00
02
00
03
01
01
fe
ff
fe
fe
fc
fc
fd
fe
ff
ff
ff
ff
fd
fd
00
02
00
02
00
00
00
02
ff
00
00
01
00
fe
ff
01
01
ff
fe
00
fe
fe
01
ff
00
ff
ff
fe
fd
00
00
fe
fe
fd
fe
00
fe
02
03
00
ff
02
00
00
ff
fe
00
ff
01
02
fe
01
00
00
fd
fd
fe
fd
fe
ff
ff
fd
fe
fd
fd
fd
ff
01
02
ff
ff
00
00
fe
21
0d
1b
00
0e
14
34
08
12
1a
f2
01
00
0b
07
03
f2
19
1f
0a
1c
2c
2c
f8
f5
ef
fa
14
ff
00
05
03
fd
09
03
14
ee
07
0d
e5
14
2a
53
3c
1f
23
0b
fa
02
1f
21
ff
fb
10
1d
0f
0d
fe
09
1a
09
07
ff
f4
0b
0c
0a
0f
07
0f
11
12
eb
16
30
10
08
fb
0f
07
01
02
03
ff
02
ff
06
fe
05
f4
f9
17
04
02
fc
ff
06
18
fd
ec
06
03
0d
06
0c
10
11
08
f3
fd
f8
e2
03
03
03
04
2c
0a
fc
24
0b
1c
19
03
1f
17
25
04
29
f2
12
10
13
fc
01
0c
07
f9
06
06
03
f8
05
02
18
13
0d
f3
3c
07
24
fd
27
12
16
fa
23
10
1a
1d
f3
ef
31
1b
17
11
0e
1f
ff
01
02
00
e3
eb
0c
20
12
1a
18
14
0a
22
0e
07
fc
10
0a
19
f2
ff
02
f2
1c
31
1a
1c
ef
35
1f
12
05
00
fb
fd
f0
ed
09
0e
0d
0c
1c
25
00
fe
03
01
06
24
2b
18
f6
36
09
13
0b
08
0c
07
0a
21
18
fc
09
fa
02
01
00
05
06
04
0c
34
11
09
fe
ff
fe
00
f8
0d
02
e4
01
fd
00
01
f6
16
13
f5
f1
0b
26
04
06
ff
ea
f4
fb
23
11
f0
fe
1c
fa
e1
15
10
17
26
14
1e
11
2d
ff
00
18
0f
0b
18
0e
fc
32
33
28
0f
19
36
14
11
ff
fc
01
fe
f2
2d
1d
00
05
12
09
19
04
08
12
10
0b
22
16
f8
f2
27
0d
fe
fe
eb
1e
10
0a
fa
04
02
21
44
09
15
fd
e6
fa
02
3d
2a
22
1f
0e
18
1b
10
fe
00
f4
ea
c7
d2
10
07
0f
0f
17
0f
ec
17
f2
f1
fb
1e
51
27
20
13
13
15
01
03
02
fc
15
0b
f8
fd
0b
fd
f2
0f
f9
30
16
35
fd
17
e4
0b
02
07
23
fb
29
05
0a
03
dc
2d
08
e9
f7
09
30
eb
28
1c
08
0a
ee
03
3a
00
d8
1d
2b
0e
fa
20
f3
05
fa
10
0a
ff
1c
09
e5
16
f8
0e
fb
0b
e3
f8
10
23
17
0b
18
1f
03
02
08
02
20
0a
05
10
1f
2b
06
f2
05
f8
04
03
e1
14
0f
eb
f9
01
15
fc
01
fa
05
0c
02
07
0a
05
ff
0e
03
fe
f7
28
06
fe
fa
01
0a
09
0a
08
0f
08
05
16
06
29
0a
18
28
16
0a
00
0a
06
02
01
00
00
01
14
07
e5
01
00
01
fe
00
ff
ff
fd
ff
ff
ff
00
00
fe
02
fe
00
ff
02
fe
01
00
fe
fd
ff
fe
01
fe
01
ff
01
ff
ff
00
ff
fe
01
00
fd
00
01
fe
01
fe
fe
01
00
ff
00
fe
ff
00
ff
fe
ff
fe
00
00
ff
fc
fe
fe
ff
fc
02
00
ff
00
ff
fe
02
02
fe
ff
ff
fe
fe
fd
00
fd
02
02
01
ff
ff
01
01
fe
fd
fe
fe
fc
01
00
fe
fd
fe
ff
ff
fe
00
fe
ff
fe
fe
ff
fe
ff
fd
fe
fe
01
01
fe
00
ff
fe
fe
ff
01
00
01
fe
fe
00
ff
fd
fe
02
01
00
ff
00
fe
ff
ff
00
02
00
ff
00
00
00
ff
fd
fd
ff
fe
fe
fe
ff
01
00
fe
fe
00
ff
ff
ff
ff
fd
fe
fd
00
ff
00
fe
fd
ff
00
fe
ff
ff
ff
fd
00
00
fe
02
02
00
fd
01
fe
fe
fe
01
fc
00
01
fe
00
01
ff
fe
ff
ff
ff
01
ff
ff
fe
fe
00
00
01
00
fe
fe
ff
00
fe
fe
00
fe
ff
fd
00
ff
fc
00
02
00
ff
02
fe
fe
ff
01
00
00
00
00
01
fd
00
01
ff
ff
fe
01
00
00
fe
00
01
01
01
01
00
ff
01
01
01
fd
fe
ff
fc
fe
00
fd
fe
fe
fe
fe
01
ff
fd
00
fe
ff
fe
00
fe
ff
01
01
00
ff
fe
ff
01
01
00
ff
ff
01
ff
fe
fe
01
fc
02
ff
ff
00
00
fc
00
ff
01
ff
fc
ff
fd
00
fe
fd
fd
fc
02
00
ff
00
02
ff
01
00
01
fe
fe
00
ff
00
00
ff
ff
fd
00
fe
fe
fe
02
00
00
fd
fe
fe
01
fd
ff
fd
fd
fe
fd
00
00
00
fe
ff
00
fd
fd
ff
00
fe
fe
fe
fe
fc
fd
ff
fd
fe
00
fe
01
00
ff
fe
01
ff
fd
01
02
ff
01
ff
ff
01
00
fe
fe
ff
fe
fd
00
fe
fe
fe
01
00
01
ff
ff
fe
02
01
fe
fe
01
fe
ff
00
ff
fd
fc
ff
fe
ff
fe
fe
fd
00
ff
fd
00
ff
fe
ff
01
fe
ff
00
fe
00
fd
00
ff
00
ff
00
fd
ff
02
00
00
fe
00
ff
02
01
ff
fd
ff
fe
ff
ff
00
00
ff
ff
00
fd
02
00
ff
fe
fd
fd
01
fe
ff
fe
ff
00
00
00
fe
00
00
00
01
ff
01
02
ff
01
00
fe
ff
ff
00
ff
fe
ff
01
fe
00
02
ff
fe
01
02
fe
ff
00
00
ff
00
00
01
00
fe
01
01
02
ff
ff
fe
fe
ff
01
0d
1e
1e
fb
18
0e
3a
08
04
fa
10
2a
13
16
38
0a
07
09
02
0d
e8
0d
0f
1a
28
09
e8
07
02
05
05
ed
3a
08
52
08
06
f8
0f
20
35
20
58
18
ee
02
07
05
20
0e
21
0e
3f
1e
22
fa
2a
13
06
00
ff
fd
00
03
01
00
02
0d
14
0e
15
08
f3
ff
f9
0a
02
0c
15
06
06
04
03
06
05
ff
02
f6
15
04
e7
fe
00
01
03
14
e9
08
01
17
0e
0c
0b
17
22
09
f6
ec
fd
02
e9
06
06
06
05
fb
f3
12
24
1b
11
03
1e
20
0a
31
0e
fa
0b
19
31
19
df
07
0e
01
03
fa
01
00
02
fd
05
0c
ee
24
17
11
48
1f
27
fc
3b
dc
2a
1d
39
36
21
13
3a
fd
0c
ec
15
13
19
fe
01
ff
ff
01
0e
f4
02
08
2f
07
12
08
02
1f
37
ff
16
12
33
ea
03
08
ed
18
2a
26
1b
07
2d
f2
14
f8
f0
fb
0a
18
26
f1
20
13
f3
03
f9
00
02
00
02
07
35
12
0b
e2
01
30
23
07
01
06
ff
fd
02
13
2a
03
ff
f7
0a
00
03
fe
01
0d
22
ea
2d
00
00
01
01
14
e4
ff
f2
fd
ff
fd
01
14
da
0c
f2
21
08
10
10
f8
f3
20
fb
f6
f6
1f
11
0e
e7
2d
14
05
1d
15
11
fc
27
00
1d
01
18
11
1e
f5
f1
13
36
21
31
00
0c
1c
fb
1a
08
fe
00
00
00
07
22
22
0a
08
f9
16
e5
fa
2d
22
1b
02
d7
0b
ff
13
fc
1d
02
11
fd
2c
0a
fa
ff
fe
05
0e
4c
ff
0f
e9
fd
f8
fb
2f
21
e6
14
16
e7
24
f5
fc
f0
f9
fe
fc
1b
f7
f7
0d
2f
20
0c
fa
f0
0e
e7
f0
35
27
43
2e
26
22
23
fd
fc
02
fe
fa
1f
f8
2b
e7
00
08
f7
0c
21
fa
fa
ed
00
02
05
17
2f
00
31
1a
1c
1b
13
17
d9
0f
f7
0c
ea
0d
01
12
02
dc
01
18
05
f1
09
f1
1f
0a
3a
f7
1d
06
21
19
df
15
f7
06
0d
19
00
f1
fd
10
e9
0f
05
d8
f7
14
1d
15
0f
0c
09
0b
0b
2c
1b
11
09
24
f8
15
1d
fe
06
fd
05
ff
00
17
0b
e3
f3
fa
fc
08
03
1e
0c
01
05
07
02
02
fc
ff
05
02
dd
12
1d
09
03
fa
fe
0a
08
0a
07
fe
23
45
22
1f
48
20
21
0f
11
09
10
02
fe
00
ff
0b
e6
0b
06
00
00
00
fe
01
fe
ff
fe
02
00
01
01
ff
00
fe
00
01
01
ff
fe
ff
fe
fe
ff
ff
01
01
ff
00
01
fe
fc
fe
fe
fb
00
fe
ff
ff
fe
01
01
01
fe
ff
fe
01
01
fe
fd
00
ff
fe
fd
ff
fe
ff
00
ff
01
ff
fc
ff
fe
fe
fe
00
fe
02
00
00
00
01
00
ff
01
01
02
02
fe
02
fe
01
fe
ff
fe
ff
00
00
01
fe
ff
ff
01
01
00
ff
ff
fe
01
00
ff
01
01
fe
00
fe
01
fe
01
02
fe
00
ff
00
ff
ff
fd
fe
00
01
fc
01
ff
ff
ff
ff
00
fe
ff
01
fe
00
fd
00
01
00
fe
ff
00
fe
fe
02
ff
ff
00
ff
fe
ff
ff
00
01
01
00
ff
01
00
00
00
ff
fd
01
ff
00
00
01
fe
01
ff
fe
ff
02
fd
fd
fc
fe
fe
00
ff
ff
ff
fe
02
00
01
01
ff
01
fe
ff
fc
fe
fe
00
ff
ff
fe
00
ff
00
00
00
fe
fe
ff
00
ff
ff
00
fe
00
ff
01
ff
fe
fd
02
00
00
ff
00
01
ff
ff
02
fe
00
02
ff
fe
fe
02
01
01
00
ff
00
fe
ff
00
01
ff
01
fe
02
02
00
02
fd
ff
00
fe
ff
fe
02
00
02
01
fe
fe
01
00
ff
00
ff
00
02
ff
ff
fe
fe
01
00
00
fe
fe
01
ff
00
02
ff
ff
00
02
ff
fe
00
fe
00
fe
00
ff
ff
00
00
00
00
00
fe
02
fe
00
ff
01
00
fd
00
01
01
fe
01
fe
01
fe
fe
01
ff
02
fe
fd
00
fe
00
00
01
01
01
fe
fe
01
fe
fd
ff
ff
01
fd
ff
fb
fd
fe
01
fd
02
02
ff
ff
fe
00
00
fb
fd
00
01
00
ff
ff
00
01
01
00
00
01
01
ff
00
01
00
02
ff
02
02
01
ff
fe
01
01
fe
fe
01
fe
fc
01
ff
fe
00
ff
01
01
00
01
ff
ff
fe
ff
fe
00
01
00
00
fe
01
00
02
fe
fc
ff
00
ff
fe
ff
fe
fe
00
fe
01
02
ff
00
fe
ff
fd
fe
ff
ff
fe
fe
fe
00
01
fe
fc
fd
01
fd
fe
01
02
fd
ff
01
fe
fe
fd
ff
00
02
02
fe
02
01
02
ff
fe
fe
00
fe
00
fe
ff
01
fd
00
01
00
fd
fe
ff
ff
ff
fe
00
ff
01
01
ff
02
00
01
ff
02
ff
01
ff
00
00
fe
01
02
02
02
ff
00
fe
01
fe
01
02
01
fe
ff
fe
ff
ff
01
fe
01
01
ff
fe
01
00
01
21
0e
23
08
11
0a
0d
15
00
26
f4
f2
ec
23
f7
04
09
fe
01
02
f6
ee
eb
eb
fa
ea
0f
f8
fd
03
01
00
0c
03
08
04
03
f9
10
1d
21
29
13
11
f6
f6
f7
f6
16
29
10
10
1a
37
13
04
23
15
24
01
fd
f8
fb
0a
01
fe
03
00
0a
08
0f
09
fb
16
03
ef
08
fc
04
fd
01
01
fe
00
ff
0a
00
06
09
f0
02
06
fe
00
03
fe
03
01
fd
00
0d
02
01
05
13
fa
16
0f
f1
f0
fa
f2
fb
00
00
ff
13
f4
ef
27
0d
f3
ec
18
18
0b
0f
f1
24
e3
0e
ed
f4
01
e1
01
fe
ec
03
ed
00
f6
06
f7
fa
f3
00
fd
24
2e
0a
33
05
15
f4
2b
1c
45
2f
f5
fe
14
01
0b
16
0d
18
08
fe
02
03
00
f9
14
df
05
eb
cb
0a
0d
2c
f1
04
20
f4
0a
f6
17
f8
00
fd
0a
1c
ed
1e
ef
08
f6
04
0c
0a
16
f7
09
0b
20
fa
21
03
0f
01
00
02
fd
03
fc
1d
f9
f9
23
1c
2c
13
01
fd
fe
00
ff
25
1c
11
0e
fe
f4
02
f2
fb
fe
fe
fa
0a
14
f6
08
fe
f9
fc
fe
03
ff
d5
f7
02
fe
03
fb
11
fd
f6
0b
12
06
14
fe
f2
08
00
ee
00
0b
19
14
0d
14
09
0e
15
12
1a
24
ff
e3
15
0c
06
15
2a
11
03
1b
e8
0d
0a
09
01
09
15
2a
0a
14
01
01
02
ff
12
08
05
00
18
fd
04
14
0e
20
29
17
fe
22
e9
fd
25
17
29
14
05
bf
0d
ec
05
f5
04
f0
0e
3b
06
2b
f1
14
fd
08
ef
0d
fa
11
23
00
16
1c
07
fe
e9
0a
ec
ef
ef
01
11
30
15
fc
f5
f0
02
f9
fb
12
2c
2a
2a
1e
1c
19
ff
02
01
00
f8
0d
fc
1c
fc
fe
07
e3
fd
0e
0b
0a
0b
0c
04
f1
f5
22
f8
1f
0a
f5
09
f0
fc
ff
ff
e7
02
08
f8
01
09
06
03
fd
fb
06
13
ef
07
42
09
19
0b
15
0f
fd
08
fb
0b
fd
09
17
f1
fa
04
ff
08
04
e7
05
d8
13
f5
2c
f5
09
fd
fe
00
fe
2e
33
36
17
fd
dd
fd
0d
03
f5
05
f4
fb
12
f7
ff
fd
14
02
12
13
e6
0b
f2
00
02
02
03
07
fc
fe
fa
0a
15
f7
0c
fe
02
0d
f1
fc
02
00
fe
00
14
19
29
13
1f
39
14
0f
18
0c
fe
01
fe
00
00
0e
0c
0d
11
07
05
0d
0e
f8
3a
31
02
f5
20
f8
0c
2f
ce
0c
00
ef
f7
0d
0c
0a
e9
bf
17
10
2c
02
fc
ff
fc
fe
fc
06
26
32
16
03
f7
08
0d
16
60
23
25
14
fc
d1
fe
f5
12
1d
fd
ec
19
1f
17
fe
21
17
34
e3
13
f6
1c
03
06
02
09
08
08
0e
12
ff
0d
ee
ef
04
0c
06
09
06
fb
ff
fe
06
01
0a
02
03
23
0c
09
03
00
00
03
fd
1b
df
fe
0b
0e
03
0f
fd
ec
ee
09
dc
0d
ff
f1
fd
00
01
ff
13
36
15
26
01
0c
1c
fa
fc
0f
23
01
fe
0d
ff
17
07
0d
11
e6
00
fe
06
fe
00
00
00
03
07
13
cb
18
2c
43
18
2f
03
06
03
1d
17
35
1d
2c
07
2b
0e
1e
0f
07
22
ff
00
02
02
00
0d
09
00
01
20
25
07
12
05
ec
21
29
fc
24
0c
11
e3
03
0f
04
fe
05
14
05
fa
09
01
fd
f8
ed
ef
13
0b
34
13
25
20
05
ea
f6
ff
00
ff
02
07
26
32
1a
e0
35
1d
0d
03
01
12
05
f1
ff
26
19
ff
00
fd
01
0a
09
05
06
e6
2a
f6
09
02
04
03
ff
0e
f3
0d
fb
ff
02
ff
01
ed
08
f0
06
f4
fe
34
13
19
fb
09
e7
01
fa
3d
08
19
fe
12
01
13
1b
17
2a
18
25
24
34
f4
24
1b
18
01
06
16
12
f6
0b
f6
f2
13
15
2f
f9
01
02
fd
05
1f
0f
0f
17
ed
0c
10
0a
fe
20
2d
10
fd
17
11
19
fe
30
1e
08
f0
0a
34
f9
04
00
fd
02
ef
5c
f8
14
0c
f3
fe
f6
f2
27
df
0b
0a
0f
0b
1b
fa
07
08
03
f1
11
0a
03
12
22
24
14
f7
f8
ff
f9
d9
3e
22
28
18
12
1b
1b
00
02
03
05
03
0c
f8
24
11
07
f9
0d
fd
41
13
2c
e4
05
fb
fd
01
0b
07
0e
12
ff
0b
0a
ef
0a
00
f6
0a
01
0c
f9
dd
0e
f0
19
1d
19
eb
09
e9
30
16
4a
e1
16
02
0f
fb
1b
f8
1a
18
00
1c
04
f7
ef
fb
00
13
07
06
14
fc
05
15
02
04
00
00
03
00
fd
f2
23
0c
fc
23
21
fe
03
01
00
0c
15
19
0d
f5
fa
17
04
03
f1
0b
f7
03
ff
00
01
fd
07
ff
00
ee
0e
44
2a
03
13
09
0d
fe
fe
02
00
f9
22
37
33
0b
42
2e
19
06
13
00
10
02
03
03
03
f5
1e
0a
00
24
f3
0e
00
28
11
00
13
0f
fd
df
fb
1c
f3
fa
0a
1b
03
18
13
23
39
0d
03
f6
fc
f2
0c
0d
0f
0a
08
19
22
0c
22
06
ef
fe
fc
20
1b
f8
29
1d
06
fe
07
08
12
02
08
0a
f7
0e
11
15
f3
eb
11
03
1a
f9
fa
02
03
02
04
01
00
06
09
0d
e5
0d
0f
0c
01
08
fd
00
00
02
fe
06
00
0a
03
10
0b
f8
16
02
00
00
01
0c
fb
00
03
10
ff
04
02
05
fc
06
03
f5
01
f2
0c
01
01
02
03
19
ef
ff
37
10
43
14
23
22
07
3b
00
1b
12
0a
2f
12
00
f5
14
04
03
00
03
fe
ff
03
03
1b
0e
08
f7
0a
f1
1a
0c
2a
07
0f
15
32
0d
2c
1f
1d
0b
23
0e
0c
20
fb
06
01
ff
01
fe
f3
12
06
28
0b
01
0e
17
30
1c
25
2e
f7
05
e3
1b
01
06
e7
02
2f
34
12
19
0d
23
f5
1a
14
f0
07
fb
eb
0b
f1
02
25
e5
09
14
01
ff
fe
01
1a
2f
07
03
05
1c
0b
1f
0c
04
0a
05
28
0c
11
20
05
01
ff
08
01
ff
01
00
0f
0b
0a
20
05
01
01
05
fb
ff
07
f1
01
ff
02
00
0b
fa
0a
17
fb
11
fe
1b
0c
00
e5
03
10
06
18
0b
39
0f
19
01
14
0e
08
2d
0b
10
20
fd
13
1f
1a
0a
10
0f
f9
fd
3c
2e
0d
17
1f
1b
e9
07
fe
00
00
01
2d
1f
1e
23
fe
f0
05
03
09
11
f0
17
36
20
28
ff
1a
13
10
1e
28
0e
2d
0c
02
00
ff
02
1b
37
1a
23
1a
f7
ec
02
32
24
19
1b
03
00
fc
1e
f2
e7
f7
ef
fa
ff
01
0a
20
0d
11
11
fb
00
f5
06
07
2c
5f
26
2c
15
1d
11
02
fd
01
fe
27
0b
09
09
0b
0f
e0
12
04
39
12
20
03
e4
f2
f9
19
ff
ea
29
27
01
03
0d
fe
fa
e9
01
01
e7
23
eb
26
33
08
16
1a
df
1b
03
f6
46
f8
35
0d
f9
e2
fe
09
fb
04
10
13
1d
f7
1a
05
02
15
04
12
12
ff
0e
1f
fa
e7
11
02
03
01
03
15
e0
24
e9
2e
2c
04
05
ff
fc
04
02
09
15
1a
0f
11
05
f2
f9
18
07
0e
fd
01
01
06
03
03
07
01
00
07
22
f7
0f
00
00
ef
06
09
08
09
05
00
11
15
ff
09
19
0b
21
09
06
07
0f
03
fe
ff
ff
09
0e
09
1f
fd
fe
fe
fe
fd
fc
01
ff
fd
01
ff
01
fe
00
ff
00
fc
fc
fd
fc
ff
fd
ff
fe
00
ff
ff
01
fe
01
01
02
ff
ff
01
fe
fd
fd
ff
01
fe
fe
02
ff
fd
01
fb
ff
00
00
fe
ff
01
02
fd
01
fd
ff
01
ff
ff
fd
ff
fe
01
fe
00
01
02
ff
01
02
ff
fd
fc
fe
00
01
ff
ff
ff
02
01
ff
01
fe
fe
01
fd
ff
fd
02
00
01
fe
00
ff
ff
00
ff
00
00
fe
ff
ff
fd
01
fe
ff
fd
fe
fe
02
fe
fe
00
01
ff
fe
ff
ff
fc
fe
01
ff
ff
fe
fe
fd
fe
00
fe
fc
ff
00
01
01
00
fe
01
fe
01
fd
01
00
01
fe
fe
00
00
00
fd
fe
01
ff
00
ff
00
fe
fd
fe
ff
fe
00
01
ff
01
01
fe
fe
ff
fe
fe
00
01
00
ff
ff
fe
ff
fd
fd
00
ff
00
00
fe
ff
fc
ff
01
fe
00
fe
fc
ff
fd
fe
00
ff
fe
fc
01
fc
00
ff
fe
ff
ff
00
fc
fe
fd
01
fd
01
fc
fe
ff
fc
fc
ff
fc
01
fd
fe
fe
fe
ff
fe
ff
ff
fd
ff
ff
01
00
ff
fd
01
ff
ff
fd
00
00
01
02
fe
fd
ff
ff
00
ff
01
ff
fe
fd
00
ff
00
01
ff
fe
fd
00
ff
fe
02
fe
fd
00
ff
fe
01
ff
ff
ff
01
01
02
fd
ff
fd
00
fe
fe
fd
fd
fc
fe
fd
fe
01
00
ff
ff
fe
ff
01
fe
00
ff
fe
fe
ff
fe
ff
ff
ff
00
fd
fc
00
01
ff
02
02
ff
fd
fe
fd
fd
ff
02
fe
00
fd
fd
00
ff
00
fd
ff
fd
ff
ff
00
fe
ff
00
00
01
fd
02
ff
00
01
fe
ff
ff
ff
fd
ff
ff
00
fe
fd
ff
ff
fd
ff
fc
fd
00
01
ff
fe
fe
00
02
ff
02
fe
fe
02
ff
00
01
fe
01
fd
fd
00
ff
01
fe
fe
02
ff
ff
ff
fd
01
ff
01
ff
01
01
00
01
fe
00
fc
ff
fe
fc
fd
fb
ff
fd
fb
00
02
01
fe
01
ff
ff
fd
01
fd
02
fc
fe
fb
ff
00
fd
00
fd
ff
00
ff
fc
01
ff
fe
ff
00
fe
ff
02
00
02
01
01
fe
02
fd
00
01
fc
00
01
fe
01
ff
ff
fe
fd
ff
fd
ff
fe
fe
ff
fc
00
fe
02
fe
01
02
00
ff
01
01
01
00
01
ff
00
ff
fd
ff
fe
00
02
00
02
00
01
fd
fe
ff
fe
fe
fe
fe
00
01
01
ff
ff
fe
00
ff
00
00
fd
fe
ff
20
1a
23
12
12
35
45
22
12
1a
fe
0e
2e
e1
06
19
fd
01
fe
eb
11
f5
06
0f
04
17
16
10
00
ff
00
02
12
02
fa
19
0e
0f
de
1c
19
22
1d
21
0f
dd
f2
ff
16
37
2b
2b
12
38
33
38
1f
13
15
33
0e
04
f3
01
08
07
01
06
11
09
06
0b
0a
04
1f
13
16
0f
11
12
07
07
06
04
03
01
ff
00
e9
fa
17
ee
01
02
01
02
f8
06
1e
ef
ff
13
03
f9
12
35
ed
fb
f8
12
ff
f4
01
02
04
05
22
43
ff
1f
0c
2e
20
1d
28
0f
07
f2
0f
02
02
09
fa
09
07
0b
03
02
fe
01
01
03
fe
00
14
e8
08
20
45
55
08
08
f9
27
c8
1f
41
2e
27
1d
1b
1a
f9
32
23
18
18
0e
fe
00
ff
02
02
ef
05
02
01
1a
05
fd
1d
1f
06
04
f3
09
16
10
fd
02
fd
f3
21
18
17
19
fa
0c
ff
f8
00
06
09
14
17
01
02
2c
25
f9
0b
0f
02
02
ff
fd
17
02
05
fc
10
0f
1c
23
07
03
11
04
14
06
17
3a
01
03
fb
03
07
0b
06
0d
1f
ff
f2
0f
fe
fd
fe
fd
0b
00
ea
0c
03
03
fc
01
00
12
10
f2
1a
04
1f
0e
0c
fc
0e
f5
00
16
35
fb
fc
0f
f6
0c
28
26
21
25
14
2f
01
03
14
04
1d
1a
f8
20
22
18
00
f2
1d
1e
0f
17
23
1d
02
02
fc
fe
1f
1f
05
f9
04
08
0f
ef
20
0b
4b
21
0b
e3
06
10
11
2f
22
16
0e
04
1f
e4
fe
08
fe
02
11
34
0f
16
01
f1
02
f5
f9
fe
df
18
fb
10
1b
09
f9
ef
e6
05
02
fa
fc
1a
25
29
0b
09
ee
03
09
e6
0d
1a
34
39
28
1a
0f
0c
00
00
ff
00
06
1c
e3
1f
da
07
ff
fb
0c
35
fe
38
02
11
fe
0c
10
05
07
26
20
15
15
09
03
09
ff
12
fc
03
06
0a
ff
05
f1
00
0d
0e
0c
25
fa
2c
2a
20
08
12
0d
0f
04
03
20
0b
09
04
19
1e
01
03
08
f4
0b
fe
f6
22
0c
20
28
1b
0a
08
07
02
1a
27
0c
24
07
ed
ec
17
05
04
03
ff
00
20
05
0f
eb
fa
1a
fd
0d
fe
0b
f0
07
04
00
02
f7
04
03
08
f9
2c
3c
1a
06
02
05
0a
01
03
fe
02
0f
1f
10
18
2e
f6
2b
29
0e
17
06
0e
ff
ff
01
01
f7
1a
0d
20
0b
fc
05
ef
11
de
05
ed
08
ef
f9
03
1c
00
00
f4
f9
05
03
f9
08
0c
1b
02
03
0c
0a
f8
fe
00
ff
04
f1
f2
0b
f1
0b
f6
22
f1
0c
ff
1d
fa
0a
f8
19
08
f6
fb
05
e1
fe
